<pad>	0
<unk>	0
<s>	0
</s>	0
我们	-0
▁这	-1
▁我	-2
一个	-3
▁我们	-4
他们	-5
什么	-6
▁你	-7
可以	-8
▁但	-9
这个	-10
就是	-11
▁这是	-12
没有	-13
现在	-14
▁所	-15
▁在	-16
▁它	-17
这些	-18
不是	-19
▁所以	-20
▁他们	-21
▁那	-22
知道	-23
问题	-24
▁而	-25
非常	-26
▁他	-27
需要	-28
这样	-29
开始	-30
我的	-31
。"	-32
▁但是	-33
因为	-34
你们	-35
看到	-36
如果	-37
自己	-38
一些	-39
的是	-40
▁是	-41
的人	-42
▁现在	-43
▁当	-44
世界	-45
▁有	-46
▁"	-47
可能	-48
然后	-49
这是	-50
东西	-51
时候	-52
很多	-53
已经	-54
▁不	-55
的事	-56
▁如果	-57
▁这个	-58
它们	-59
怎么	-60
一种	-61
认为	-62
人们	-63
▁这些	-64
工作	-65
我们的	-66
发生	-67
为什么	-68
大家	-69
▁然后	-70
▁因为	-71
起来	-72
好的	-73
到了	-74
,"	-75
如何	-76
大的	-77
都是	-78
不同	-79
孩子	-80
所有	-81
这里	-82
你的	-83
重要	-84
?"	-85
一下	-86
只是	-87
一样	-88
改变	-89
00	-90
还有	-91
▁她	-92
时间	-93
▁这就是	-94
:"	-95
的一	-96
▁也	-97
这种	-98
▁就	-99
的时候	-100
生活	-101
故事	-102
发现	-103
不会	-104
研究	-105
告诉	-106
地方	-107
应该	-108
部分	-109
▁那么	-110
必须	-111
▁我想	-112
美国	-113
因此	-114
是一个	-115
觉得	-116
国家	-117
不能	-118
▁对	-119
设计	-120
这一	-121
--	-122
希望	-123
▁让	-124
喜欢	-125
那些	-126
▁第	-127
人的	-128
其他	-129
我想	-130
▁它们	-131
事实	-132
▁最	-133
任何	-134
▁一	-135
▁因此	-136
今天	-137
方式	-138
真的	-139
看看	-140
关于	-141
实际	-142
来说	-143
人类	-144
这样的	-145
这么	-146
正在	-147
▁你们	-148
系统	-149
那个	-150
的事情	-151
中的	-152
还是	-153
其实	-154
的东西	-155
一次	-156
▁并	-157
▁我的	-158
完全	-159
样的	-160
技术	-161
数据	-162
成为	-163
来的	-164
使用	-165
一起	-166
做的	-167
或者	-168
简单	-169
方法	-170
也是	-171
▁好	-172
▁每	-173
个人	-174
例子	-175
是什么	-176
通过	-177
进行	-178
上的	-179
▁而且	-180
有一个	-181
得到	-182
的问题	-183
▁一个	-184
▁从	-185
情况	-186
实际上	-187
两个	-188
存在	-189
不知道	-190
下来	-191
照片	-192
一点	-193
自己的	-194
社会	-195
事实上	-196
事情	-197
结果	-198
▁当然	-199
能够	-200
▁大	-201
于是	-202
是个	-203
科学	-204
创造	-205
▁你可以	-206
生命	-207
信息	-208
不同的	-209
了一个	-210
想法	-211
其中	-212
新的	-213
▁这里	-214
..	-215
并不	-216
那里	-217
如此	-218
解决	-219
决定	-220
机器	-221
他们的	-222
他的	-223
实验	-224
——	-225
发展	-226
真正	-227
▁和	-228
一直	-229
选择	-230
了一	-231
感觉	-232
▁于是	-233
更多	-234
谢谢	-235
的地方	-236
展示	-237
只有	-238
那么	-239
相信	-240
▁如果你	-241
影响	-242
意思	-243
许多	-244
之后	-245
整个	-246
到的	-247
它的	-248
过程	-249
是在	-250
同时	-251
来自	-252
▁这是一个	-253
怎样	-254
方面	-255
公司	-256
生物	-257
过去	-258
大脑	-259
城市	-260
20	-261
甚至	-262
仅仅	-263
帮助	-264
想要	-265
经济	-266
艺术	-267
原因	-268
把它	-269
让我	-270
▁就是	-271
▁没有	-272
19	-273
▁人们	-274
出来	-275
了解	-276
变得	-277
项目	-278
▁所以我	-279
性的	-280
动物	-281
10	-282
想象	-283
▁为什么	-284
就像	-285
让我们	-286
之一	-287
"。	-288
作为	-289
▁(	-290
之前	-291
自然	-292
▁还有	-293
成功	-294
我在	-295
▁我认为	-296
为了	-297
最后	-298
说的	-299
产生	-300
变成	-301
非洲	-302
▁事实上	-303
做了	-304
基本	-305
多少	-306
我要	-307
▁这种	-308
是一	-309
年前	-310
▁接	-311
学习	-312
无法	-313
有趣	-314
▁比	-315
另一个	-316
件事	-317
▁我们的	-318
就会	-319
有些	-320
变化	-321
确实	-322
是我们	-323
看起来	-324
▁所以我们	-325
▁来	-326
有一	-327
令人	-328
地球	-329
建筑	-330
并不是	-331
意识	-332
首先	-333
▁很	-334
▁我说	-335
细胞	-336
教育	-337
朋友	-338
答案	-339
全球	-340
声音	-341
游戏	-342
印度	-343
拥有	-344
组织	-345
▁以	-346
环境	-347
▁并且	-348
在这里	-349
关系	-350
的话	-351
运动	-352
将会	-353
的一个	-354
计算	-355
▁不过	-356
另外	-357
理解	-358
演讲	-359
意味	-360
未来	-361
学校	-362
出现	-363
完成	-364
当时	-365
有点	-366
▁要	-367
当然	-368
是我	-369
之间	-370
安全	-371
意义	-372
找到	-373
200	-374
几个	-375
感到	-376
美元	-377
▁我们可以	-378
网络	-379
能力	-380
学生	-381
▁让我们	-382
都有	-383
音乐	-384
三个	-385
解释	-386
复杂	-387
总是	-388
语言	-389
▁或者	-390
基因	-391
这就是	-392
一定	-393
制造	-394
思考	-395
历史	-396
身体	-397
▁我在	-398
▁最后	-399
意味着	-400
注意	-401
经历	-402
你可以	-403
中国	-404
政府	-405
数字	-406
电影	-407
科技	-408
也许	-409
回到	-410
才能	-411
有人	-412
重要的	-413
控制	-414
机会	-415
▁他说	-416
几乎	-417
同样	-418
我们可以	-419
▁这样	-420
里的	-421
对于	-422
行为	-423
都在	-424
继续	-425
特别	-426
计划	-427
发生了	-428
的方式	-429
到底	-430
是否	-431
准备	-432
叫做	-433
多数	-434
图片	-435
▁--	-436
ED	-437
回答	-438
空间	-439
观众	-440
▁我们需要	-441
▁看	-442
▁所有	-443
医生	-444
另一	-445
我就	-446
电脑	-447
相当	-448
尝试	-449
年的	-450
然而	-451
作品	-452
十分	-453
▁可	-454
做到	-455
在这	-456
▁也许	-457
在一起	-458
目标	-459
哪里	-460
的故事	-461
50	-462
作用	-463
健康	-464
▁然而	-465
有什么	-466
看到的	-467
这个问题	-468
容易	-469
感谢	-470
都会	-471
主义	-472
给你们	-473
▁用	-474
不想	-475
小时	-476
有个	-477
▁就像	-478
有很多	-479
▁实际上	-480
很好	-481
提供	-482
食物	-483
▁第二	-484
反应	-485
文化	-486
有了	-487
第一	-488
▁再	-489
去了	-490
根本	-491
模式	-492
▁其实	-493
▁可以	-494
工具	-495
TED	-496
▁大家	-497
▁的	-498
下面	-499
价值	-500
第二	-501
an	-502
利用	-503
力量	-504
我说	-505
进入	-506
▁今天	-507
▁只	-508
唯一	-509
理论	-510
做什么	-511
我们在	-512
兴趣	-513
努力	-514
▁我是	-515
学家	-516
实现	-517
现实	-518
所有的	-519
不要	-520
代表	-521
战争	-522
▁但我	-523
▁我要	-524
并没有	-525
不可	-526
出了	-527
宇宙	-528
机器人	-529
保护	-530
各种	-531
建立	-532
▁它是	-533
上面	-534
▁首先	-535
世界上	-536
女性	-537
样子	-538
▁让我	-539
分钟	-540
或许	-541
真实	-542
明白	-543
曾经	-544
▁正	-545
▁都	-546
制作	-547
活动	-548
产品	-549
孩子们	-550
▁我们在	-551
所以	-552
讨论	-553
也不	-554
带来	-555
接受	-556
里面	-557
问题是	-558
它是	-559
通常	-560
同样的	-561
更加	-562
模型	-563
比较	-564
视频	-565
▁你会	-566
联系	-567
关注	-568
地区	-569
我是	-570
行动	-571
▁同时	-572
更多的	-573
一切	-574
世纪	-575
办法	-576
大概	-577
观点	-578
发明	-579
死亡	-580
电话	-581
分享	-582
结束	-583
你会	-584
处理	-585
小的	-586
目前	-587
色的	-588
▁你知道	-589
▁这是一	-590
▁把	-591
也有	-592
名字	-593
那样	-594
▁去	-595
但是	-596
参与	-597
听到	-598
持续	-599
汽车	-600
病毒	-601
30	-602
合作	-603
市场	-604
用的	-605
神经	-606
▁请	-607
了我	-608
以前	-609
女孩	-610
家庭	-611
记得	-612
重新	-613
我们就	-614
的工作	-615
▁这是我	-616
关键	-617
太阳	-618
年轻	-619
挑战	-620
清楚	-621
巨大的	-622
简单的	-623
年代	-624
治疗	-625
000	-626
第一个	-627
人都	-628
精神	-629
结构	-630
▁比如	-631
不到	-632
明显	-633
▁其中	-634
女人	-635
给你	-636
▁那些	-637
er	-638
▁1	-639
看见	-640
自由	-641
主要	-642
大学	-643
百万	-644
成了	-645
身上	-646
多的	-647
成的	-648
▁对于	-649
眼睛	-650
不可能	-651
她的	-652
很有	-653
我会	-654
概念	-655
生产	-656
肯定	-657
过的	-658
仅仅是	-659
每个人	-660
基础	-661
政治	-662
考虑	-663
可能会	-664
▁如	-665
每天	-666
测试	-667
疾病	-668
▁非常	-669
▁我觉得	-670
各位	-671
我不	-672
有关	-673
本身	-674
量的	-675
错误	-676
什么呢	-677
在那	-678
领域	-679
▁而是	-680
▁会	-681
对吧	-682
男人	-683
自我	-684
获得	-685
显示	-686
大约	-687
移动	-688
▁我不	-689
中心	-690
手术	-691
给我	-692
老师	-693
证明	-694
过来	-695
我们要	-696
上去	-697
分之	-698
来越	-699
鼓掌	-700
是怎么	-701
真正的	-702
不断	-703
也会	-704
分子	-705
好了	-706
数学	-707
来看	-708
某种	-709
离开	-710
让人	-711
超过	-712
飞机	-713
也可以	-714
这一点	-715
正确	-716
癌症	-717
飞行	-718
▁那是	-719
第一次	-720
这是一个	-721
区域	-722
时代	-723
母亲	-724
永远	-725
病人	-726
▁接着	-727
计算机	-728
越来越	-729
▁更	-730
上帝	-731
每个	-732
的大	-733
▁有些	-734
▁第一	-735
你能	-736
增长	-737
很难	-738
想到	-739
父亲	-740
角度	-741
谈论	-742
▁不是	-743
不错	-744
快乐	-745
支持	-746
消息	-747
观察	-748
基本上	-749
▁我希望	-750
内容	-751
危险	-752
寻找	-753
拍摄	-754
程度	-755
▁能	-756
做出	-757
想想	-758
类似	-759
纽约	-760
设备	-761
资源	-762
▁好吧	-763
世界的	-764
意识到	-765
我们需要	-766
的一部分	-767
▁说	-768
手机	-769
方向	-770
植物	-771
认识	-772
给大家	-773
▁还	-774
媒体	-775
对我	-776
就能	-777
愿意	-778
放在	-779
材料	-780
我们有	-781
改变了	-782
▁即	-783
▁无	-784
力的	-785
是的	-786
糟糕	-787
一样的	-788
我认为	-789
的方法	-790
仍然	-791
奇怪	-792
显然	-793
你知道	-794
告诉你	-795
的时间	-796
这样做	-797
似乎	-798
充满	-799
海洋	-800
速度	-801
▁但这	-802
传统	-803
后来	-804
是非常	-805
从来	-806
受到	-807
▁你的	-808
▁谢谢	-809
困难	-810
建造	-811
是很	-812
最终	-813
突然	-814
▁我会	-815
不需要	-816
了这个	-817
怎么样	-818
我们能	-819
的例子	-820
先生	-821
是有	-822
确定	-823
能源	-824
记录	-825
15	-826
一天	-827
一步	-828
完美	-829
英国	-830
领导	-831
最大的	-832
这么做	-833
!"	-834
化的	-835
投资	-836
担心	-837
现象	-838
石油	-839
▁你能	-840
在一个	-841
下的	-842
失败	-843
得不	-844
物种	-845
▁当你	-846
一个人	-847
ar	-848
▁克	-849
全部	-850
具有	-851
别人	-852
称为	-853
而且	-854
大多数	-855
如果你	-856
我们所	-857
不再	-858
让你	-859
说明	-860
▁很多	-861
是一种	-862
NA	-863
电视	-864
而言	-865
这张	-866
是如何	-867
看到了	-868
▁但我们	-869
▁S	-870
事物	-871
我也	-872
的小	-873
▁当时	-874
的情况	-875
▁我们要	-876
一张	-877
创作	-878
的原因	-879
都知道	-880
▁我知道	-881
两种	-882
个月	-883
以为	-884
会有	-885
在于	-886
探索	-887
相同	-888
▁结果	-889
这一切	-890
▁为	-891
▁像	-892
不过	-893
儿童	-894
图像	-895
更好	-896
知识	-897
▁那就是	-898
父母	-899
那是	-900
最好的	-901
▁这不是	-902
▁与	-903
型的	-904
定义	-905
并且	-906
服务	-907
什么是	-908
实验室	-909
▁我们必须	-910
▁B	-911
下去	-912
人口	-913
出的	-914
在那里	-915
on	-916
保持	-917
有着	-918
直接	-919
真是	-920
面对	-921
▁当我	-922
介绍	-923
任务	-924
好像	-925
工程	-926
有多	-927
有的	-928
梦想	-929
至少	-930
其他的	-931
可能是	-932
就可以	-933
▁现在我们	-934
平均	-935
恐惧	-936
值得	-937
兴奋	-938
我所	-939
某些	-940
试着	-941
难以	-942
告诉我	-943
感兴趣	-944
百分之	-945
40	-946
▁被	-947
会说	-948
加入	-949
回来	-950
来到	-951
用于	-952
...	-953
▁好的	-954
▁我可以	-955
▁到	-956
▁没	-957
严重	-958
刚刚	-959
只能	-960
物质	-961
绝对	-962
▁一些	-963
的照片	-964
导致	-965
效果	-966
时刻	-967
的确	-968
等等	-969
很好的	-970
不多	-971
不用	-972
不起	-973
传播	-974
去做	-975
看着	-976
预测	-977
▁这就	-978
在这个	-979
意思是	-980
的孩子	-981
▁这是个	-982
体验	-983
的呢	-984
联网	-985
表现	-986
阶段	-987
其中的	-988
科学家	-989
地图	-990
增加	-991
很快	-992
要求	-993
进化	-994
连接	-995
▁作为	-996
▁我就	-997
得到了	-998
来看看	-999
▁我们有	-1000
11	-1001
▁人	-1002
害怕	-1003
幸福	-1004
方案	-1005
物理	-1006
电子	-1007
管理	-1008
聪明	-1009
行的	-1010
▁看看	-1011
▁也就是	-1012
对此	-1013
是不	-1014
民主	-1015
相关	-1016
能量	-1017
试图	-1018
里斯	-1019
高兴	-1020
▁是的	-1021
▁我们现在	-1022
12	-1023
以后	-1024
▁只有	-1025
▁我们也	-1026
▁接下来	-1027
le	-1028
▁C	-1029
一段	-1030
交流	-1031
利亚	-1032
打开	-1033
本书	-1034
消失	-1035
神奇	-1036
▁关于	-1037
▁它的	-1038
你在	-1039
其它	-1040
创新	-1041
医疗	-1042
商业	-1043
正常	-1044
▁这张	-1045
▁这是我们	-1046
一只	-1047
之为	-1048
子的	-1049
幸运	-1050
很棒	-1051
英尺	-1052
都不	-1053
了很多	-1054
很重要	-1055
参加	-1056
句话	-1057
形式	-1058
现代	-1059
用来	-1060
表演	-1061
▁另外	-1062
▁美国	-1063
也没有	-1064
互联网	-1065
给我们	-1066
....	-1067
▁我们能	-1068
60	-1069
▁将	-1070
上了	-1071
假设	-1072
共同	-1073
子里	-1074
就在	-1075
新闻	-1076
达到	-1077
▁还是	-1078
人类的	-1079
是因为	-1080
称之为	-1081
▁我们还	-1082
周围	-1083
尼亚	-1084
心理	-1085
社区	-1086
道德	-1087
▁通过	-1088
其他人	-1089
发生在	-1090
大部分	-1091
很大的	-1092
告诉你们	-1093
斯坦	-1094
谈谈	-1095
运作	-1096
随着	-1097
把它们	-1098
有一些	-1099
一位	-1100
出生	-1101
宗教	-1102
应用	-1103
数量	-1104
最近	-1105
的那	-1106
经常	-1107
虽然	-1108
规模	-1109
▁他的	-1110
▁在我	-1111
住在	-1112
你是	-1113
心脏	-1114
长的	-1115
▁下面	-1116
▁为了	-1117
▁只是	-1118
▁甚至	-1119
发生的	-1120
80	-1121
▁除	-1122
一年	-1123
你就	-1124
功能	-1125
女士	-1126
面临	-1127
些什么	-1128
伟大的	-1129
我可以	-1130
的世界	-1131
体的	-1132
描述	-1133
星期	-1134
说过	-1135
足够	-1136
进步	-1137
▁我还	-1138
▁有人	-1139
▁他们的	-1140
▁D	-1141
不了	-1142
妈妈	-1143
家伙	-1144
状况	-1145
相反	-1146
试验	-1147
那时	-1148
▁如今	-1149
我开始	-1150
没有人	-1151
艺术家	-1152
▁当我们	-1153
▁我不知道	-1154
25	-1155
in	-1156
▁下	-1157
动作	-1158
才是	-1159
者的	-1160
▁我也	-1161
▁或许	-1162
之间的	-1163
更好的	-1164
18	-1165
包括	-1166
土地	-1167
她们	-1168
思想	-1169
正是	-1170
毫无	-1171
猩猩	-1172
表达	-1173
这项	-1174
出来的	-1175
怎么做	-1176
我觉得	-1177
企业	-1178
允许	-1179
团队	-1180
成本	-1181
生态	-1182
程序	-1183
范围	-1184
发现了	-1185
我们也	-1186
▁或	-1187
一条	-1188
中间	-1189
动力	-1190
医院	-1191
因素	-1192
在我	-1193
并非	-1194
欧洲	-1195
直到	-1196
美丽	-1197
视觉	-1198
都很	-1199
▁她们	-1200
▁那个	-1201
问题的	-1202
可以看到	-1203
▁A	-1204
例如	-1205
带着	-1206
我还	-1207
房间	-1208
有效	-1209
机构	-1210
目的	-1211
相互	-1212
表面	-1213
见过	-1214
100	-1215
▁以及	-1216
多少人	-1217
这是个	-1218
▁我们知道	-1219
▁由	-1220
减少	-1221
刚才	-1222
吸引	-1223
普通	-1224
暴力	-1225
标准	-1226
每年	-1227
颜色	-1228
▁19	-1229
▁她说	-1230
▁我很	-1231
你们的	-1232
的过程	-1233
▁你可以看到	-1234
▁J	-1235
▁做	-1236
▁马	-1237
了吗	-1238
人生	-1239
多么	-1240
边的	-1241
革命	-1242
▁想象	-1243
了我们	-1244
听起来	-1245
差不多	-1246
的想法	-1247
▁又	-1248
一般	-1249
以及	-1250
和我	-1251
定的	-1252
收入	-1253
漂亮	-1254
男孩	-1255
见的	-1256
记忆	-1257
▁在这	-1258
不是吗	-1259
我们会	-1260
这件事	-1261
▁我现在	-1262
",	-1263
▁其	-1264
▁嗯	-1265
不在	-1266
形成	-1267
我能	-1268
所在	-1269
气候	-1270
的主	-1271
表示	-1272
责任	-1273
那种	-1274
▁好了	-1275
都没有	-1276
▁谁	-1277
你要	-1278
危机	-1279
呼吸	-1280
四个	-1281
形状	-1282
打算	-1283
规则	-1284
阿拉	-1285
▁后来	-1286
会发生	-1287
是不是	-1288
生活在	-1289
这不是	-1290
▁第一个	-1291
重要的是	-1292
关心	-1293
学的	-1294
政策	-1295
时期	-1296
水平	-1297
疯狂	-1298
的最	-1299
组成	-1300
经验	-1301
网站	-1302
而已	-1303
而是	-1304
行星	-1305
说法	-1306
▁那时	-1307
变成了	-1308
过去的	-1309
▁-	-1310
▁两	-1311
了这	-1312
会议	-1313
我很	-1314
系列	-1315
花费	-1316
软件	-1317
▁我将	-1318
有趣的	-1319
的结果	-1320
▁我们将	-1321
▁但是我们	-1322
信号	-1323
停止	-1324
公共	-1325
十年	-1326
压力	-1327
后的	-1328
多了	-1329
广告	-1330
快速	-1331
笑声	-1332
类的	-1333
风险	-1334
DNA	-1335
未来的	-1336
以来	-1337
你所	-1338
处于	-1339
妇女	-1340
小孩	-1341
恐怖	-1342
统计	-1343
绿色	-1344
训练	-1345
过了	-1346
它们的	-1347
我知道	-1348
是我的	-1349
还没有	-1350
90	-1351
▁P	-1352
办公	-1353
坐在	-1354
晚上	-1355
来了	-1356
漫画	-1357
痛苦	-1358
相似	-1359
究竟	-1360
英语	-1361
药物	-1362
要做	-1363
角色	-1364
重复	-1365
分之一	-1366
位置	-1367
出去	-1368
化学	-1369
状态	-1370
花了	-1371
▁即使	-1372
我们不	-1373
的一切	-1374
▁我们不	-1375
▁这也是	-1376
▁然后我们	-1377
一件	-1378
之中	-1379
之处	-1380
别的	-1381
可怕	-1382
好吧	-1383
收集	-1384
智慧	-1385
根据	-1386
理由	-1387
西方	-1388
还在	-1389
阅读	-1390
面的	-1391
接下来	-1392
的人们	-1393
的数据	-1394
女儿	-1395
屏幕	-1396
思议	-1397
▁不要	-1398
所有人	-1399
▁另一个	-1400
▁加	-1401
下降	-1402
和平	-1403
工业	-1404
独立	-1405
英里	-1406
高的	-1407
▁人类	-1408
对我们	-1409
的生活	-1410
▁我相信	-1411
告诉我们	-1412
没有任何	-1413
互相	-1414
人员	-1415
品牌	-1416
哪些	-1417
对吗	-1418
当你	-1419
很大	-1420
我有	-1421
房子	-1422
承认	-1423
提高	-1424
操作	-1425
是从	-1426
生存	-1427
记住	-1428
银行	-1429
▁之后	-1430
▁我从	-1431
▁整个	-1432
工作的	-1433
这些人	-1434
▁他们说	-1435
▁这就是我们	-1436
他说	-1437
动的	-1438
取得	-1439
实在	-1440
情绪	-1441
文字	-1442
看来	-1443
调查	-1444
马上	-1445
▁最终	-1446
▁每个	-1447
全世界	-1448
每一个	-1449
▁这样的	-1450
70	-1451
ic	-1452
▁小	-1453
一名	-1454
事件	-1455
会在	-1456
建议	-1457
▁第三	-1458
复杂的	-1459
把这个	-1460
▁在这个	-1461
发生了什么	-1462
▁总	-1463
中有	-1464
做得	-1465
再次	-1466
地的	-1467
心的	-1468
没人	-1469
法律	-1470
爱的	-1471
证据	-1472
起了	-1473
▁正如	-1474
▁这一	-1475
看上去	-1476
▁于是我	-1477
另外一个	-1478
看到的是	-1479
▁我们已经	-1480
▁K	-1481
▁给	-1482
享受	-1483
则是	-1484
回家	-1485
垃圾	-1486
失去	-1487
婴儿	-1488
感受	-1489
权利	-1490
森林	-1491
消费	-1492
这儿	-1493
适应	-1494
▁可能	-1495
另一种	-1496
美国人	-1497
都可以	-1498
不可思议	-1499
非常感谢	-1500
▁如果我们	-1501
is	-1502
使得	-1503
像是	-1504
内部	-1505
同情	-1506
常常	-1507
平衡	-1508
开发	-1509
必要	-1510
条件	-1511
第三	-1512
表明	-1513
▁你要	-1514
▁开始	-1515
了一些	-1516
很多人	-1517
▁然后我	-1518
en	-1519
不够	-1520
仔细	-1521
分析	-1522
拯救	-1523
接触	-1524
置信	-1525
装置	-1526
负责	-1527
距离	-1528
▁一种	-1529
▁你看	-1530
▁例如	-1531
▁只要	-1532
一直在	-1533
国家的	-1534
情况下	-1535
把这些	-1536
生命的	-1537
的设计	-1538
真的很	-1539
▁我喜欢	-1540
▁阿	-1541
不好	-1542
你想	-1543
信任	-1544
千万	-1545
同意	-1546
回事	-1547
对的	-1548
属于	-1549
我将	-1550
测量	-1551
燃料	-1552
的成	-1553
空气	-1554
自身	-1555
转变	-1556
都能	-1557
降低	-1558
在哪里	-1559
我来说	-1560
▁我们就	-1561
▁艾	-1562
不见	-1563
座的	-1564
是最	-1565
来做	-1566
秘密	-1567
细菌	-1568
地球上	-1569
怎么办	-1570
▁200	-1571
我们应该	-1572
是这样的	-1573
难以置信	-1574
▁想	-1575
一生	-1576
不仅	-1577
交通	-1578
保证	-1579
农业	-1580
几年	-1581
到达	-1582
博物	-1583
只要	-1584
复制	-1585
太空	-1586
学会	-1587
岁的	-1588
平等	-1589
放弃	-1590
教授	-1591
演奏	-1592
用了	-1593
简直	-1594
结合	-1595
背景	-1596
蚂蚁	-1597
运行	-1598
▁有时	-1599
▁目前	-1600
▁虽然	-1601
办公室	-1602
是这样	-1603
给他们	-1604
而不是	-1605
黑猩猩	-1606
▁他们会	-1607
▁有时候	-1608
▁每个人	-1609
......	-1610
之外	-1611
互动	-1612
儿子	-1613
十亿	-1614
家里	-1615
提出	-1616
特殊	-1617
▁同样	-1618
▁我对	-1619
博物馆	-1620
大量的	-1621
的信息	-1622
相同的	-1623
▁我开始	-1624
我们必须	-1625
我们现在	-1626
at	-1627
▁自	-1628
把这	-1629
接近	-1630
援助	-1631
联合	-1632
节奏	-1633
造成	-1634
问我	-1635
存在的	-1636
真的是	-1637
▁我们从	-1638
24	-1639
▁M	-1640
▁上	-1641
▁此	-1642
哪儿	-1643
塑料	-1644
好处	-1645
彼此	-1646
恐龙	-1647
恢复	-1648
日本	-1649
犯罪	-1650
知的	-1651
细节	-1652
节目	-1653
身边	-1654
面包	-1655
▁不管	-1656
▁已经	-1657
喜欢的	-1658
成功的	-1659
是关于	-1660
的声音	-1661
▁但是我	-1662
▁我是说	-1663
▁R	-1664
一场	-1665
专业	-1666
体系	-1667
做法	-1668
器官	-1669
国际	-1670
坚持	-1671
培养	-1672
多样	-1673
安德	-1674
尽管	-1675
年龄	-1676
忘记	-1677
思维	-1678
投入	-1679
物体	-1680
竞争	-1681
约翰	-1682
经过	-1683
美金	-1684
行业	-1685
观念	-1686
设施	-1687
质量	-1688
注意到	-1689
的样子	-1690
让他们	-1691
那就是	-1692
▁我们会	-1693
▁我们对	-1694
▁我们都	-1695
做的事情	-1696
▁于是我们	-1697
▁这是一种	-1698
%。	-1699
▁却	-1700
主意	-1701
他人	-1702
名的	-1703
太多	-1704
对话	-1705
影片	-1706
扫描	-1707
摄像	-1708
星球	-1709
是由	-1710
某个	-1711
比亚	-1712
爆炸	-1713
爸爸	-1714
站在	-1715
翻译	-1716
避免	-1717
邀请	-1718
下来的	-1719
了我的	-1720
找到了	-1721
有可能	-1722
设计师	-1723
设计的	-1724
需要的	-1725
▁他们在	-1726
▁问题是	-1727
从来没有	-1728
▁这就是我	-1729
▁哦	-1730
▁换	-1731
▁斯	-1732
元素	-1733
就有	-1734
开放	-1735
惊讶	-1736
是谁	-1737
特征	-1738
玩耍	-1739
电池	-1740
终于	-1741
职业	-1742
谷歌	-1743
重点	-1744
长大	-1745
需求	-1746
今天的	-1747
阿拉伯	-1748
▁因为我们	-1749
el	-1750
▁跟	-1751
不太	-1752
医学	-1753
基于	-1754
妻子	-1755
它会	-1756
左边	-1757
接着	-1758
欢迎	-1759
氧化	-1760
男性	-1761
监狱	-1762
英雄	-1763
还要	-1764
▁中国	-1765
▁那里	-1766
很容易	-1767
有些人	-1768
正确的	-1769
的研究	-1770
▁所有的	-1771
▁现在我	-1772
▁这是在	-1773
对我来说	-1774
这些东西	-1775
or	-1776
▁假	-1777
▁海	-1778
冲突	-1779
原始	-1780
尤其	-1781
左右	-1782
巨大	-1783
想的	-1784
播放	-1785
昆虫	-1786
最好	-1787
武器	-1788
温度	-1789
衣服	-1790
讲的	-1791
这类	-1792
采取	-1793
▁大概	-1794
▁通常	-1795
▁都是	-1796
不一样	-1797
太阳能	-1798
很简单	-1799
成为了	-1800
我们都	-1801
的影响	-1802
▁克里斯	-1803
▁而不是	-1804
一个问题	-1805
▁这些都是	-1806
▁我的意思是	-1807
不对	-1808
今年	-1809
克斯	-1810
卫星	-1811
原子	-1812
大量	-1813
富汗	-1814
幻灯	-1815
式的	-1816
手指	-1817
把我	-1818
星系	-1819
本质	-1820
杂志	-1821
用它	-1822
看法	-1823
蓝色	-1824
资金	-1825
这条	-1826
这点	-1827
难道	-1828
面前	-1829
▁如何	-1830
▁想想	-1831
他们在	-1832
做这个	-1833
出现了	-1834
得到的	-1835
没什么	-1836
过程中	-1837
这个词	-1838
▁而我们	-1839
为什么要	-1840
▁三	-1841
▁多	-1842
从未	-1843
会儿	-1844
区别	-1845
士兵	-1846
威胁	-1847
度的	-1848
感染	-1849
改善	-1850
玩具	-1851
鼓励	-1852
▁但它	-1853
▁答案	-1854
▁而这	-1855
▁观众	-1856
▁需要	-1857
完美的	-1858
有意思	-1859
程度上	-1860
进一步	-1861
▁基本上	-1862
14	-1863
专家	-1864
为此	-1865
人在	-1866
会被	-1867
信仰	-1868
包含	-1869
咖啡	-1870
外的	-1871
得多	-1872
患者	-1873
来源	-1874
比赛	-1875
滋病	-1876
演示	-1877
熟悉	-1878
相对	-1879
说话	-1880
走了	-1881
进去	-1882
▁几乎	-1883
▁另一	-1884
▁而我	-1885
▁这也	-1886
也不会	-1887
在我们	-1888
在这儿	-1889
孩子的	-1890
感觉到	-1891
我们是	-1892
所做的	-1893
是这个	-1894
真实的	-1895
说的是	-1896
▁我不是	-1897
▁L	-1898
▁天	-1899
上升	-1900
免费	-1901
回去	-1902
对待	-1903
工厂	-1904
所谓	-1905
放到	-1906
时的	-1907
疫苗	-1908
破坏	-1909
遇到	-1910
道理	-1911
阻止	-1912
一点点	-1913
下一个	-1914
不仅仅	-1915
亿美元	-1916
只需要	-1917
可能性	-1918
怎样的	-1919
我希望	-1920
有没有	-1921
的事物	-1922
谢谢你	-1923
我们已经	-1924
▁这就是为什么	-1925
ta	-1926
举个	-1927
也在	-1928
众人	-1929
冒险	-1930
奇妙	-1931
年了	-1932
彻底	-1933
很长	-1934
循环	-1935
比例	-1936
沙漠	-1937
满足	-1938
版本	-1939
特的	-1940
用户	-1941
看待	-1942
种族	-1943
积极	-1944
红色	-1945
结论	-1946
讲述	-1947
课程	-1948
选举	-1949
透明	-1950
部的	-1951
▁可是	-1952
▁无论	-1953
▁来自	-1954
▁笑声	-1955
件事情	-1956
向你们	-1957
听说过	-1958
唯一的	-1959
在美国	-1960
应该是	-1961
的能力	-1962
▁我当时	-1963
▁所以说	-1964
▁第二个	-1965
▁这些是	-1966
每个人都	-1967
▁T	-1968
下了	-1969
习惯	-1970
报纸	-1971
旅行	-1972
比如	-1973
猴子	-1974
生长	-1975
画面	-1976
群体	-1977
肿瘤	-1978
见到	-1979
让它	-1980
集中	-1981
食品	-1982
麻烦	-1983
做的事	-1984
出现在	-1985
幸的是	-1986
我们还	-1987
的力量	-1988
阿富汗	-1989
▁你必须	-1990
▁如果我	-1991
非常非常	-1992
▁H	-1993
下一	-1994
到处	-1995
好事	-1996
录像	-1997
往往	-1998
情感	-1999
提醒	-2000
现场	-2001
蛋白	-2002
警察	-2003
高度	-2004
黑暗	-2005
▁任何	-2006
他们是	-2007
我已经	-2008
第二个	-2009
▁但是这	-2010
▁我只是	-2011
不仅仅是	-2012
就是这样	-2013
这个故事	-2014
▁对我来说	-2015
▁所以他们	-2016
21	-2017
ha	-2018
▁几	-2019
上有	-2020
也能	-2021
代码	-2022
体内	-2023
创意	-2024
动机	-2025
卫生	-2026
合适	-2027
后面	-2028
层面	-2029
差异	-2030
年来	-2031
提到	-2032
收到	-2033
极了	-2034
深入	-2035
火星	-2036
追求	-2037
错了	-2038
限制	-2039
顺便	-2040
▁什么	-2041
世界各	-2042
可不是	-2043
在那儿	-2044
年轻人	-2045
幻灯片	-2046
开始了	-2047
我们将	-2048
那样的	-2049
一个例子	-2050
我不知道	-2051
给你们看	-2052
▁我们应该	-2053
16	-2054
hr	-2055
一家	-2056
你不	-2057
依然	-2058
太棒	-2059
学到	-2060
寻常	-2061
年后	-2062
情形	-2063
慢慢	-2064
掌握	-2065
搜索	-2066
攻击	-2067
检查	-2068
皮肤	-2069
练习	-2070
给予	-2071
自行	-2072
话题	-2073
财富	-2074
这位	-2075
那儿	-2076
高中	-2077
500	-2078
▁但在	-2079
▁她的	-2080
一定要	-2081
也不是	-2082
你必须	-2083
太棒了	-2084
带来的	-2085
我们对	-2086
有两个	-2087
的第一	-2088
神经元	-2089
▁因为我	-2090
▁我们用	-2091
▁让我来	-2092
这个项目	-2093
▁想象一下	-2094
▁我们发现	-2095
."	-2096
▁新	-2097
二十	-2098
分布	-2099
前面	-2100
哪个	-2101
奖励	-2102
完整	-2103
巴西	-2104
怀疑	-2105
拒绝	-2106
早上	-2107
普遍	-2108
机械	-2109
消耗	-2110
玻璃	-2111
生的	-2112
稍微	-2113
粒子	-2114
自动	-2115
蜜蜂	-2116
记者	-2117
身份	-2118
运用	-2119
障碍	-2120
▁他是	-2121
▁尽管	-2122
▁我能	-2123
▁我问	-2124
▁直到	-2125
个小时	-2126
二氧化	-2127
像这样	-2128
我想要	-2129
是怎样	-2130
的一些	-2131
知道的	-2132
▁你需要	-2133
▁大多数	-2134
非常重要	-2135
et	-2136
it	-2137
▁3	-2138
▁爱	-2139
▁理	-2140
他在	-2141
价格	-2142
北极	-2143
发挥	-2144
各个	-2145
应对	-2146
当地	-2147
当我	-2148
感知	-2149
打破	-2150
文章	-2151
早期	-2152
智能	-2153
有时	-2154
标志	-2155
浪费	-2156
的新	-2157
贫穷	-2158
购买	-2159
遗传	-2160
部落	-2161
▁他在	-2162
▁大约	-2163
▁显然	-2164
▁突然	-2165
他们会	-2166
做一个	-2167
的人口	-2168
的感觉	-2169
看一下	-2170
自然的	-2171
▁在这里	-2172
▁我们把	-2173
▁这里是	-2174
你可以看到	-2175
▁使	-2176
一项	-2177
乐观	-2178
企鹅	-2179
动画	-2180
原理	-2181
反对	-2182
变革	-2183
可是	-2184
右边	-2185
后果	-2186
大利	-2187
得了	-2188
技巧	-2189
斯特	-2190
旋转	-2191
模拟	-2192
死了	-2193
珊瑚	-2194
的水	-2195
看了	-2196
着手	-2197
给了	-2198
资料	-2199
趋势	-2200
都要	-2201
▁就在	-2202
▁正在	-2203
一件事	-2204
存在于	-2205
很有趣	-2206
我现在	-2207
来自于	-2208
生活中	-2209
▁它们是	-2210
▁我们想	-2211
▁我已经	-2212
▁是一个	-2213
▁这些人	-2214
二氧化碳	-2215
解决方案	-2216
▁我们没有	-2217
13	-2218
17	-2219
▁至	-2220
优秀	-2221
伤害	-2222
依赖	-2223
便宜	-2224
内心	-2225
刺激	-2226
同事	-2227
图书	-2228
成果	-2229
案例	-2230
没法	-2231
灭绝	-2232
的好	-2233
盒子	-2234
相机	-2235
真相	-2236
空中	-2237
脆弱	-2238
认知	-2239
贫困	-2240
走到	-2241
走进	-2242
超级	-2243
超越	-2244
路上	-2245
迅速	-2246
魔术	-2247
▁问题	-2248
一些人	-2249
发展中	-2250
可能的	-2251
安德森	-2252
就这样	-2253
惊人的	-2254
意大利	-2255
我没有	-2256
有多少	-2257
的一种	-2258
的部分	-2259
联合国	-2260
▁比如说	-2261
▁这只是	-2262
成为一个	-2263
这个世界	-2264
这些问题	-2265
▁这张照片	-2266
oo	-2267
▁N	-2268
不像	-2269
从中	-2270
如今	-2271
展现	-2272
很少	-2273
总统	-2274
成长	-2275
我去	-2276
我对	-2277
按照	-2278
放大	-2279
日常	-2280
染色	-2281
死去	-2282
疑问	-2283
看过	-2284
老鼠	-2285
输入	-2286
适合	-2287
错的	-2288
▁20	-2289
▁完全	-2290
▁怎么	-2291
▁能够	-2292
▁许多	-2293
▁过去	-2294
了不起	-2295
你自己	-2296
做的是	-2297
可以在	-2298
的重要	-2299
被称为	-2300
这么多	-2301
部电影	-2302
▁这个是	-2303
举个例子	-2304
▁这意味着	-2305
▁那么我们	-2306
严肃	-2307
举手	-2308
做过	-2309
兄弟	-2310
写作	-2311
加速	-2312
原则	-2313
合理	-2314
名为	-2315
听过	-2316
奇迹	-2317
密码	-2318
寿命	-2319
就要	-2320
广泛	-2321
强大	-2322
当中	-2323
快的	-2324
态度	-2325
拉克	-2326
旅程	-2327
无所	-2328
是吧	-2329
污染	-2330
沟通	-2331
混乱	-2332
特性	-2333
电力	-2334
矛盾	-2335
穿过	-2336
舞台	-2337
象征	-2338
走向	-2339
还能	-2340
逐渐	-2341
里有	-2342
针对	-2343
附近	-2344
除了	-2345
面积	-2346
▁印度	-2347
一部分	-2348
其实是	-2349
创造了	-2350
同一个	-2351
我喜欢	-2352
我需要	-2353
所说的	-2354
生活的	-2355
飞行器	-2356
▁他们是	-2357
▁我没有	-2358
▁所以这	-2359
▁有些人	-2360
什么时候	-2361
岁的时候	-2362
▁我们希望	-2363
il	-2364
▁别	-2365
一块	-2366
两者	-2367
个体	-2368
为何	-2369
为止	-2370
依靠	-2371
具体	-2372
军队	-2373
博士	-2374
回应	-2375
学院	-2376
宣传	-2377
开心	-2378
引擎	-2379
慈善	-2380
报告	-2381
拿着	-2382
掌声	-2383
是你	-2384
期待	-2385
期望	-2386
标记	-2387
核心	-2388
模仿	-2389
激动	-2390
灵感	-2391
热爱	-2392
瞬间	-2393
策略	-2394
背后	-2395
说是	-2396
转移	-2397
部门	-2398
▁每年	-2399
▁这在	-2400
任何人	-2401
你需要	-2402
做到了	-2403
发现的	-2404
基因组	-2405
很多的	-2406
是可以	-2407
生物学	-2408
的社会	-2409
还可以	-2410
非常好	-2411
告诉他们	-2412
就是一个	-2413
▁因为他们	-2414
▁我们认为	-2415
▁全	-2416
▁向	-2417
便是	-2418
制度	-2419
发电	-2420
图表	-2421
得更	-2422
性别	-2423
指挥	-2424
排放	-2425
教师	-2426
混合	-2427
满意	-2428
热情	-2429
疟疾	-2430
看出	-2431
研发	-2432
纳米	-2433
给他	-2434
行走	-2435
进了	-2436
都被	-2437
闭症	-2438
▁这儿	-2439
不得不	-2440
主义者	-2441
做到的	-2442
变得更	-2443
基本的	-2444
的话题	-2445
错误的	-2446
▁并不是	-2447
▁看起来	-2448
▁也就是说	-2449
▁但是他们	-2450
▁我们正在	-2451
al	-2452
▁9	-2453
▁「	-2454
▁亚	-2455
上学	-2456
两年	-2457
人民	-2458
公民	-2459
十万	-2460
墨西	-2461
处在	-2462
家人	-2463
对称	-2464
小心	-2465
平面	-2466
建设	-2467
开车	-2468
得很	-2469
德里	-2470
惊奇	-2471
投票	-2472
报道	-2473
指数	-2474
改革	-2475
景象	-2476
曲线	-2477
有所	-2478
气体	-2479
理念	-2480
直觉	-2481
礼物	-2482
称作	-2483
组合	-2484
网上	-2485
覆盖	-2486
评论	-2487
诊断	-2488
这次	-2489
逻辑	-2490
预防	-2491
驾驶	-2492
▁使用	-2493
▁假如	-2494
▁去年	-2495
▁我和	-2496
墨西哥	-2497
就没有	-2498
强大的	-2499
方面的	-2500
的环境	-2501
系统的	-2502
美丽的	-2503
自行车	-2504
艾滋病	-2505
让你们	-2506
▁因为它	-2507
▁我们是	-2508
▁我发现	-2509
▁然后你	-2510
所有这些	-2511
as	-2512
▁现	-2513
中最	-2514
做些	-2515
公里	-2516
再生	-2517
写的	-2518
在你	-2519
在的	-2520
引起	-2521
我最	-2522
有两	-2523
本来	-2524
毕业	-2525
没错	-2526
流行	-2527
火箭	-2528
理想	-2529
睡眠	-2530
紧张	-2531
维持	-2532
苹果	-2533
血管	-2534
试试	-2535
采访	-2536
首诗	-2537
▁世界	-2538
▁我来	-2539
众人笑	-2540
停下来	-2541
出一个	-2542
危险的	-2543
发展的	-2544
句话说	-2545
各种各	-2546
相当于	-2547
美好的	-2548
足够的	-2549
是什么呢	-2550
的是什么	-2551
这样一个	-2552
▁因此我们	-2553
▁我们不能	-2554
了个	-2555
公平	-2556
公开	-2557
古老	-2558
场景	-2559
字母	-2560
寻求	-2561
帮我	-2562
强烈	-2563
很小	-2564
志愿	-2565
意见	-2566
愿望	-2567
或是	-2568
教堂	-2569
教室	-2570
文明	-2571
机制	-2572
水的	-2573
法国	-2574
海岸	-2575
罗斯	-2576
美好	-2577
舞蹈	-2578
说了	-2579
这只	-2580
邮件	-2581
▁它会	-2582
产生了	-2583
几个月	-2584
创造力	-2585
制作的	-2586
地球的	-2587
大脑的	-2588
完成的	-2589
就开始	-2590
工程师	-2591
开始的	-2592
美国的	-2593
蛋白质	-2594
这个人	-2595
▁世界上	-2596
▁你可能	-2597
▁我一直	-2598
不是一个	-2599
做些什么	-2600
基础设施	-2601
我的工作	-2602
的问题是	-2603
▁所有这些	-2604
▁非常感谢	-2605
意味着什么	-2606
某种程度上	-2607
ed	-2608
if	-2609
▁G	-2610
▁先	-2611
▁随	-2612
不足	-2613
公园	-2614
前进	-2615
单词	-2616
去看	-2617
发表	-2618
地下	-2619
天才	-2620
将它	-2621
我来	-2622
打印	-2623
摄影	-2624
无线	-2625
日子	-2626
权力	-2627
椅子	-2628
眼镜	-2629
秒钟	-2630
穷人	-2631
等着	-2632
说服	-2633
轨道	-2634
辩论	-2635
边缘	-2636
重大	-2637
金属	-2638
金融	-2639
陷入	-2640
黑人	-2641
▁事实	-2642
▁到了	-2643
▁希望	-2644
▁我有	-2645
一切都	-2646
人们的	-2647
使我们	-2648
做一些	-2649
在我的	-2650
好消息	-2651
我自己	-2652
▁在美国	-2653
为什么不	-2654
▁我们开始	-2655
▁四	-2656
。」	-2657
一半	-2658
一遍	-2659
上最	-2660
产业	-2661
利益	-2662
前的	-2663
发射	-2664
变的	-2665
噪音	-2666
地上	-2667
场的	-2668
它在	-2669
安排	-2670
尾巴	-2671
平方	-2672
德国	-2673
愤怒	-2674
成就	-2675
掉了	-2676
探测	-2677
极端	-2678
步骤	-2679
生意	-2680
的吗	-2681
看的	-2682
结婚	-2683
蜘蛛	-2684
诞生	-2685
进来	-2686
都没	-2687
量子	-2688
▁一旦	-2689
▁我只	-2690
▁每天	-2691
▁这次	-2692
一个小	-2693
主义的	-2694
传统的	-2695
和大家	-2696
失去了	-2697
奇怪的	-2698
已经被	-2699
的国家	-2700
▁有很多	-2701
▁没有人	-2702
因为他们	-2703
我们不能	-2704
没有什么	-2705
▁我们如何	-2706
.5	-2707
▁E	-2708
。(	-2709
上万	-2710
不少	-2711
不管	-2712
主题	-2713
也很	-2714
事业	-2715
交易	-2716
人工	-2717
传递	-2718
伦敦	-2719
估计	-2720
位于	-2721
住了	-2722
作家	-2723
发光	-2724
受害	-2725
吃惊	-2726
员工	-2727
地说	-2728
夏天	-2729
天然	-2730
客户	-2731
庆祝	-2732
很久	-2733
效应	-2734
旁边	-2735
渴望	-2736
激情	-2737
的不	-2738
致命	-2739
葡萄	-2740
角落	-2741
还会	-2742
还没	-2743
途径	-2744
那天	-2745
采用	-2746
靠近	-2747
▁由于	-2748
▁至少	-2749
不只是	-2750
了解到	-2751
使用的	-2752
先生们	-2753
所谓的	-2754
把他们	-2755
是为了	-2756
染色体	-2757
特别的	-2758
现在的	-2759
的机会	-2760
的项目	-2761
这两个	-2762
▁但他们	-2763
▁同样的	-2764
▁我记得	-2765
作为一个	-2766
告诉大家	-2767
大多数人	-2768
所有人都	-2769
iP	-2770
us	-2771
▁您	-2772
上来	-2773
专注	-2774
争论	-2775
共享	-2776
去世	-2777
埃及	-2778
它就	-2779
差别	-2780
布鲁	-2781
当作	-2782
形的	-2783
总结	-2784
恒星	-2785
杉矶	-2786
检测	-2787
死于	-2788
活着	-2789
灵魂	-2790
灾难	-2791
社交	-2792
移植	-2793
稳定	-2794
符合	-2795
美妙	-2796
聚集	-2797
肌肉	-2798
说说	-2799
道路	-2800
▁不同	-2801
▁你就	-2802
▁它在	-2803
▁每次	-2804
▁男人	-2805
▁顺便	-2806
为我们	-2807
你不能	-2808
因为我	-2809
城市的	-2810
女士们	-2811
想知道	-2812
打电话	-2813
朋友们	-2814
死亡率	-2815
洛杉矶	-2816
的事实	-2817
的概念	-2818
的那个	-2819
自闭症	-2820
这么说	-2821
这只是	-2822
那么多	-2823
非常有	-2824
▁大部分	-2825
▁它可以	-2826
▁我们所	-2827
▁我必须	-2828
▁我需要	-2829
帮助我们	-2830
这些数据	-2831
做到这一点	-2832
▁5	-2833
▁五	-2834
▁老	-2835
▁高	-2836
一边	-2837
丈夫	-2838
交谈	-2839
众笑	-2840
伟大	-2841
传感	-2842
加上	-2843
南非	-2844
启发	-2845
处的	-2846
实践	-2847
对方	-2848
尊重	-2849
岁时	-2850
擅长	-2851
教学	-2852
构建	-2853
棒的	-2854
流感	-2855
清洁	-2856
瑞典	-2857
精彩	-2858
缺乏	-2859
而来	-2860
设想	-2861
谈到	-2862
贡献	-2863
那一	-2864
释放	-2865
黑客	-2866
▁而在	-2867
产生的	-2868
会怎样	-2869
你们能	-2870
大家都	-2871
大规模	-2872
学到了	-2873
完成了	-2874
感受到	-2875
摄像机	-2876
的发展	-2877
神奇的	-2878
糟糕的	-2879
▁我不想	-2880
▁我想要	-2881
这些都是	-2882
这张照片	-2883
这是什么	-2884
▁你们知道	-2885
▁换句话说	-2886
75	-2887
es	-2888
om	-2889
os	-2890
▁6	-2891
不停	-2892
不行	-2893
丰富	-2894
乐趣	-2895
体会	-2896
供应	-2897
保留	-2898
化了	-2899
即使	-2900
原来	-2901
去年	-2902
圣诞	-2903
基金	-2904
外面	-2905
大小	-2906
失望	-2907
好奇	-2908
完了	-2909
开了	-2910
很不	-2911
我从	-2912
抑郁	-2913
拿到	-2914
文件	-2915
洛克	-2916
活跃	-2917
清晰	-2918
现状	-2919
班牙	-2920
确保	-2921
综合	-2922
艰难	-2923
调整	-2924
跟着	-2925
跳舞	-2926
这两	-2927
重建	-2928
金钱	-2929
隐藏	-2930
难题	-2931
▁但你	-2932
▁学生	-2933
▁看到	-2934
▁社会	-2935
它们是	-2936
展示了	-2937
已经在	-2938
微生物	-2939
明显的	-2940
西班牙	-2941
2000	-2942
▁也可以	-2943
▁你不能	-2944
▁有一个	-2945
很有意思	-2946
气候变化	-2947
这些事情	-2948
▁不幸的是	-2949
▁这是我的	-2950
发展中国家	-2951
id	-2952
ur	-2953
三维	-2954
专利	-2955
亿人	-2956
他是	-2957
伙伴	-2958
传染	-2959
倾向	-2960
偶然	-2961
关联	-2962
南极	-2963
印象	-2964
原型	-2965
发出	-2966
图案	-2967
地点	-2968
对象	-2969
将来	-2970
尔斯	-2971
带到	-2972
应当	-2973
强调	-2974
成员	-2975
提升	-2976
是用	-2977
毕竟	-2978
流动	-2979
游泳	-2980
点击	-2981
点子	-2982
照顾	-2983
片段	-2984
玩笑	-2985
睡觉	-2986
禁止	-2987
穿着	-2988
蚊子	-2989
资本	-2990
跟我	-2991
这段	-2992
震惊	-2993
首歌	-2994
高速	-2995
▁10	-2996
▁假设	-2997
▁大脑	-2998
▁对吧	-2999
▁尤其	-3000
▁最近	-3001
▁确实	-3002
▁科学	-3003
▁除了	-3004
▁非洲	-3005
不喜欢	-3006
不错的	-3007
图书馆	-3008
带来了	-3009
我们想	-3010
我应该	-3011
技术的	-3012
有许多	-3013
的主题	-3014
的变化	-3015
的就是	-3016
的时刻	-3017
的行为	-3018
这是我	-3019
1000	-3020
▁孩子们	-3021
我们自己	-3022
还有一个	-3023
这个想法	-3024
▁他们可以	-3025
▁我们只是	-3026
▁然后他们	-3027
发生的事情	-3028
ad	-3029
▁4	-3030
▁反	-3031
▁女	-3032
一小	-3033
一部	-3034
之内	-3035
书籍	-3036
了吧	-3037
争议	-3038
以下	-3039
你看	-3040
信念	-3041
做好	-3042
像我	-3043
决策	-3044
分配	-3045
制的	-3046
同一	-3047
命运	-3048
回收	-3049
天花	-3050
对了	-3051
少年	-3052
居住	-3053
屋顶	-3054
差距	-3055
幽默	-3056
执行	-3057
摆脱	-3058
效率	-3059
斗争	-3060
最初	-3061
满了	-3062
物品	-3063
玩家	-3064
玩意	-3065
相比	-3066
神秘	-3067
种子	-3068
等待	-3069
结尾	-3070
者们	-3071
而易	-3072
观的	-3073
讨厌	-3074
越多	-3075
达尔	-3076
迈克	-3077
销售	-3078
雕塑	-3079
199	-3080
ble	-3081
▁你不	-3082
▁你想	-3083
一开始	-3084
一系列	-3085
伊拉克	-3086
典型的	-3087
和你们	-3088
在座的	-3089
对我说	-3090
心脏病	-3091
我一直	-3092
拍摄的	-3093
注意力	-3094
的图片	-3095
的技术	-3096
站起来	-3097
获得了	-3098
运动员	-3099
进行了	-3100
非常的	-3101
▁他们有	-3102
▁在这些	-3103
世界上最	-3104
世界各地	-3105
什么样的	-3106
只有一个	-3107
我们如何	-3108
▁它是一个	-3109
▁这是一张	-3110
会发生什么	-3111
各种各样的	-3112
▁2	-3113
▁奥	-3114
▁年	-3115
▁男	-3116
▁罗	-3117
也没	-3118
事的	-3119
人群	-3120
伊朗	-3121
优势	-3122
公众	-3123
再来	-3124
农民	-3125
分裂	-3126
厕所	-3127
厨房	-3128
她说	-3129
婚姻	-3130
密度	-3131
将要	-3132
尼日	-3133
局限	-3134
希腊	-3135
想像	-3136
意外	-3137
成年	-3138
我得	-3139
找出	-3140
抓住	-3141
抱歉	-3142
拉斯	-3143
按钮	-3144
捕捉	-3145
有三	-3146
期间	-3147
杀死	-3148
氧气	-3149
沮丧	-3150
涉及	-3151
短信	-3152
算是	-3153
纪录	-3154
绝望	-3155
耳朵	-3156
脑海	-3157
荣幸	-3158
莱坞	-3159
贵的	-3160
赋予	-3161
走路	-3162
进展	-3163
那就	-3164
领袖	-3165
饮食	-3166
▁你在	-3167
▁原因	-3168
▁宇宙	-3169
▁我把	-3170
▁经济	-3171
▁这对	-3172
严重的	-3173
传感器	-3174
你怎么	-3175
你现在	-3176
充满了	-3177
全新的	-3178
千上万	-3179
发明了	-3180
因斯坦	-3181
形成的	-3182
成功了	-3183
时间的	-3184
的人类	-3185
的关系	-3186
▁TED	-3187
▁但是在	-3188
▁这一切	-3189
▁这里有	-3190
我们知道	-3191
▁你可能会	-3192
▁每个人都	-3193
▁这并不是	-3194
am	-3195
▁二	-3196
▁光	-3197
▁卡	-3198
付出	-3199
代价	-3200
仪器	-3201
准确	-3202
创建	-3203
单位	-3204
即将	-3205
商品	-3206
围绕	-3207
固定	-3208
地理	-3209
大了	-3210
大气	-3211
大象	-3212
大陆	-3213
头脑	-3214
字典	-3215
安静	-3216
富有	-3217
工人	-3218
异常	-3219
我和	-3220
手段	-3221
折磨	-3222
改进	-3223
无人	-3224
旧金	-3225
机的	-3226
极其	-3227
查德	-3228
样本	-3229
灯泡	-3230
焦虑	-3231
犹太	-3232
环保	-3233
症状	-3234
罪犯	-3235
色列	-3236
花粉	-3237
街头	-3238
解答	-3239
重视	-3240
长期	-3241
阳光	-3242
陌生	-3243
餐厅	-3244
黑洞	-3245
▁DH	-3246
▁上面	-3247
▁两个	-3248
▁全球	-3249
▁我得	-3250
▁我所	-3251
▁没人	-3252
▁研究	-3253
▁这么	-3254
▁这位	-3255
▁随着	-3256
价值观	-3257
可怕的	-3258
存在着	-3259
实现的	-3260
旧金山	-3261
是一件	-3262
更大的	-3263
最后一	-3264
的一点	-3265
的内容	-3266
的工具	-3267
的未来	-3268
第三个	-3269
肯尼亚	-3270
讲故事	-3271
ifta	-3272
▁我曾经	-3273
为什么会	-3274
做了什么	-3275
我们没有	-3276
改变世界	-3277
解释一下	-3278
还有很多	-3279
▁其中一个	-3280
▁所以我想	-3281
是什么样的	-3282
iftable	-3283
ac	-3284
▁W	-3285
▁数	-3286
一份	-3287
一片	-3288
临床	-3289
了它	-3290
人体	-3291
人和	-3292
作出	-3293
你有	-3294
保罗	-3295
充分	-3296
免疫	-3297
几百	-3298
加州	-3299
化石	-3300
十五	-3301
却是	-3302
去过	-3303
口袋	-3304
启动	-3305
回报	-3306
培训	-3307
大众	-3308
天堂	-3309
存活	-3310
帮忙	-3311
开展	-3312
想过	-3313
整体	-3314
无关	-3315
明确	-3316
普尔	-3317
最大	-3318
机场	-3319
标签	-3320
欣赏	-3321
毒品	-3322
源于	-3323
潜水	-3324
激励	-3325
激素	-3326
理性	-3327
石头	-3328
祖母	-3329
符号	-3330
蒂芬	-3331
街道	-3332
袭击	-3333
规律	-3334
视角	-3335
谈话	-3336
质疑	-3337
300	-3338
▁也是	-3339
▁似乎	-3340
▁应该	-3341
▁自然	-3342
万美元	-3343
也许会	-3344
了什么	-3345
他们说	-3346
别人的	-3347
可以用	-3348
听到的	-3349
因为它	-3350
太好了	-3351
干什么	-3352
提到的	-3353
有一天	-3354
消费者	-3355
漂亮的	-3356
结束了	-3357
让人们	-3358
进行的	-3359
非洲的	-3360
hris	-3361
▁每一个	-3362
其中一个	-3363
▁作为一个	-3364
是什么样子	-3365
ay	-3366
▁—	-3367
▁主	-3368
▁格	-3369
不出	-3370
中央	-3371
久的	-3372
人是	-3373
伊斯	-3374
保存	-3375
修复	-3376
做个	-3377
做成	-3378
关闭	-3379
军事	-3380
出版	-3381
判断	-3382
华盛	-3383
博客	-3384
又是	-3385
名叫	-3386
呈现	-3387
团体	-3388
头发	-3389
好吗	-3390
娱乐	-3391
展开	-3392
平台	-3393
恰恰	-3394
敏感	-3395
数的	-3396
方块	-3397
更有	-3398
替代	-3399
来讲	-3400
深刻	-3401
演员	-3402
爱情	-3403
的书	-3404
着迷	-3405
短片	-3406
移民	-3407
笔记	-3408
繁殖	-3409
网页	-3410
胜利	-3411
腐败	-3412
获取	-3413
虚拟	-3414
规划	-3415
贫民	-3416
遗憾	-3417
遭遇	-3418
革新	-3419
韩国	-3420
顺序	-3421
马逊	-3422
▁很好	-3423
▁必须	-3424
▁感谢	-3425
▁改变	-3426
▁有趣	-3427
▁特别	-3428
▁真的	-3429
▁设计	-3430
▁这将	-3431
他们就	-3432
代表着	-3433
决定了	-3434
到这里	-3435
华盛顿	-3436
又一次	-3437
回到了	-3438
多样性	-3439
志愿者	-3440
找到的	-3441
明白了	-3442
有效的	-3443
有点像	-3444
段时间	-3445
消失了	-3446
的一面	-3447
看不见	-3448
经历了	-3449
能看到	-3450
认识到	-3451
该如何	-3452
还需要	-3453
这也是	-3454
这本书	-3455
都不是	-3456
▁就这样	-3457
▁我不会	-3458
▁我们正	-3459
▁有一些	-3460
▁而这些	-3461
▁要知道	-3462
一个故事	-3463
准备好了	-3464
成千上万	-3465
我们开始	-3466
我们能够	-3467
有多少人	-3468
向你们展示	-3469
45	-3470
▁Y	-3471
▁。	-3472
▁前	-3473
▁真	-3474
一大	-3475
一致	-3476
三年	-3477
上下	-3478
不通	-3479
为你	-3480
也就	-3481
事儿	-3482
五个	-3483
人士	-3484
保守	-3485
倾听	-3486
停车	-3487
冰川	-3488
分离	-3489
取决	-3490
可见	-3491
听众	-3492
圣经	-3493
在了	-3494
外科	-3495
好好	-3496
实施	-3497
崩溃	-3498
干净	-3499
形容	-3500
所需	-3501
手臂	-3502
扩张	-3503
承担	-3504
技能	-3505
抽象	-3506
损失	-3507
推进	-3508
更为	-3509
村庄	-3510
构造	-3511
每一	-3512
穿越	-3513
编码	-3514
编辑	-3515
罗马	-3516
美洲	-3517
能在	-3518
自豪	-3519
要去	-3520
购物	-3521
贸易	-3522
达成	-3523
过滤	-3524
这就	-3525
远远	-3526
雨林	-3527
马拉	-3528
鸟类	-3529
▁主要	-3530
▁医生	-3531
▁叫做	-3532
▁在那	-3533
▁把它	-3534
▁生命	-3535
▁自己	-3536
不会有	-3537
不存在	-3538
不断地	-3539
也就是	-3540
出来了	-3541
创造的	-3542
到一个	-3543
十年代	-3544
受害者	-3545
和我们	-3546
小小的	-3547
很明显	-3548
意义上	-3549
我必须	-3550
我是个	-3551
提供了	-3552
的作用	-3553
的观点	-3554
的视频	-3555
的这个	-3556
离开了	-3557
类似的	-3558
跟你们	-3559
这里的	-3560
▁你怎么	-3561
▁当然了	-3562
▁我今天	-3563
▁现在你	-3564
不可能的	-3565
只是一个	-3566
尼日利亚	-3567
幸运的是	-3568
毫无疑问	-3569
永远不会	-3570
现在我们	-3571
的重要性	-3572
联系起来	-3573
这个样子	-3574
▁你能看到	-3575
▁这是我们的	-3576
av	-3577
▁太	-3578
》。	-3579
一台	-3580
一旦	-3581
一群	-3582
万人	-3583
中东	-3584
从事	-3585
仪式	-3586
体现	-3587
你说	-3588
保险	-3589
信心	-3590
写了	-3591
农场	-3592
几天	-3593
分类	-3594
力于	-3595
原本	-3596
商店	-3597
国会	-3598
在此	-3599
多久	-3600
大卫	-3601
天空	-3602
子上	-3603
实时	-3604
小说	-3605
层的	-3606
州的	-3607
干嘛	-3608
年里	-3609
当今	-3610
愚蠢	-3611
懂得	-3612
房屋	-3613
所能	-3614
才会	-3615
扮演	-3616
护士	-3617
新鲜	-3618
无论	-3619
明天	-3620
是被	-3621
每次	-3622
海豚	-3623
火车	-3624
烹饪	-3625
玩乐	-3626
私人	-3627
立刻	-3628
精确	-3629
级的	-3630
观看	-3631
认真	-3632
跟踪	-3633
边界	-3634
这场	-3635
部队	-3636
马斯	-3637
驱动	-3638
鲸鱼	-3639
▁城市	-3640
▁或是	-3641
▁没错	-3642
▁注意	-3643
▁这会	-3644
▁这时	-3645
不是在	-3646
取决于	-3647
古老的	-3648
可持续	-3649
坏消息	-3650
安全的	-3651
工作室	-3652
建筑的	-3653
想一下	-3654
是一名	-3655
有一种	-3656
有时候	-3657
有机会	-3658
用一个	-3659
的人生	-3660
的演讲	-3661
致力于	-3662
范围内	-3663
领导者	-3664
▁因此我	-3665
▁而这个	-3666
一段时间	-3667
如果我们	-3668
最重要的	-3669
种不同的	-3670
▁举个例子	-3671
▁那是一个	-3672
▁我们都知道	-3673
解决这个问题	-3674
Siftable	-3675
SA	-3676
ra	-3677
▁I	-3678
▁刚	-3679
▁地	-3680
▁该	-3681
一代	-3682
一看	-3683
上是	-3684
不止	-3685
不知	-3686
专门	-3687
个性	-3688
乔治	-3689
产物	-3690
人心	-3691
他会	-3692
你将	-3693
做点	-3694
全国	-3695
农村	-3696
分开	-3697
动态	-3698
发布	-3699
合成	-3700
听说	-3701
在想	-3702
塑造	-3703
墙上	-3704
孤独	-3705
它为	-3706
对抗	-3707
将其	-3708
层次	-3709
岁了	-3710
带有	-3711
底部	-3712
强的	-3713
形态	-3714
忽略	-3715
忽视	-3716
怀特	-3717
性恋	-3718
患有	-3719
想说	-3720
感情	-3721
我又	-3722
拿出	-3723
携带	-3724
改造	-3725
有机	-3726
正义	-3727
气球	-3728
沉默	-3729
法则	-3730
法的	-3731
渐渐	-3732
潜力	-3733
照明	-3734
由于	-3735
画的	-3736
的高	-3737
着的	-3738
祈祷	-3739
祖先	-3740
突破	-3741
线的	-3742
组装	-3743
美分	-3744
脑袋	-3745
舒服	-3746
解剖	-3747
让他	-3748
贷款	-3749
运转	-3750
运输	-3751
这份	-3752
遵循	-3753
部件	-3754
重量	-3755
防止	-3756
青蛙	-3757
顺利	-3758
预期	-3759
魅力	-3760
鲨鱼	-3761
ter	-3762
▁CA	-3763
▁KB	-3764
▁不会	-3765
▁仅仅	-3766
▁但他	-3767
▁你是	-3768
▁包括	-3769
▁女人	-3770
▁女性	-3771
▁学习	-3772
▁它也	-3773
▁是否	-3774
▁相反	-3775
▁真正	-3776
▁这条	-3777
▁这项	-3778
事物的	-3779
以色列	-3780
企业家	-3781
你就会	-3782
俄罗斯	-3783
健康的	-3784
公司的	-3785
几年前	-3786
动物的	-3787
可行的	-3788
和一个	-3789
完整的	-3790
对他们	-3791
就像是	-3792
意义的	-3793
我们又	-3794
把我们	-3795
正常的	-3796
的大小	-3797
绿色的	-3798
,000	-3799
▁一个是	-3800
▁什么是	-3801
▁就好像	-3802
▁很多人	-3803
▁然后他	-3804
做了一个	-3805
实际上是	-3806
就是我们	-3807
展示一下	-3808
普尔洛克	-3809
解决问题	-3810
这个数字	-3811
ia	-3812
ob	-3813
▁F	-3814
▁“	-3815
▁噢	-3816
▁因	-3817
一座	-3818
与众	-3819
世上	-3820
乳腺	-3821
今日	-3822
使命	-3823
偏见	-3824
像个	-3825
冰山	-3826
势力	-3827
午餐	-3828
反馈	-3829
发了	-3830
可行	-3831
和你	-3832
哺乳	-3833
喜爱	-3834
地位	-3835
始终	-3836
学者	-3837
展览	-3838
常见	-3839
平常	-3840
康复	-3841
影像	-3842
得以	-3843
得出	-3844
惊人	-3845
惊喜	-3846
意料	-3847
感应	-3848
感激	-3849
戏剧	-3850
我才	-3851
我都	-3852
承诺	-3853
探讨	-3854
探险	-3855
支撑	-3856
整整	-3857
星盘	-3858
昨天	-3859
有用	-3860
极度	-3861
海报	-3862
用在	-3863
疼痛	-3864
的电	-3865
祖父	-3866
种植	-3867
粮食	-3868
自主	-3869
荷兰	-3870
营养	-3871
营销	-3872
解放	-3873
讲话	-3874
费用	-3875
这会	-3876
这幅	-3877
这座	-3878
这边	-3879
邻居	-3880
预算	-3881
饥饿	-3882
麦克	-3883
one	-3884
▁一切	-3885
▁也有	-3886
▁他会	-3887
▁它能	-3888
▁我曾	-3889
▁我被	-3890
▁时间	-3891
▁根本	-3892
一无所	-3893
之前的	-3894
你想要	-3895
你觉得	-3896
出现的	-3897
历史上	-3898
同情心	-3899
完全是	-3900
就是在	-3901
已经有	-3902
干细胞	-3903
建筑师	-3904
意识的	-3905
我还是	-3906
显而易	-3907
最后的	-3908
的名字	-3909
的大脑	-3910
看不到	-3911
研究的	-3912
组成的	-3913
给了我	-3914
起作用	-3915
还不是	-3916
适用于	-3917
▁你不会	-3918
▁大家都	-3919
▁很明显	-3920
中的一个	-3921
任何东西	-3922
你们可以	-3923
年的时间	-3924
想象一下	-3925
成为一名	-3926
我自己的	-3927
所有东西	-3928
谢谢大家	-3929
这是一种	-3930
▁你也可以	-3931
▁所以这个	-3932
▁这个问题	-3933
▁现在让我们	-3934
he	-3935
▁,	-3936
▁《	-3937
▁六	-3938
▁史	-3939
▁才	-3940
▁本	-3941
▁若	-3942
一百	-3943
不去	-3944
为我	-3945
争取	-3946
五年	-3947
亲密	-3948
们的	-3949
伯特	-3950
保健	-3951
共和	-3952
写着	-3953
分散	-3954
前景	-3955
北部	-3956
单独	-3957
反映	-3958
变暖	-3959
句子	-3960
否则	-3961
困扰	-3962
在做	-3963
在哪	-3964
外交	-3965
大楼	-3966
天气	-3967
对比	-3968
岗位	-3969
巧克	-3970
形象	-3971
忘了	-3972
我爱	-3973
损伤	-3974
掌控	-3975
推动	-3976
收获	-3977
整合	-3978
显微	-3979
更大	-3980
更高	-3981
浏览	-3982
消极	-3983
澳大	-3984
灵活	-3985
热带	-3986
牙齿	-3987
牛奶	-3988
牺牲	-3989
玉米	-3990
的长	-3991
目睹	-3992
着我	-3993
确信	-3994
神圣	-3995
竟然	-3996
笑话	-3997
等于	-3998
精力	-3999
绘画	-4000
羞耻	-4001
脱离	-4002
融合	-4003
行了	-4004
街上	-4005
要有	-4006
视力	-4007
词汇	-4008
转化	-4009
辆车	-4010
进程	-4011
追踪	-4012
退休	-4013
骨头	-4014
黄色	-4015
鼻子	-4016
▁BF	-4017
▁一位	-4018
▁不仅	-4019
▁你得	-4020
▁其他	-4021
▁其次	-4022
▁发现	-4023
▁帮助	-4024
▁我猜	-4025
▁拥有	-4026
▁政府	-4027
▁无法	-4028
▁根据	-4029
▁约翰	-4030
不应该	-4031
中的一	-4032
什么样	-4033
做这些	-4034
向大家	-4035
实在是	-4036
将会是	-4037
张照片	-4038
怎么说	-4039
想象的	-4040
我不是	-4041
我今天	-4042
找不到	-4043
把自己	-4044
是一位	-4045
是他们	-4046
此之外	-4047
的价值	-4048
的挑战	-4049
的角度	-4050
的速度	-4051
著名的	-4052
说什么	-4053
达尔文	-4054
运作的	-4055
这里是	-4056
选择的	-4057
青少年	-4058
▁他们就	-4059
▁但是它	-4060
▁你看到	-4061
▁在我们	-4062
▁我非常	-4063
▁所以他	-4064
▁这就像	-4065
他们可以	-4066
你们知道	-4067
接下来的	-4068
澳大利亚	-4069
▁但事实上	-4070
▁我们能够	-4071
▁这是因为	-4072
不可思议的	-4073
对我们来说	-4074
▁我认为这是	-4075
▁这是一个非常	-4076
1.	-4077
3%	-4078
DP	-4079
li	-4080
▁十	-4081
▁叫	-4082
▁埃	-4083
▁开	-4084
▁贝	-4085
一千	-4086
一面	-4087
三角	-4088
上千	-4089
不及	-4090
两次	-4091
为人	-4092
交互	-4093
人性	-4094
促进	-4095
储蓄	-4096
公寓	-4097
出于	-4098
分辨	-4099
制定	-4100
剩下	-4101
加拉	-4102
取代	-4103
变了	-4104
可爱	-4105
台上	-4106
向你	-4107
向前	-4108
含义	-4109
坏了	-4110
大会	-4111
失明	-4112
定律	-4113
室内	-4114
山脉	-4115
巴基	-4116
年纪	-4117
延伸	-4118
律师	-4119
慈悲	-4120
成绩	-4121
我只	-4122
打击	-4123
抑制	-4124
拍的	-4125
振奋	-4126
措施	-4127
提取	-4128
无比	-4129
无聊	-4130
时光	-4131
是吗	-4132
最高	-4133
有过	-4134
望远	-4135
树木	-4136
正好	-4137
比喻	-4138
沿着	-4139
注射	-4140
洗衣	-4141
浪漫	-4142
火山	-4143
特定	-4144
生涯	-4145
申请	-4146
画画	-4147
留下	-4148
的头	-4149
的钱	-4150
种类	-4151
第四	-4152
经典	-4153
结局	-4154
给出	-4155
美的	-4156
能让	-4157
自杀	-4158
蝙蝠	-4159
衡量	-4160
讲讲	-4161
识别	-4162
诊所	-4163
说到	-4164
赢得	-4165
足球	-4166
辈子	-4167
那边	-4168
链接	-4169
随便	-4170
雇佣	-4171
面部	-4172
顾客	-4173
风格	-4174
鱼类	-4175
▁如此	-4176
▁我又	-4177
▁我没	-4178
▁我爱	-4179
▁才能	-4180
▁技术	-4181
▁故事	-4182
▁有点	-4183
▁毕竟	-4184
▁科技	-4185
▁认为	-4186
▁阿瑟	-4187
▁除非	-4188
▁难道	-4189
不断的	-4190
世纪的	-4191
中国的	-4192
亚马逊	-4193
他们能	-4194
伊斯兰	-4195
你们都	-4196
克里斯	-4197
免费的	-4198
准备好	-4199
制造的	-4200
剩下的	-4201
受欢迎	-4202
和他们	-4203
常见的	-4204
当然是	-4205
很棒的	-4206
我不能	-4207
我们把	-4208
政府的	-4209
最重要	-4210
望远镜	-4211
本质上	-4212
独特的	-4213
现在是	-4214
的一天	-4215
的历史	-4216
的基础	-4217
的存在	-4218
的意义	-4219
的数量	-4220
的方向	-4221
的空间	-4222
相信我	-4223
社会的	-4224
给我的	-4225
让自己	-4226
许多人	-4227
这里有	-4228
▁下一个	-4229
▁他们把	-4230
▁但是你	-4231
▁我不能	-4232
▁我们得	-4233
▁所以你	-4234
▁所以在	-4235
▁是关于	-4236
▁有一天	-4237
▁看上去	-4238
▁第三个	-4239
变得更加	-4240
我的演讲	-4241
是我们的	-4242
最喜欢的	-4243
来到这里	-4244
生态系统	-4245
这项技术	-4246
是什么意思	-4247
▁我们不知道	-4248
▁你们可以看到	-4249
5%	-4250
re	-4251
▁乌	-4252
▁书	-4253
▁啊	-4254
▁回	-4255
▁安	-4256
▁手	-4257
▁水	-4258
。)	-4259
一万	-4260
一周	-4261
不安	-4262
何时	-4263
作业	-4264
依旧	-4265
共有	-4266
共鸣	-4267
典型	-4268
冬天	-4269
区分	-4270
区的	-4271
受伤	-4272
叫它	-4273
味道	-4274
坚信	-4275
好多	-4276
它能	-4277
少数	-4278
尔夫	-4279
就此	-4280
居然	-4281
性感	-4282
想出	-4283
成像	-4284
扩展	-4285
承受	-4286
指导	-4287
推广	-4288
放入	-4289
方便	-4290
方的	-4291
旧的	-4292
是对	-4293
权威	-4294
构成	-4295
标题	-4296
欺骗	-4297
民族	-4298
液体	-4299
深海	-4300
清单	-4301
温室	-4302
牛仔	-4303
特网	-4304
状物	-4305
界面	-4306
的心	-4307
看不	-4308
立即	-4309
脂肪	-4310
药品	-4311
蒂夫	-4312
血液	-4313
规定	-4314
解读	-4315
负担	-4316
货币	-4317
资助	-4318
赞助	-4319
过于	-4320
过度	-4321
酒店	-4322
问了	-4323
随时	-4324
食用	-4325
198	-4326
son	-4327
▁50	-4328
▁一般	-4329
▁不能	-4330
▁你将	-4331
▁未来	-4332
▁正是	-4333
▁英国	-4334
▁语言	-4335
▁都有	-4336
一定会	-4337
个国家	-4338
了起来	-4339
了这些	-4340
优秀的	-4341
但是我	-4342
印度的	-4343
只是个	-4344
史以来	-4345
大自然	-4346
失败了	-4347
它们会	-4348
就有了	-4349
德里克	-4350
我们从	-4351
指的是	-4352
接受了	-4353
故事的	-4354
是多少	-4355
是没有	-4356
普通的	-4357
的说法	-4358
确实是	-4359
笔记本	-4360
蒂芬尼	-4361
让大家	-4362
身体的	-4363
迈克尔	-4364
运动的	-4365
hone	-4366
▁他们也	-4367
▁他们都	-4368
▁他回答	-4369
▁但如果	-4370
▁但现在	-4371
▁但这些	-4372
▁你现在	-4373
▁并没有	-4374
▁我以为	-4375
▁我们再	-4376
▁我想说	-4377
▁我甚至	-4378
▁或者说	-4379
▁是不是	-4380
▁是什么	-4381
▁那时候	-4382
一些事情	-4383
了我们的	-4384
令人兴奋	-4385
做什么呢	-4386
做的就是	-4387
岁的孩子	-4388
巴基斯坦	-4389
怎么可能	-4390
怎么样呢	-4391
怎样才能	-4392
正在发生	-4393
正是我们	-4394
的情况下	-4395
这是我的	-4396
这种情况	-4397
非常有趣	-4398
▁他们需要	-4399
▁我们无法	-4400
▁我是一个	-4401
▁斯蒂芬尼	-4402
▁没有什么	-4403
,「	-4404
ol	-4405
ow	-4406
ri	-4407
yn	-4408
▁中	-4409
▁举	-4410
▁长	-4411
一本	-4412
三明	-4413
三种	-4414
之心	-4415
乐队	-4416
于此	-4417
交配	-4418
亲眼	-4419
人物	-4420
亿个	-4421
休息	-4422
你也	-4423
你好	-4424
使我	-4425
具备	-4426
内的	-4427
凌晨	-4428
到我	-4429
单一	-4430
印刷	-4431
去找	-4432
后代	-4433
吸收	-4434
基督	-4435
外星	-4436
大型	-4437
她在	-4438
如同	-4439
姥鲨	-4440
学术	-4441
实话	-4442
对手	-4443
就不	-4444
居民	-4445
应的	-4446
很酷	-4447
微笑	-4448
悲剧	-4449
成分	-4450
我被	-4451
所未	-4452
折纸	-4453
捕食	-4454
教徒	-4455
整理	-4456
棉花	-4457
植入	-4458
模块	-4459
模糊	-4460
河流	-4461
波士	-4462
消灭	-4463
消除	-4464
点的	-4465
瑞士	-4466
生气	-4467
用水	-4468
男士	-4469
疯了	-4470
百科	-4471
的车	-4472
皮层	-4473
瞄准	-4474
约会	-4475
翅膀	-4476
老人	-4477
脊髓	-4478
至于	-4479
色彩	-4480
花钱	-4481
苍蝇	-4482
观测	-4483
论文	-4484
赚钱	-4485
起源	-4486
转向	-4487
连续	-4488
里约	-4489
间的	-4490
降落	-4491
顶端	-4492
飞船	-4493
▁一天	-4494
▁一直	-4495
▁关键	-4496
▁创造	-4497
▁变成	-4498
▁回到	-4499
▁在此	-4500
▁它将	-4501
▁它有	-4502
▁左边	-4503
▁有个	-4504
▁此外	-4505
▁网络	-4506
▁进行	-4507
▁那就	-4508
三明治	-4509
主要的	-4510
之所以	-4511
了下来	-4512
从这里	-4513
他们都	-4514
共同点	-4515
再一次	-4516
困难的	-4517
在上面	-4518
在你的	-4519
大概是	-4520
女孩儿	-4521
巧克力	-4522
影响力	-4523
很奇怪	-4524
我们该	-4525
我说的	-4526
把你的	-4527
有一点	-4528
查尔斯	-4529
特定的	-4530
玩意儿	-4531
的形式	-4532
的意思	-4533
的朋友	-4534
的生命	-4535
相似的	-4536
看这个	-4537
着一个	-4538
良好的	-4539
行不通	-4540
解决了	-4541
认为是	-4542
起来了	-4543
这个小	-4544
选择了	-4545
3000	-4546
▁在座的	-4547
▁在我的	-4548
▁很显然	-4549
▁我真的	-4550
▁我还是	-4551
▁或者是	-4552
▁是因为	-4553
▁答案是	-4554
▁而这是	-4555
▁这里的	-4556
一些东西	-4557
他们自己	-4558
任何一个	-4559
像这样的	-4560
已经开始	-4561
生物学家	-4562
的是一个	-4563
这个过程	-4564
这么做了	-4565
非常简单	-4566
▁我们怎么	-4567
▁我们甚至	-4568
▁我们看到	-4569
▁有多少人	-4570
▁现在我想	-4571
iPhone	-4572
26	-4573
eb	-4574
un	-4575
▁个	-4576
▁同	-4577
▁哪	-4578
▁左	-4579
▁既	-4580
▁等	-4581
▁起	-4582
▁身	-4583
一句	-4584
一来	-4585
一辆	-4586
乐意	-4587
以外	-4588
传达	-4589
储存	-4590
像素	-4591
全身	-4592
兰克	-4593
出发	-4594
分别	-4595
分成	-4596
利的	-4597
利福	-4598
加拿	-4599
即兴	-4600
反射	-4601
吃了	-4602
吃的	-4603
听听	-4604
周期	-4605
喜剧	-4606
土星	-4607
好比	-4608
威尔	-4609
季节	-4610
宝贝	-4611
家乡	-4612
封面	-4613
尼斯	-4614
帝国	-4615
当下	-4616
心里	-4617
性和	-4618
悲伤	-4619
愉快	-4620
感恩	-4621
成熟	-4622
成立	-4623
战斗	-4624
抱怨	-4625
指出	-4626
推特	-4627
放进	-4628
无限	-4629
时报	-4630
显著	-4631
晚餐	-4632
曲子	-4633
桌子	-4634
欲望	-4635
演出	-4636
点儿	-4637
煤炭	-4638
环绕	-4639
生日	-4640
生素	-4641
用到	-4642
电路	-4643
留在	-4644
疗法	-4645
白人	-4646
看得	-4647
眼前	-4648
磁场	-4649
空白	-4650
简短	-4651
算法	-4652
给她	-4653
膨胀	-4654
芯片	-4655
花园	-4656
英寸	-4657
英文	-4658
蚊帐	-4659
表情	-4660
认同	-4661
证实	-4662
说道	-4663
走出	-4664
跨越	-4665
转换	-4666
轻易	-4667
送到	-4668
镜头	-4669
随机	-4670
难民	-4671
非凡	-4672
麻醉	-4673
黄金	-4674
▁不用	-4675
▁但当	-4676
▁各位	-4677
▁地球	-4678
▁声音	-4679
▁孩子	-4680
▁对此	-4681
▁将会	-4682
▁就会	-4683
▁建筑	-4684
▁总之	-4685
▁感觉	-4686
▁成为	-4687
▁我先	-4688
▁我跟	-4689
▁数据	-4690
▁经过	-4691
▁这幅	-4692
▁马克	-4693
一分钟	-4694
不再是	-4695
世界里	-4696
个孩子	-4697
也同样	-4698
了一场	-4699
了他们	-4700
他们有	-4701
你们所	-4702
信息的	-4703
历史的	-4704
另一只	-4705
只是在	-4706
合适的	-4707
同时也	-4708
听到了	-4709
和其他	-4710
回来了	-4711
对不对	-4712
对这些	-4713
就知道	-4714
展示的	-4715
建立在	-4716
想要的	-4717
我不会	-4718
我当时	-4719
是完全	-4720
波士顿	-4721
的一半	-4722
的理论	-4723
的目标	-4724
相关的	-4725
研究了	-4726
精神病	-4727
给自己	-4728
背后的	-4729
致命的	-4730
艺术品	-4731
观众笑	-4732
说一下	-4733
贫民窟	-4734
陌生人	-4735
▁全世界	-4736
▁几年前	-4737
▁女士们	-4738
▁当时我	-4739
▁我们先	-4740
▁我们来	-4741
▁我并不	-4742
▁我是个	-4743
▁是我们	-4744
三分之一	-4745
很长时间	-4746
我不得不	-4747
我们还是	-4748
我的生活	-4749
是一样的	-4750
最后一个	-4751
该怎么办	-4752
这样的人	-4753
▁不仅仅是	-4754
▁你可以在	-4755
▁在我们的	-4756
▁如果你想	-4757
▁我们通过	-4758
▁我想知道	-4759
▁所以这是	-4760
其中的一个	-4761
我们的生活	-4762
▁为什么我们	-4763
▁让我们看看	-4764
令人难以置信	-4765
99	-4766
PA	-4767
ot	-4768
ry	-4769
te	-4770
▁7	-4771
▁直	-4772
▁路	-4773
▁过	-4774
一想	-4775
一把	-4776
不上	-4777
不久	-4778
不如	-4779
不定	-4780
主动	-4781
了两	-4782
今晚	-4783
使它	-4784
保障	-4785
借口	-4786
催产	-4787
入侵	-4788
几千	-4789
出自	-4790
到来	-4791
劳动	-4792
协调	-4793
卡车	-4794
危害	-4795
厉害	-4796
叔叔	-4797
变异	-4798
只会	-4799
只需	-4800
可乐	-4801
各自	-4802
和谐	-4803
哲学	-4804
善于	-4805
在他	-4806
坐下	-4807
大声	-4808
奴隶	-4809
她会	-4810
姿势	-4811
安装	-4812
定位	-4813
对你	-4814
尺寸	-4815
巴黎	-4816
带上	-4817
开启	-4818
强迫	-4819
很像	-4820
得知	-4821
必需	-4822
怀孕	-4823
想去	-4824
感官	-4825
我再	-4826
我问	-4827
战略	-4828
手中	-4829
手工	-4830
扩大	-4831
批评	-4832
把他	-4833
把手	-4834
拉丁	-4835
拥抱	-4836
挣扎	-4837
捐赠	-4838
撒谎	-4839
收藏	-4840
敌人	-4841
教会	-4842
文学	-4843
明年	-4844
暂时	-4845
未知	-4846
板上	-4847
枪鱼	-4848
栖息	-4849
深处	-4850
深深	-4851
激进	-4852
炸弹	-4853
点是	-4854
片断	-4855
特里	-4856
独特	-4857
百分	-4858
的性	-4859
的路	-4860
简洁	-4861
粗糙	-4862
繁荣	-4863
纤维	-4864
缺陷	-4865
老年	-4866
聊天	-4867
肢体	-4868
自信	-4869
航空	-4870
要在	-4871
要比	-4872
见证	-4873
设置	-4874
读者	-4875
赢了	-4876
足以	-4877
转动	-4878
这也	-4879
这部	-4880
选项	-4881
部位	-4882
重的	-4883
集体	-4884
页面	-4885
骨骼	-4886
麻痹	-4887
▁18	-4888
▁PM	-4889
▁大卫	-4890
▁当今	-4891
▁总是	-4892
▁是我	-4893
▁是由	-4894
▁有着	-4895
▁简单	-4896
▁老师	-4897
▁都在	-4898
一定是	-4899
也不能	-4900
你应该	-4901
决定的	-4902
加入了	-4903
可以是	-4904
合理的	-4905
大概有	-4906
大问题	-4907
太多的	-4908
工作中	-4909
开玩笑	-4910
形成了	-4911
必要的	-4912
我的手	-4913
我相信	-4914
我非常	-4915
探测器	-4916
收到了	-4917
显微镜	-4918
根本上	-4919
环境中	-4920
用这个	-4921
的作品	-4922
的区域	-4923
的效果	-4924
的那些	-4925
着我们	-4926
答案是	-4927
聪明的	-4928
自己是	-4929
自然界	-4930
这些小	-4931
这方面	-4932
那样做	-4933
金枪鱼	-4934
非洲人	-4935
5000	-4936
▁也不是	-4937
▁他们不	-4938
▁他们从	-4939
▁他们想	-4940
▁他们被	-4941
▁你认为	-4942
▁因为他	-4943
▁它们会	-4944
▁尤其是	-4945
▁我总是	-4946
▁我看到	-4947
▁而现在	-4948
一点也不	-4949
也是如此	-4950
介绍一下	-4951
发生的事	-4952
可以通过	-4953
它看起来	-4954
完全没有	-4955
实验室里	-4956
就像一个	-4957
帮助他们	-4958
恐怖主义	-4959
我们正在	-4960
有更多的	-4961
▁另外一个	-4962
▁在过去的	-4963
▁我并不是	-4964
▁我认为这	-4965
▁爱因斯坦	-4966
▁这个世界	-4967
▁这个故事	-4968
▁这是我在	-4969
生活在一个	-4970
▁我们称之为	-4971
▁这就是我的	-4972
-3	-4973
▁北	-4974
▁恩	-4975
▁生	-4976
▁黑	-4977
一幅	-4978
一根	-4979
下载	-4980
不幸	-4981
丛林	-4982
丧失	-4983
之下	-4984
乡村	-4985
亨利	-4986
你得	-4987
例外	-4988
光线	-4989
全是	-4990
内在	-4991
冲击	-4992
刚果	-4993
剧院	-4994
包装	-4995
单纯	-4996
参考	-4997
号码	-4998
向上	-4999
味的	-5000
命令	-5001
和他	-5002
四十	-5003
场所	-5004
坏事	-5005
坐着	-5006
壁虎	-5007
外部	-5008
多种	-5009
姐妹	-5010
字体	-5011
实体	-5012
实质	-5013
家长	-5014
就被	-5015
尿病	-5016
屁股	-5017
岩石	-5018
巴马	-5019
广场	-5020
序列	-5021
开关	-5022
当初	-5023
录音	-5024
微软	-5025
忍受	-5026
想着	-5027
我没	-5028
战士	-5029
提议	-5030
效益	-5031
整天	-5032
旅游	-5033
是无	-5034
最为	-5035
月份	-5036
月的	-5037
来临	-5038
楼梯	-5039
死的	-5040
毁灭	-5041
水下	-5042
沃尔	-5043
洞穴	-5044
激发	-5045
火虫	-5046
理所	-5047
电梯	-5048
白色	-5049
米洛	-5050
罢了	-5051
老板	-5052
自私	-5053
蘑菇	-5054
见了	-5055
诗歌	-5056
课堂	-5057
远的	-5058
遭受	-5059
部长	-5060
静止	-5061
频率	-5062
风暴	-5063
鼠标	-5064
150	-5065
400	-5066
gle	-5067
▁——	-5068
▁你有	-5069
▁到底	-5070
▁否则	-5071
▁很快	-5072
▁得到	-5073
▁海洋	-5074
▁现代	-5075
▁至于	-5076
▁记住	-5077
一会儿	-5078
两个人	-5079
为大家	-5080
亲爱的	-5081
人们在	-5082
传播的	-5083
你已经	-5084
你没有	-5085
催产素	-5086
到那里	-5087
发生过	-5088
可以被	-5089
同性恋	-5090
向我们	-5091
在印度	-5092
基金会	-5093
太阳系	-5094
学到的	-5095
宇宙的	-5096
实现了	-5097
已经是	-5098
年前的	-5099
年轻的	-5100
建造的	-5101
引起了	-5102
心理学	-5103
怎么会	-5104
总是在	-5105
成一个	-5106
我发现	-5107
我就是	-5108
时代的	-5109
是真的	-5110
有多大	-5111
极大的	-5112
此同时	-5113
没关系	-5114
演讲的	-5115
的事件	-5116
的唯一	-5117
的模型	-5118
的经历	-5119
称它为	-5120
第二天	-5121
糖尿病	-5122
肯定的	-5123
萤火虫	-5124
被称作	-5125
角度看	-5126
设计了	-5127
过这个	-5128
还不够	-5129
这东西	-5130
进入了	-5131
造成的	-5132
遇到了	-5133
音乐家	-5134
额外的	-5135
▁一开始	-5136
▁人类的	-5137
▁你就会	-5138
▁听起来	-5139
▁好消息	-5140
▁我们被	-5141
▁我们说	-5142
▁现在的	-5143
▁结果是	-5144
▁计算机	-5145
▁这两个	-5146
▁这对于	-5147
什么东西	-5148
他们没有	-5149
倭黑猩猩	-5150
利福尼亚	-5151
因为我们	-5152
它是一个	-5153
怎么做呢	-5154
每一个人	-5155
物理学家	-5156
的一件事	-5157
看看这个	-5158
经济学家	-5159
这个东西	-5160
这个系统	-5161
这个观点	-5162
这件事情	-5163
需要一个	-5164
▁你可以用	-5165
▁它是一种	-5166
▁幸运的是	-5167
▁我们一直	-5168
▁我们不是	-5169
▁我意识到	-5170
▁所以现在	-5171
▁有趣的是	-5172
▁现在我要	-5173
▁除此之外	-5174
他们自己的	-5175
变得越来越	-5176
我们称之为	-5177
▁我们不需要	-5178
▁所以这就是	-5179
▁斯普尔洛克	-5180
是非常重要的	-5181
%,	-5182
0.	-5183
27	-5184
36	-5185
im	-5186
ub	-5187
▁O	-5188
▁尼	-5189
▁特	-5190
▁电	-5191
一层	-5192
七个	-5193
三十	-5194
与之	-5195
与人	-5196
主流	-5197
买到	-5198
买的	-5199
人数	-5200
但这	-5201
克服	-5202
公式	-5203
共振	-5204
关乎	-5205
利润	-5206
勇敢	-5207
勇气	-5208
医师	-5209
升级	-5210
半球	-5211
协作	-5212
协议	-5213
卡通	-5214
印第	-5215
压缩	-5216
发送	-5217
口号	-5218
可笑	-5219
启示	-5220
哈佛	-5221
四处	-5222
困境	-5223
在地	-5224
声波	-5225
外界	-5226
够了	-5227
大大	-5228
太太	-5229
头上	-5230
姐姐	-5231
学科	-5232
家具	-5233
对它	-5234
少的	-5235
市长	-5236
帕特	-5237
常规	-5238
幻觉	-5239
度过	-5240
彼得	-5241
微型	-5242
心中	-5243
心想	-5244
总会	-5245
情境	-5246
戈尔	-5247
指令	-5248
操控	-5249
支付	-5250
数以	-5251
数百	-5252
数目	-5253
斯的	-5254
早晨	-5255
明智	-5256
星星	-5257
是要	-5258
更新	-5259
更难	-5260
最有	-5261
有谁	-5262
服用	-5263
机遇	-5264
某人	-5265
查看	-5266
框架	-5267
民众	-5268
法庭	-5269
法案	-5270
燃烧	-5271
特点	-5272
的地	-5273
的说	-5274
监管	-5275
看作	-5276
碰到	-5277
礼拜	-5278
神话	-5279
科研	-5280
童年	-5281
管用	-5282
紧密	-5283
纯粹	-5284
纸上	-5285
统一	-5286
聆听	-5287
脑子	-5288
至今	-5289
舒适	-5290
荧光	-5291
要花	-5292
视为	-5293
警告	-5294
设立	-5295
调节	-5296
贝尔	-5297
车祸	-5298
过时	-5299
远离	-5300
邪恶	-5301
随意	-5302
600	-5303
80%	-5304
GDP	-5305
▁唯一	-5306
▁在座	-5307
▁平均	-5308
▁我用	-5309
▁所谓	-5310
▁政治	-5311
▁是在	-5312
▁艺术	-5313
▁超过	-5314
▁那天	-5315
不确定	-5316
个人的	-5317
为你们	-5318
之一是	-5319
之类的	-5320
乳腺癌	-5321
了所有	-5322
人们对	-5323
从一个	-5324
从哪里	-5325
前所未	-5326
劳动力	-5327
却没有	-5328
右边的	-5329
告诉他	-5330
在那个	-5331
地区的	-5332
坐下来	-5333
大约有	-5334
它可以	-5335
完全的	-5336
小部分	-5337
尽可能	-5338
屏幕上	-5339
很清楚	-5340
很高兴	-5341
我不想	-5342
房间里	-5343
拥有的	-5344
持续了	-5345
教育的	-5346
是人类	-5347
是十分	-5348
是多么	-5349
是通过	-5350
来这里	-5351
棒极了	-5352
物理学	-5353
珊瑚礁	-5354
病毒的	-5355
百万人	-5356
的反应	-5357
的图像	-5358
的城市	-5359
的实验	-5360
的建筑	-5361
的游戏	-5362
的系统	-5363
看到它	-5364
科学的	-5365
经历过	-5366
给你的	-5367
而言之	-5368
自己说	-5369
蓝色的	-5370
认为这	-5371
造成了	-5372
那时候	-5373
都不会	-5374
领导力	-5375
avid	-5376
▁他们对	-5377
▁他们还	-5378
▁他是个	-5379
▁你觉得	-5380
▁其他的	-5381
▁只不过	-5382
▁在那里	-5383
▁机器人	-5384
▁理查德	-5385
▁科学家	-5386
一无所知	-5387
一种新的	-5388
不一样的	-5389
你自己的	-5390
建立一个	-5391
怎么回事	-5392
我们发现	-5393
我有一个	-5394
是怎样的	-5395
知道这些	-5396
解决方法	-5397
还有一些	-5398
这个实验	-5399
这样做的	-5400
非常好的	-5401
▁他们只是	-5402
▁你不需要	-5403
▁你们可以	-5404
▁我们把它	-5405
▁我有一个	-5406
▁所以我就	-5407
某种意义上	-5408
非常重要的	-5409
▁我们有一个	-5410
)。	-5411
op	-5412
▁听	-5413
▁得	-5414
▁打	-5415
▁拿	-5416
▁据	-5417
▁读	-5418
▁非	-5419
▁麦	-5420
。。	-5421
」。	-5422
下午	-5423
不该	-5424
为之	-5425
之路	-5426
乐器	-5427
五千	-5428
亚洲	-5429
亲自	-5430
代替	-5431
令我	-5432
众多	-5433
优雅	-5434
会问	-5435
传输	-5436
但我	-5437
作者	-5438
使你	-5439
借助	-5440
假装	-5441
先进	-5442
全力	-5443
六个	-5444
关节	-5445
出乎	-5446
出售	-5447
列表	-5448
动手	-5449
却不	-5450
双手	-5451
反抗	-5452
发言	-5453
可没	-5454
后悔	-5455
哈哈	-5456
垂直	-5457
大厅	-5458
太平	-5459
好玩	-5460
富裕	-5461
尔曼	-5462
尽量	-5463
帮你	-5464
帽子	-5465
干预	-5466
引入	-5467
弹奏	-5468
往下	-5469
德拉	-5470
抗议	-5471
换个	-5472
排列	-5473
描绘	-5474
放下	-5475
放射	-5476
效的	-5477
教训	-5478
方形	-5479
方程	-5480
无知	-5481
昂贵	-5482
晶体	-5483
月亮	-5484
月球	-5485
核能	-5486
根源	-5487
格兰	-5488
棒球	-5489
正如	-5490
残疾	-5491
比这	-5492
水中	-5493
海盗	-5494
涂鸦	-5495
深度	-5496
滑雪	-5497
猜测	-5498
瘫痪	-5499
的公	-5500
真理	-5501
窗户	-5502
管道	-5503
线上	-5504
终极	-5505
终点	-5506
终结	-5507
绘制	-5508
统治	-5509
绳子	-5510
维护	-5511
缺少	-5512
考试	-5513
而不	-5514
联邦	-5515
能否	-5516
能用	-5517
至关	-5518
表格	-5519
衰老	-5520
许可	-5521
讽刺	-5522
评估	-5523
诸位	-5524
起的	-5525
超市	-5526
跟随	-5527
转折	-5528
辐射	-5529
还不	-5530
钢琴	-5531
键盘	-5532
阴道	-5533
陆地	-5534
随处	-5535
风能	-5536
鼓舞	-5537
▁15	-5538
▁不久	-5539
▁不论	-5540
▁你也	-5541
▁在他	-5542
▁她在	-5543
▁我再	-5544
▁我叫	-5545
▁找到	-5546
▁是个	-5547
▁民主	-5548
▁生活	-5549
▁的确	-5550
▁知道	-5551
▁绿色	-5552
▁记者	-5553
下一步	-5554
不仅是	-5555
不到的	-5556
不容易	-5557
不清楚	-5558
不过是	-5559
为他们	-5560
了解的	-5561
令人惊	-5562
会产生	-5563
你就能	-5564
做出了	-5565
其它的	-5566
分之二	-5567
印第安	-5568
可以做	-5569
名字是	-5570
和我的	-5571
在纽约	-5572
在这些	-5573
多少钱	-5574
太多了	-5575
学校里	-5576
家公司	-5577
对你的	-5578
小时候	-5579
小时的	-5580
帮我们	-5581
我正在	-5582
打印机	-5583
提出了	-5584
是对的	-5585
是来自	-5586
来说是	-5587
每天都	-5588
特殊的	-5589
独立的	-5590
的主要	-5591
的事业	-5592
的位置	-5593
的开始	-5594
的成果	-5595
的文化	-5596
的活动	-5597
的语言	-5598
的运动	-5599
磁共振	-5600
科技的	-5601
红色的	-5602
美元的	-5603
能得到	-5604
让我来	-5605
讲一下	-5606
讲的是	-5607
语言的	-5608
诸如此	-5609
过去了	-5610
过的最	-5611
进化的	-5612
那个人	-5613
都已经	-5614
量子力	-5615
面临着	-5616
2010	-5617
NASA	-5618
▁一些人	-5619
▁但不是	-5620
▁但这是	-5621
▁你也许	-5622
▁你应该	-5623
▁再一次	-5624
▁因为这	-5625
▁在那个	-5626
▁在非洲	-5627
▁如果是	-5628
▁它不是	-5629
▁当他们	-5630
▁我决定	-5631
▁我父亲	-5632
▁我试着	-5633
▁是一种	-5634
▁然后是	-5635
▁真正的	-5636
▁突然间	-5637
▁美国人	-5638
▁而他们	-5639
任何事情	-5640
做了一些	-5641
化学物质	-5642
哺乳动物	-5643
就像这样	-5644
并不知道	-5645
成了一个	-5646
我们看到	-5647
我所说的	-5648
整个世界	-5649
有这样的	-5650
生活方式	-5651
电子游戏	-5652
的第一个	-5653
相互作用	-5654
组成部分	-5655
给你们讲	-5656
给大家看	-5657
角度来看	-5658
这个话题	-5659
这些孩子	-5660
oogle	-5661
▁他们甚至	-5662
▁但是这些	-5663
▁但问题是	-5664
▁我们喜欢	-5665
▁我在这里	-5666
▁然后我就	-5667
严重的问题	-5668
之间的关系	-5669
,1	-5670
-2	-5671
47	-5672
ul	-5673
▁Z	-5674
▁[	-5675
▁古	-5676
▁哇	-5677
▁快	-5678
▁美	-5679
▁西	-5680
▁越	-5681
一堆	-5682
上百	-5683
两周	-5684
主张	-5685
举办	-5686
九十	-5687
产的	-5688
从不	-5689
他就	-5690
任意	-5691
伸出	-5692
低于	-5693
体制	-5694
作弊	-5695
作物	-5696
依据	-5697
光谱	-5698
分泌	-5699
加哥	-5700
千年	-5701
厨师	-5702
可不	-5703
司机	-5704
司法	-5705
合物	-5706
含量	-5707
哈拉	-5708
哥伦	-5709
回复	-5710
回顾	-5711
团结	-5712
困惑	-5713
在线	-5714
坦白	-5715
塞俄	-5716
夸张	-5717
媒介	-5718
字符	-5719
学位	-5720
完善	-5721
实用	-5722
尔的	-5723
工资	-5724
巴拉	-5725
带给	-5726
年内	-5727
引发	-5728
很高	-5729
心情	-5730
心灵	-5731
思路	-5732
性欲	-5733
恐怕	-5734
恰好	-5735
惩罚	-5736
想起	-5737
截然	-5738
手里	-5739
扭曲	-5740
折叠	-5741
拇指	-5742
持人	-5743
提问	-5744
摧毁	-5745
教练	-5746
数码	-5747
斯拉	-5748
方说	-5749
明了	-5750
显得	-5751
有利	-5752
板球	-5753
梅隆	-5754
欧盟	-5755
正面	-5756
此刻	-5757
比我	-5758
毫米	-5759
水里	-5760
永恒	-5761
汽油	-5762
注重	-5763
深远	-5764
游行	-5765
牛津	-5766
特质	-5767
玛丽	-5768
甚么	-5769
生理	-5770
男子	-5771
畅销	-5772
界限	-5773
畏惧	-5774
留言	-5775
硅谷	-5776
福利	-5777
笔钱	-5778
紧急	-5779
群人	-5780
聚会	-5781
肝脏	-5782
良好	-5783
菌丝	-5784
要的	-5785
计的	-5786
词语	-5787
诚实	-5788
详细	-5789
谈判	-5790
谎言	-5791
负面	-5792
走上	-5793
轮椅	-5794
迁移	-5795
运营	-5796
这件	-5797
这台	-5798
这很	-5799
这片	-5800
迷因	-5801
迹象	-5802
那条	-5803
队伍	-5804
随后	-5805
雄性	-5806
零和	-5807
面上	-5808
顶部	-5809
首次	-5810
马克	-5811
骆驼	-5812
验证	-5813
高达	-5814
鱼的	-5815
鲍勃	-5816
10%	-5817
40%	-5818
and	-5819
ard	-5820
ill	-5821
ind	-5822
▁BG	-5823
▁一只	-5824
▁上帝	-5825
▁为何	-5826
▁事情	-5827
▁今年	-5828
▁以前	-5829
▁利用	-5830
▁十分	-5831
▁数学	-5832
▁更多	-5833
▁有的	-5834
▁由此	-5835
▁相当	-5836
▁终于	-5837
▁而你	-5838
▁说到	-5839
▁这很	-5840
▁面对	-5841
三个月	-5842
下一代	-5843
不寻常	-5844
也开始	-5845
了一件	-5846
了一切	-5847
了一只	-5848
了他的	-5849
从来不	-5850
他正在	-5851
倾向于	-5852
像一个	-5853
分钟内	-5854
可以把	-5855
可以让	-5856
周围的	-5857
和他的	-5858
回答是	-5859
在哪儿	-5860
大学的	-5861
失败的	-5862
如果我	-5863
孟加拉	-5864
学校的	-5865
宇宙中	-5866
希望的	-5867
帮助你	-5868
并不会	-5869
庞大的	-5870
建立了	-5871
开放的	-5872
很不错	-5873
必须要	-5874
快乐的	-5875
怎么能	-5876
我们得	-5877
我们正	-5878
我决定	-5879
把我的	-5880
提一下	-5881
摄像头	-5882
改变的	-5883
数字化	-5884
文化的	-5885
最多的	-5886
有一条	-5887
有三个	-5888
朋友的	-5889
没问题	-5890
潜在的	-5891
的不同	-5892
的体验	-5893
的时代	-5894
的模式	-5895
的现实	-5896
的看法	-5897
的确是	-5898
的经济	-5899
的结构	-5900
篇文章	-5901
而来的	-5902
能不能	-5903
芝加哥	-5904
许许多	-5905
说明了	-5906
还记得	-5907
这家伙	-5908
那么大	-5909
重大的	-5910
音乐的	-5911
领域的	-5912
▁其他人	-5913
▁在这种	-5914
▁它们在	-5915
▁对我们	-5916
▁我就是	-5917
▁百分之	-5918
▁这才是	-5919
一个新的	-5920
不可避免	-5921
全球性的	-5922
塞俄比亚	-5923
很感兴趣	-5924
很重要的	-5925
放在一起	-5926
显而易见	-5927
理所当然	-5928
看到一个	-5929
精神疾病	-5930
节奏数学	-5931
行动起来	-5932
越来越多	-5933
▁为什么不	-5934
▁他们认为	-5935
▁你会发现	-5936
▁它看起来	-5937
▁我们将会	-5938
▁我们想要	-5939
▁我们还有	-5940
▁最后一个	-5941
▁然后他说	-5942
▁而且我们	-5943
▁谢谢大家	-5944
▁还有一个	-5945
▁这些东西	-5946
▁这可不是	-5947
我们的大脑	-5948
▁我们来看看	-5949
▁这是另一个	-5950
▁让我们来看看	-5951
▁这就是我们在	-5952
28	-5953
PS	-5954
▁仅	-5955
▁则	-5956
▁呃	-5957
▁已	-5958
▁拉	-5959
▁科	-5960
▁试	-5961
▁超	-5962
▁重	-5963
一头	-5964
一组	-5965
万年	-5966
不大	-5967
不已	-5968
与你	-5969
之类	-5970
乐团	-5971
书的	-5972
买卖	-5973
交换	-5974
人才	-5975
人造	-5976
以上	-5977
仿佛	-5978
优先	-5979
伴侣	-5980
倍的	-5981
倾斜	-5982
冥想	-5983
匹配	-5984
即时	-5985
去的	-5986
友好	-5987
变为	-5988
同步	-5989
向下	-5990
否认	-5991
含有	-5992
员会	-5993
和她	-5994
和水	-5995
哪种	-5996
囚犯	-5997
围着	-5998
土壤	-5999
墙壁	-6000
增强	-6001
处境	-6002
多个	-6003
多大	-6004
大多	-6005
大胆	-6006
天啊	-6007
天的	-6008
奶奶	-6009
姑娘	-6010
子和	-6011
子在	-6012
宝宝	-6013
室里	-6014
寄生	-6015
小学	-6016
就越	-6017
尴尬	-6018
尽快	-6019
干扰	-6020
弯曲	-6021
当做	-6022
息息	-6023
意图	-6024
意志	-6025
成真	-6026
我曾	-6027
抛弃	-6028
报导	-6029
指示	-6030
排除	-6031
接收	-6032
提示	-6033
操纵	-6034
收益	-6035
收缩	-6036
无需	-6037
时常	-6038
是啊	-6039
是大	-6040
显现	-6041
暗喻	-6042
极限	-6043
格斯	-6044
棘手	-6045
橄榄	-6046
残忍	-6047
比尔	-6048
氏度	-6049
气的	-6050
法官	-6051
泡沫	-6052
注入	-6053
海底	-6054
激光	-6055
版权	-6056
特技	-6057
用途	-6058
电流	-6059
病的	-6060
的手	-6061
着陆	-6062
知觉	-6063
秘诀	-6064
秩序	-6065
立场	-6066
精灵	-6067
纪念	-6068
经营	-6069
维基	-6070
肤色	-6071
肩膀	-6072
脑中	-6073
自问	-6074
舌头	-6075
舞者	-6076
蔓延	-6077
螺旋	-6078
西藏	-6079
要素	-6080
见面	-6081
论者	-6082
设定	-6083
误解	-6084
说出	-6085
谁是	-6086
谈的	-6087
跟你	-6088
车辆	-6089
这太	-6090
适用	-6091
那位	-6092
里克	-6093
问他	-6094
问你	-6095
阻碍	-6096
随之	-6097
集团	-6098
震动	-6099
青春	-6100
马里	-6101
鹅肝	-6102
196	-6103
han	-6104
ick	-6105
▁21	-6106
▁不再	-6107
▁为此	-6108
▁以上	-6109
▁你所	-6110
▁克莱	-6111
▁制造	-6112
▁加贝	-6113
▁国家	-6114
▁就算	-6115
▁怎样	-6116
▁想像	-6117
▁想要	-6118
▁我听	-6119
▁接受	-6120
▁提供	-6121
▁现实	-6122
▁看来	-6123
▁真是	-6124
▁简直	-6125
▁记得	-6126
▁这只	-6127
▁这真	-6128
不好的	-6129
个月后	-6130
为自己	-6131
了一下	-6132
产品的	-6133
什么的	-6134
什么都	-6135
从来没	-6136
他们为	-6137
件作品	-6138
保护区	-6139
全球的	-6140
减少了	-6141
创新的	-6142
到一起	-6143
南极洲	-6144
取得了	-6145
受到了	-6146
可不想	-6147
因特网	-6148
在家里	-6149
增加了	-6150
太平洋	-6151
女性的	-6152
存在了	-6153
它不是	-6154
它就是	-6155
安全套	-6156
对不起	-6157
对这个	-6158
小孩子	-6159
小行星	-6160
就不会	-6161
就是我	-6162
强烈的	-6163
形式的	-6164
很喜欢	-6165
很复杂	-6166
快速地	-6167
我们来	-6168
我们用	-6169
我只是	-6170
我真的	-6171
战争中	-6172
接受的	-6173
数学家	-6174
是如此	-6175
更喜欢	-6176
有哪些	-6177
有意义	-6178
有用的	-6179
海平面	-6180
理性的	-6181
疯狂的	-6182
病人的	-6183
的产品	-6184
的公司	-6185
的关键	-6186
的动物	-6187
的土地	-6188
的机器	-6189
的梦想	-6190
的科技	-6191
的网络	-6192
的领域	-6193
看出来	-6194
看着我	-6195
类型的	-6196
脑子里	-6197
见到了	-6198
让它们	-6199
让我想	-6200
跟大家	-6201
过一个	-6202
这一步	-6203
这么想	-6204
领导人	-6205
飞机上	-6206
魔术师	-6207
▁也没有	-6208
▁他们要	-6209
▁但我想	-6210
▁你们看	-6211
▁你们都	-6212
▁可能是	-6213
▁我这里	-6214
▁所有人	-6215
▁谢谢你	-6216
▁过去的	-6217
▁这其实	-6218
不好意思	-6219
与众不同	-6220
从根本上	-6221
你看到的	-6222
几个例子	-6223
并非如此	-6224
得到一个	-6225
我们有了	-6226
我的意思	-6227
机器人的	-6228
来看一下	-6229
没有一个	-6230
注意到了	-6231
现在已经	-6232
纽约时报	-6233
考虑一下	-6234
让我感到	-6235
谢谢你们	-6236
这些信息	-6237
这些照片	-6238
这种方式	-6239
这部电影	-6240
采取行动	-6241
Chris	-6242
▁于是他们	-6243
▁但是如果	-6244
▁如果他们	-6245
▁如果你在	-6246
▁如果没有	-6247
▁我们都是	-6248
▁我第一次	-6249
▁这个过程	-6250
▁这个项目	-6251
▁这种情况	-6252
▁重要的是	-6253
不同的方式	-6254
举一个例子	-6255
加利福尼亚	-6256
和大家分享	-6257
我们所说的	-6258
我们自己的	-6259
是怎么回事	-6260
▁所以我决定	-6261
▁所以我们需要	-6262
,2	-6263
,3	-6264
22	-6265
32	-6266
35	-6267
ab	-6268
ma	-6269
oy	-6270
▁8	-6271
▁:	-6272
▁且	-6273
▁布	-6274
▁朱	-6275
▁盖	-6276
▁远	-6277
一人	-6278
一刻	-6279
一套	-6280
一间	-6281
三次	-6282
上网	-6283
上说	-6284
不堪	-6285
不懂	-6286
举动	-6287
义肢	-6288
乌鸦	-6289
也要	-6290
了呢	-6291
人均	-6292
仍在	-6293
付钱	-6294
伙计	-6295
低估	-6296
你去	-6297
做着	-6298
光明	-6299
公布	-6300
冰岛	-6301
决心	-6302
几次	-6303
出色	-6304
分为	-6305
切的	-6306
利普	-6307
加坡	-6308
动脉	-6309
十二	-6310
博拉	-6311
卡尔	-6312
去买	-6313
去想	-6314
参观	-6315
又会	-6316
反复	-6317
发作	-6318
发育	-6319
口哨	-6320
右手	-6321
名声	-6322
向我	-6323
告知	-6324
周后	-6325
咨询	-6326
哈顿	-6327
啤酒	-6328
器的	-6329
回了	-6330
国内	-6331
圆圈	-6332
在乎	-6333
地去	-6334
基地	-6335
夜晚	-6336
够的	-6337
天文	-6338
天生	-6339
天赋	-6340
天车	-6341
妹妹	-6342
孤儿	-6343
它也	-6344
实行	-6345
审视	-6346
宣布	-6347
家园	-6348
家族	-6349
对付	-6350
小型	-6351
尚未	-6352
屋子	-6353
屠杀	-6354
巧合	-6355
已有	-6356
帐篷	-6357
带领	-6358
平行	-6359
年级	-6360
开头	-6361
开来	-6362
开端	-6363
引用	-6364
强奸	-6365
往上	-6366
得起	-6367
必然	-6368
性能	-6369
我把	-6370
所见	-6371
打个	-6372
扩散	-6373
找寻	-6374
护理	-6375
抵抗	-6376
推测	-6377
救援	-6378
文献	-6379
族群	-6380
无数	-6381
早就	-6382
早已	-6383
有限	-6384
术语	-6385
杀害	-6386
村子	-6387
极为	-6388
核弹	-6389
棵树	-6390
概率	-6391
正式	-6392
歧视	-6393
殖民	-6394
每周	-6395
气泡	-6396
泡泡	-6397
海地	-6398
海水	-6399
海滩	-6400
滑板	-6401
演化	-6402
灯光	-6403
灰质	-6404
灵长	-6405
热衷	-6406
爆发	-6407
独自	-6408
琼斯	-6409
的了	-6410
监视	-6411
相连	-6412
睾丸	-6413
碎片	-6414
福特	-6415
突变	-6416
等到	-6417
精英	-6418
纠正	-6419
缓慢	-6420
而非	-6421
耐心	-6422
股票	-6423
肥胖	-6424
蔬菜	-6425
融化	-6426
裤子	-6427
西部	-6428
要从	-6429
要用	-6430
解开	-6431
议题	-6432
话说	-6433
读书	-6434
谋杀	-6435
费曼	-6436
越大	-6437
路径	-6438
这块	-6439
这将	-6440
这时	-6441
遍布	-6442
钻石	-6443
银河	-6444
错觉	-6445
问她	-6446
阴影	-6447
隐私	-6448
震撼	-6449
音符	-6450
预料	-6451
骄傲	-6452
鸿沟	-6453
20%	-6454
ook	-6455
▁不知	-6456
▁亚当	-6457
▁从来	-6458
▁从而	-6459
▁他把	-6460
▁他被	-6461
▁令人	-6462
▁你说	-6463
▁几个	-6464
▁右边	-6465
▁在你	-6466
▁女孩	-6467
▁婴儿	-6468
▁媒体	-6469
▁它被	-6470
▁对了	-6471
▁很难	-6472
▁教育	-6473
▁某些	-6474
▁现今	-6475
▁电脑	-6476
▁石油	-6477
▁细胞	-6478
▁继续	-6479
▁这不	-6480
▁这与	-6481
▁选择	-6482
▁里面	-6483
▁随后	-6484
一下子	-6485
一回事	-6486
不停地	-6487
不平等	-6488
专注于	-6489
两件事	-6490
也一样	-6491
人口的	-6492
他人的	-6493
他们想	-6494
会这样	-6495
伴随着	-6496
你可能	-6497
你所见	-6498
你是否	-6499
你看到	-6500
依赖于	-6501
全球化	-6502
共和党	-6503
关键的	-6504
几个人	-6505
原来的	-6506
口袋里	-6507
名字叫	-6508
哲学家	-6509
圣诞节	-6510
在他的	-6511
复杂性	-6512
大脑中	-6513
好主意	-6514
学会了	-6515
工作了	-6516
市场的	-6517
希格斯	-6518
帮助我	-6519
并不能	-6520
弗兰克	-6521
当地的	-6522
很快地	-6523
很长的	-6524
怎么了	-6525
我去了	-6526
托马斯	-6527
捕食者	-6528
斯坦福	-6529
新技术	-6530
是你的	-6531
显示了	-6532
曼哈顿	-6533
有两种	-6534
有人说	-6535
有几个	-6536
洗衣机	-6537
灰质炎	-6538
犹太人	-6539
现在在	-6540
用它来	-6541
癌症的	-6542
的人会	-6543
的另一	-6544
的地图	-6545
的学生	-6546
的权利	-6547
的理解	-6548
的生物	-6549
的疾病	-6550
的科学	-6551
的细节	-6552
目标是	-6553
第二次	-6554
类似于	-6555
纽约市	-6556
经济的	-6557
给人们	-6558
绝对的	-6559
脑海中	-6560
英里的	-6561
菲利普	-6562
认为的	-6563
请举手	-6564
赢得了	-6565
过来了	-6566
还不错	-6567
这些是	-6568
这是在	-6569
透明化	-6570
都非常	-6571
问他们	-6572
问题了	-6573
飞天车	-6574
高尔夫	-6575
▁不需要	-6576
▁他们用	-6577
▁但它们	-6578
▁但这个	-6579
▁发生在	-6580
▁另一种	-6581
▁因为你	-6582
▁在很多	-6583
▁在过去	-6584
▁就是说	-6585
▁我以前	-6586
▁我们一	-6587
▁所以当	-6588
▁然后在	-6589
▁许多人	-6590
▁这个人	-6591
▁这件事	-6592
▁这是从	-6593
▁这是由	-6594
▁那不是	-6595
▁那我们	-6596
▁那里的	-6597
为什么呢	-6598
也是一种	-6599
什么地方	-6600
但是我们	-6601
你会看到	-6602
你知道吗	-6603
做了很多	-6604
做到这点	-6605
外科医生	-6606
学习如何	-6607
宗教信仰	-6608
恐怖分子	-6609
我的故事	-6610
接下来要	-6611
是不够的	-6612
有个问题	-6613
有史以来	-6614
有趣的是	-6615
正在进行	-6616
看到这些	-6617
看起来很	-6618
神经系统	-6619
站在这里	-6620
给了我们	-6621
觉得自己	-6622
这一问题	-6623
这个地方	-6624
这么做的	-6625
这样做了	-6626
这样的事	-6627
都有一个	-6628
▁但实际上	-6629
▁但是这个	-6630
▁你只需要	-6631
▁你知道的	-6632
▁如果你是	-6633
▁我不得不	-6634
▁我并没有	-6635
▁我的工作	-6636
▁这是关于	-6637
▁这样一来	-6638
一次又一次	-6639
世界各地的	-6640
为什么我们	-6641
我们有一个	-6642
是一个非常	-6643
是这个样子	-6644
脊髓灰质炎	-6645
这样的东西	-6646
这样的事情	-6647
Google	-6648
▁更重要的是	-6649
▁最重要的是	-6650
▁这就意味着	-6651
的事情发生了	-6652
Siftables	-6653
58	-6654
8%	-6655
?(	-6656
Al	-6657
IT	-6658
ap	-6659
nd	-6660
od	-6661
og	-6662
▁V	-6663
▁乔	-6664
▁单	-6665
▁受	-6666
▁巴	-6667
▁杰	-6668
▁苏	-6669
▁转	-6670
一支	-6671
一颗	-6672
万物	-6673
不做	-6674
东部	-6675
两只	-6676
严格	-6677
为例	-6678
主导	-6679
五十	-6680
交道	-6681
亮的	-6682
人为	-6683
人说	-6684
亿年	-6685
以此	-6686
价钱	-6687
仿生	-6688
体积	-6689
体重	-6690
你从	-6691
你对	-6692
你把	-6693
假肢	-6694
偶尔	-6695
光是	-6696
克的	-6697
关掉	-6698
冰箱	-6699
几率	-6700
创伤	-6701
到过	-6702
前后	-6703
剥夺	-6704
动了	-6705
北京	-6706
北美	-6707
十字	-6708
华尔	-6709
卓越	-6710
占了	-6711
原先	-6712
发达	-6713
变老	-6714
可视	-6715
可靠	-6716
合法	-6717
吸烟	-6718
器械	-6719
回头	-6720
回忆	-6721
国民	-6722
国的	-6723
在一	-6724
在座	-6725
地狱	-6726
地表	-6727
地铁	-6728
地面	-6729
声明	-6730
多年	-6731
大海	-6732
大致	-6733
天哪	-6734
夫妇	-6735
学上	-6736
它了	-6737
定了	-6738
并未	-6739
幻想	-6740
延续	-6741
引力	-6742
引导	-6743
当代	-6744
影子	-6745
征服	-6746
怪兽	-6747
情节	-6748
愿景	-6749
慷慨	-6750
成人	-6751
我刚	-6752
把你	-6753
拿走	-6754
拿起	-6755
指标	-6756
挑选	-6757
挖掘	-6758
挽救	-6759
推荐	-6760
搞笑	-6761
搭建	-6762
撞击	-6763
文本	-6764
无处	-6765
时机	-6766
是件	-6767
更糟	-6768
有益	-6769
有种	-6770
本地	-6771
杂耍	-6772
束缚	-6773
档案	-6774
榜样	-6775
橡皮	-6776
次的	-6777
此类	-6778
步行	-6779
汉堡	-6780
汤姆	-6781
法院	-6782
测验	-6783
消防	-6784
爵士	-6785
特例	-6786
犯错	-6787
现今	-6788
生育	-6789
用处	-6790
电线	-6791
疑惑	-6792
痴迷	-6793
的热	-6794
的脸	-6795
的苏	-6796
盯着	-6797
直径	-6798
看下	-6799
短期	-6800
硬件	-6801
社群	-6802
称呼	-6803
移到	-6804
窗口	-6805
竞赛	-6806
等级	-6807
经理	-6808
给它	-6809
缩小	-6810
网膜	-6811
群岛	-6812
翻转	-6813
胳膊	-6814
能为	-6815
脑部	-6816
膝盖	-6817
虐待	-6818
蚁群	-6819
蜻蜓	-6820
补充	-6821
被问	-6822
装备	-6823
装饰	-6824
要多	-6825
视野	-6826
触摸	-6827
认出	-6828
论点	-6829
诗人	-6830
说谎	-6831
诺顿	-6832
财政	-6833
资产	-6834
走过	-6835
起床	-6836
越南	-6837
输出	-6838
运算	-6839
这对	-6840
追溯	-6841
造就	-6842
闪光	-6843
阐述	-6844
阿尔	-6845
雨水	-6846
鞋子	-6847
题目	-6848
颠覆	-6849
马达	-6850
黑色	-6851
---	-6852
700	-6853
90%	-6854
▁他也	-6855
▁他就	-6856
▁但却	-6857
▁但那	-6858
▁使得	-6859
▁再次	-6860
▁刚才	-6861
▁即便	-6862
▁只能	-6863
▁就能	-6864
▁并不	-6865
▁建造	-6866
▁战争	-6867
▁掌声	-6868
▁曾经	-6869
▁此时	-6870
▁汽车	-6871
▁用于	-6872
▁用来	-6873
▁第四	-6874
▁红色	-6875
▁自由	-6876
▁至今	-6877
▁解决	-6878
▁谷歌	-6879
▁这点	-6880
▁这类	-6881
▁那种	-6882
▁重新	-6883
▁音乐	-6884
一本书	-6885
上帝的	-6886
为一个	-6887
亿美金	-6888
什么事	-6889
从我们	-6890
停车场	-6891
几分钟	-6892
创造出	-6893
到现在	-6894
参与了	-6895
发明的	-6896
因为你	-6897
基础的	-6898
外星人	-6899
大小的	-6900
大气层	-6901
奇妙的	-6902
好莱坞	-6903
如此的	-6904
孩子在	-6905
它没有	-6906
对称性	-6907
年代的	-6908
幸福的	-6909
幸运的	-6910
开始在	-6911
张图片	-6912
当中的	-6913
很好奇	-6914
思考的	-6915
我们只	-6916
我刚才	-6917
我总是	-6918
我所说	-6919
我看到	-6920
或者说	-6921
投资者	-6922
撒哈拉	-6923
放弃了	-6924
是一项	-6925
是否能	-6926
是相当	-6927
更容易	-6928
有力的	-6929
来完成	-6930
栖息地	-6931
样东西	-6932
死亡的	-6933
比我们	-6934
没办法	-6935
生命中	-6936
用这种	-6937
白色的	-6938
的一段	-6939
的人物	-6940
的使用	-6941
的决定	-6942
的基因	-6943
的家伙	-6944
的所有	-6945
的改变	-6946
的病人	-6947
的蚂蚁	-6948
的音乐	-6949
知道它	-6950
网站上	-6951
网络上	-6952
自身的	-6953
英尺高	-6954
视网膜	-6955
证明了	-6956
诞生了	-6957
谁知道	-6958
谈的是	-6959
转移到	-6960
这个是	-6961
这些事	-6962
那一刻	-6963
长时间	-6964
问自己	-6965
非常棒	-6966
2007	-6967
arry	-6968
▁于是他	-6969
▁但是他	-6970
▁你甚至	-6971
▁几个月	-6972
▁只需要	-6973
▁因为在	-6974
▁在某些	-6975
▁地球上	-6976
▁就像是	-6977
▁我从没	-6978
▁我们又	-6979
▁我们让	-6980
▁我回答	-6981
▁我感到	-6982
▁我把它	-6983
▁我是在	-6984
▁我来自	-6985
▁看到了	-6986
▁而且我	-6987
▁这时候	-6988
▁这本书	-6989
▁这正是	-6990
▁那是个	-6991
▁那是在	-6992
一个非常	-6993
一点都不	-6994
他们都是	-6995
任何地方	-6996
全世界的	-6997
其他地方	-6998
刚刚开始	-6999
创造一个	-7000
变成一个	-7001
可以改变	-7002
哥伦比亚	-7003
唯一一个	-7004
它们可以	-7005
完全不同	-7006
展示一些	-7007
并不需要	-7008
很多人都	-7009
我在这里	-7010
所看到的	-7011
更进一步	-7012
现实世界	-7013
的人来说	-7014
看看这些	-7015
经济增长	-7016
维基百科	-7017
还有什么	-7018
这些地方	-7019
这是我们	-7020
都是如此	-7021
量子力学	-7022
▁与此同时	-7023
▁他们希望	-7024
▁但如果你	-7025
▁你们可能	-7026
▁你会看到	-7027
▁在我看来	-7028
▁如果你们	-7029
▁我们不会	-7030
▁我们真的	-7031
▁毫无疑问	-7032
▁现在让我	-7033
▁这里有个	-7034
什么都没有	-7035
做些什么呢	-7036
到底是什么	-7037
很好的例子	-7038
我们的工作	-7039
我最喜欢的	-7040
所有的东西	-7041
有什么关系	-7042
让我们看看	-7043
是怎么做到的	-7044
23	-7045
4%	-7046
7%	-7047
:「	-7048
?」	-7049
ey	-7050
ik	-7051
ip	-7052
ou	-7053
ue	-7054
▁U	-7055
▁丹	-7056
▁丽	-7057
▁内	-7058
▁双	-7059
▁富	-7060
▁干	-7061
▁曾	-7062
▁笑	-7063
▁花	-7064
▁萨	-7065
▁讲	-7066
一副	-7067
一口	-7068
一所	-7069
一无	-7070
一试	-7071
万个	-7072
上方	-7073
与否	-7074
与我	-7075
东京	-7076
两位	-7077
中学	-7078
了他	-7079
了她	-7080
事故	-7081
二战	-7082
交叉	-7083
亿的	-7084
以往	-7085
会想	-7086
伤心	-7087
似的	-7088
供给	-7089
信条	-7090
做事	-7091
充电	-7092
克林	-7093
入口	-7094
全都	-7095
准则	-7096
分割	-7097
创业	-7098
创立	-7099
初期	-7100
到三	-7101
到这	-7102
前沿	-7103
加尔	-7104
加工	-7105
动词	-7106
匿名	-7107
千米	-7108
南亚	-7109
占领	-7110
原谅	-7111
变形	-7112
叫声	-7113
叫我	-7114
吃饭	-7115
吉他	-7116
后院	-7117
四周	-7118
国防	-7119
在她	-7120
在家	-7121
坏的	-7122
多元	-7123
头痛	-7124
姆斯	-7125
子宫	-7126
子弹	-7127
学了	-7128
它不	-7129
安慰	-7130
安置	-7131
官方	-7132
家们	-7133
容器	-7134
密集	-7135
导师	-7136
封信	-7137
将是	-7138
少了	-7139
尔德	-7140
尔特	-7141
尖端	-7142
就好	-7143
尽力	-7144
局面	-7145
山羊	-7146
山顶	-7147
巧妙	-7148
巴嫩	-7149
巴胺	-7150
布什	-7151
幅画	-7152
年中	-7153
幼儿	-7154
广播	-7155
库里	-7156
底下	-7157
底层	-7158
庞大	-7159
废物	-7160
开着	-7161
强壮	-7162
得好	-7163
微博	-7164
患上	-7165
情景	-7166
想让	-7167
愉悦	-7168
成效	-7169
我做	-7170
我该	-7171
扔掉	-7172
把戏	-7173
拍照	-7174
拜托	-7175
提前	-7176
搜寻	-7177
摇滚	-7178
支柱	-7179
放置	-7180
故障	-7181
散步	-7182
斯卡	-7183
旋律	-7184
无疑	-7185
早的	-7186
时尚	-7187
普及	-7188
更深	-7189
曼达	-7190
最不	-7191
最佳	-7192
最多	-7193
最爱	-7194
最难	-7195
本能	-7196
机动	-7197
杀手	-7198
条腿	-7199
杰明	-7200
林匹	-7201
枪支	-7202
桌上	-7203
检验	-7204
比你	-7205
毫不	-7206
气味	-7207
水源	-7208
沙丘	-7209
活力	-7210
添加	-7211
清理	-7212
温暖	-7213
游客	-7214
演说	-7215
点上	-7216
爱上	-7217
牛顿	-7218
牡蛎	-7219
特兰	-7220
生殖	-7221
用品	-7222
甲烷	-7223
画家	-7224
的总	-7225
监禁	-7226
直线	-7227
看成	-7228
破碎	-7229
穿上	-7230
类型	-7231
线路	-7232
缺失	-7233
聊聊	-7234
职责	-7235
肖像	-7236
肥皂	-7237
自发	-7238
艘船	-7239
节约	-7240
芥末	-7241
草原	-7242
蛋糕	-7243
血压	-7244
触动	-7245
触及	-7246
讯息	-7247
设法	-7248
说起	-7249
读过	-7250
谨慎	-7251
赛车	-7252
走来	-7253
路线	-7254
轻松	-7255
过头	-7256
还挺	-7257
迷人	-7258
通讯	-7259
那只	-7260
野外	-7261
野生	-7262
长寿	-7263
问道	-7264
降到	-7265
难度	-7266
零件	-7267
非得	-7268
顾问	-7269
飞过	-7270
餐馆	-7271
饥荒	-7272
骨架	-7273
高效	-7274
魔力	-7275
鳄鱼	-7276
bed	-7277
▁不断	-7278
▁产生	-7279
▁从此	-7280
▁但不	-7281
▁你把	-7282
▁多么	-7283
▁好像	-7284
▁学校	-7285
▁实际	-7286
▁导致	-7287
▁帕特	-7288
▁建立	-7289
▁控制	-7290
▁格林	-7291
▁照片	-7292
▁病人	-7293
▁让它	-7294
▁试着	-7295
▁这可	-7296
▁那样	-7297
一个月	-7298
一个有	-7299
一句话	-7300
一点儿	-7301
一生中	-7302
上百万	-7303
不了的	-7304
不是么	-7305
不是我	-7306
不那么	-7307
了你的	-7308
他们也	-7309
价值的	-7310
会得到	-7311
你是谁	-7312
使用了	-7313
六个月	-7314
几乎是	-7315
到我们	-7316
华尔街	-7317
卡梅隆	-7318
印度人	-7319
原因是	-7320
大型的	-7321
委员会	-7322
它们就	-7323
将这些	-7324
就是要	-7325
层面上	-7326
年之后	-7327
很可能	-7328
很高的	-7329
忘记了	-7330
想一想	-7331
想象力	-7332
成功地	-7333
我们再	-7334
我感到	-7335
我父亲	-7336
打交道	-7337
找一个	-7338
抗生素	-7339
持续的	-7340
排放量	-7341
接着说	-7342
方法是	-7343
星球上	-7344
是一张	-7345
是个很	-7346
是时候	-7347
是这些	-7348
暗物质	-7349
曼德拉	-7350
有这种	-7351
机器的	-7352
来源于	-7353
构成的	-7354
物种的	-7355
现实的	-7356
用的是	-7357
痛苦的	-7358
的主意	-7359
的出现	-7360
的发生	-7361
的女孩	-7362
的女性	-7363
的学校	-7364
的小孩	-7365
的平均	-7366
的情形	-7367
的来源	-7368
的状况	-7369
的眼睛	-7370
的观众	-7371
的证据	-7372
的选择	-7373
种类的	-7374
空间里	-7375
纪录片	-7376
经济学	-7377
给一个	-7378
绝对是	-7379
综合症	-7380
能做到	-7381
要知道	-7382
觉得这	-7383
认真的	-7384
达到了	-7385
这两种	-7386
这个的	-7387
这句话	-7388
遇到的	-7389
那些人	-7390
那首诗	-7391
重要性	-7392
降低了	-7393
黄色的	-7394
黎巴嫩	-7395
1500	-7396
▁主持人	-7397
▁人们在	-7398
▁他们能	-7399
▁但是她	-7400
▁你们的	-7401
▁你们能	-7402
▁你开始	-7403
▁大自然	-7404
▁它们的	-7405
▁安德森	-7406
▁就可以	-7407
▁意味着	-7408
▁我们很	-7409
▁我们称	-7410
▁我应该	-7411
▁我打算	-7412
▁我无法	-7413
▁我正在	-7414
▁有一种	-7415
▁第一次	-7416
▁第二天	-7417
▁这使得	-7418
▁这其中	-7419
▁这是他	-7420
▁这都是	-7421
▁那么这	-7422
一些问题	-7423
一件事情	-7424
不是为了	-7425
也是一样	-7426
你就可以	-7427
其中的一	-7428
在我们的	-7429
大脑皮层	-7430
大部分人	-7431
就是这个	-7432
息息相关	-7433
我们决定	-7434
我们认为	-7435
我的朋友	-7436
有自己的	-7437
根本没有	-7438
温室气体	-7439
看到这个	-7440
给你一个	-7441
绝大多数	-7442
解决办法	-7443
认为这是	-7444
诸如此类	-7445
那么简单	-7446
那是一个	-7447
重新定义	-7448
阿拉伯语	-7449
需要的是	-7450
▁为什么呢	-7451
▁他们开始	-7452
▁但是我想	-7453
▁但是现在	-7454
▁你可以从	-7455
▁另一方面	-7456
▁因为这个	-7457
▁因为这是	-7458
▁大家知道	-7459
▁好消息是	-7460
▁它实际上	-7461
▁我一直在	-7462
▁我们不想	-7463
▁我们确实	-7464
▁我很高兴	-7465
▁没有任何	-7466
▁这个想法	-7467
▁这些就是	-7468
▁那么现在	-7469
▁问题在于	-7470
准备好了吗	-7471
在座的各位	-7472
我们所做的	-7473
是很重要的	-7474
给你们看看	-7475
越来越多的	-7476
这就是我的	-7477
问题的答案	-7478
▁Chris	-7479
▁David	-7480
▁你可以想象	-7481
▁我希望你们	-7482
▁这是我们在	-7483
▁顺便说一下	-7484
.)	-7485
2.	-7486
55	-7487
?”	-7488
CE	-7489
HI	-7490
RI	-7491
ag	-7492
by	-7493
ck	-7494
▁七	-7495
▁便	-7496
▁八	-7497
▁嘿	-7498
▁成	-7499
▁按	-7500
▁画	-7501
▁红	-7502
▁莱	-7503
▁连	-7504
一同	-7505
一对	-7506
三天	-7507
三点	-7508
不不	-7509
不得	-7510
不清	-7511
不良	-7512
两天	-7513
也将	-7514
人权	-7515
介入	-7516
从没	-7517
代谢	-7518
会是	-7519
但却	-7520
位数	-7521
体育	-7522
俱乐	-7523
内战	-7524
再做	-7525
冠军	-7526
减速	-7527
出口	-7528
创办	-7529
到你	-7530
前往	-7531
前提	-7532
加快	-7533
助于	-7534
半个	-7535
南部	-7536
博弈	-7537
占据	-7538
卡片	-7539
卢旺	-7540
去到	-7541
发掘	-7542
受益	-7543
可口	-7544
吃一	-7545
员们	-7546
呼吁	-7547
哥哥	-7548
善良	-7549
喜悦	-7550
噩梦	-7551
图形	-7552
圆形	-7553
在意	-7554
场上	-7555
场合	-7556
大西	-7557
太高	-7558
奇的	-7559
奏效	-7560
女权	-7561
女生	-7562
她是	-7563
妥协	-7564
嫉妒	-7565
孙子	-7566
密的	-7567
对他	-7568
将在	-7569
小组	-7570
就算	-7571
岛素	-7572
巨型	-7573
布朗	-7574
带走	-7575
干达	-7576
年人	-7577
应付	-7578
度假	-7579
异的	-7580
彩票	-7581
很强	-7582
很远	-7583
得通	-7584
心态	-7585
心机	-7586
性质	-7587
总共	-7588
恻隐	-7589
悬浮	-7590
想问	-7591
意想	-7592
意愿	-7593
战胜	-7594
戴着	-7595
打赌	-7596
扭转	-7597
把她	-7598
把握	-7599
把钱	-7600
投影	-7601
指向	-7602
排序	-7603
推断	-7604
推销	-7605
支出	-7606
放松	-7607
斯科	-7608
无可	-7609
日光	-7610
景观	-7611
更快	-7612
最低	-7613
服从	-7614
本人	-7615
杰特	-7616
构想	-7617
根除	-7618
格拉	-7619
梅尔	-7620
棍子	-7621
概括	-7622
模因	-7623
歌手	-7624
武装	-7625
母语	-7626
比方	-7627
水面	-7628
沉浸	-7629
泄露	-7630
海军	-7631
海豹	-7632
灌输	-7633
牧师	-7634
独裁	-7635
狮子	-7636
猜猜	-7637
环节	-7638
理工	-7639
生病	-7640
用电	-7641
的光	-7642
的老	-7643
皮革	-7644
监控	-7645
直升	-7646
真空	-7647
破解	-7648
硬币	-7649
确认	-7650
祝福	-7651
积木	-7652
空的	-7653
立方	-7654
等同	-7655
等式	-7656
简化	-7657
粉色	-7658
紧紧	-7659
累积	-7660
约束	-7661
考古	-7662
脚趾	-7663
脸上	-7664
自愿	-7665
荒唐	-7666
萨斯	-7667
落在	-7668
蜡烛	-7669
蜣螂	-7670
街区	-7671
表述	-7672
认可	-7673
访谈	-7674
语音	-7675
说得	-7676
请求	-7677
课题	-7678
跳过	-7679
车上	-7680
车里	-7681
载荷	-7682
这事	-7683
逃跑	-7684
通信	-7685
遇见	-7686
遥远	-7687
遭到	-7688
避孕	-7689
酒吧	-7690
酷的	-7691
采集	-7692
隔离	-7693
集合	-7694
青年	-7695
预计	-7696
领悟	-7697
马尔	-7698
马路	-7699
高级	-7700
197	-7701
2.5	-7702
911	-7703
?""	-7704
org	-7705
wit	-7706
▁30	-7707
▁99	-7708
▁一起	-7709
▁不可	-7710
▁之前	-7711
▁也会	-7712
▁了解	-7713
▁但她	-7714
▁儿童	-7715
▁公共	-7716
▁具有	-7717
▁原来	-7718
▁各种	-7719
▁工作	-7720
▁带着	-7721
▁情况	-7722
▁我刚	-7723
▁我真	-7724
▁手机	-7725
▁新的	-7726
▁既然	-7727
▁比尔	-7728
▁理解	-7729
▁电话	-7730
▁相信	-7731
▁西方	-7732
▁记录	-7733
▁请问	-7734
▁这和	-7735
上大学	-7736
不会被	-7737
不公平	-7738
不怎么	-7739
也是个	-7740
了一家	-7741
了一条	-7742
以上的	-7743
会让你	-7744
使用它	-7745
使用者	-7746
关系的	-7747
内心的	-7748
写了一	-7749
创造性	-7750
制造出	-7751
副作用	-7752
加拿大	-7753
动物园	-7754
包含了	-7755
卢旺达	-7756
原始的	-7757
去寻找	-7758
发出的	-7759
可以说	-7760
听上去	-7761
围绕着	-7762
固定的	-7763
圣保罗	-7764
学生们	-7765
寄生虫	-7766
对我的	-7767
尝试着	-7768
就好了	-7769
就是你	-7770
工作者	-7771
广泛的	-7772
弦理论	-7773
当他们	-7774
当时在	-7775
感应器	-7776
我之前	-7777
我怎么	-7778
我感觉	-7779
我而言	-7780
或者是	-7781
所需的	-7782
打破了	-7783
接触到	-7784
摄影师	-7785
方法来	-7786
无线电	-7787
是一场	-7788
更好地	-7789
曾经是	-7790
有不同	-7791
有问题	-7792
服务器	-7793
来到了	-7794
正是我	-7795
潜水器	-7796
灵长类	-7797
牛仔裤	-7798
玩游戏	-7799
的中心	-7800
的任务	-7801
的努力	-7802
的目的	-7803
的角色	-7804
的边缘	-7805
的这些	-7806
的颜色	-7807
看到我	-7808
研究生	-7809
等一下	-7810
系统中	-7811
经历的	-7812
给你看	-7813
肯定会	-7814
胰岛素	-7815
莱杰特	-7816
行得通	-7817
解决的	-7818
让这些	-7819
说的话	-7820
说这些	-7821
跟我说	-7822
这一个	-7823
这些都	-7824
进行着	-7825
都是在	-7826
银河系	-7827
长大的	-7828
飞行员	-7829
麦克风	-7830
-2-3	-7831
1960	-7832
aceb	-7833
athr	-7834
▁不同的	-7835
▁他认为	-7836
▁你们中	-7837
▁你如何	-7838
▁克莱顿	-7839
▁大家看	-7840
▁它已经	-7841
▁我不再	-7842
▁我们做	-7843
▁我们和	-7844
▁我去了	-7845
▁我自己	-7846
▁所以它	-7847
▁是非常	-7848
▁更多的	-7849
▁有许多	-7850
▁比方说	-7851
▁相当于	-7852
▁这可是	-7853
▁这可能	-7854
▁这并不	-7855
▁这张图	-7856
▁这样做	-7857
▁这的确	-7858
▁这真是	-7859
▁这让我	-7860
▁那么在	-7861
一样东西	-7862
不同寻常	-7863
不是那么	-7864
也是这样	-7865
些什么呢	-7866
什么意思	-7867
令人吃惊	-7868
令人惊奇	-7869
做的一个	-7870
其实就是	-7871
再生能源	-7872
几个小时	-7873
参与其中	-7874
喜欢这个	-7875
在我看来	-7876
它是如何	-7877
对于我们	-7878
对我们的	-7879
展示的是	-7880
应用程序	-7881
很多东西	-7882
我们人类	-7883
我的观点	-7884
所有人的	-7885
所需要的	-7886
找到一个	-7887
日常生活	-7888
是什么样	-7889
是最好的	-7890
是错误的	-7891
最基本的	-7892
有不同的	-7893
有了一个	-7894
核磁共振	-7895
每天都在	-7896
热带雨林	-7897
电子邮件	-7898
电视节目	-7899
的机器人	-7900
目前为止	-7901
看到一些	-7902
科学研究	-7903
许许多多	-7904
这一切都	-7905
这么简单	-7906
这意味着	-7907
那个时候	-7908
都是这样	-7909
erson	-7910
▁为什么要	-7911
▁事实证明	-7912
▁他们喜欢	-7913
▁他们没有	-7914
▁但这不是	-7915
▁我不确定	-7916
▁接下来的	-7917
▁无论如何	-7918
▁然后我想	-7919
▁谢谢你们	-7920
▁还有一些	-7921
▁还有很多	-7922
▁这是一只	-7923
▁这是他们	-7924
▁那个时候	-7925
不同的地方	-7926
其中的一些	-7927
前所未有的	-7928
同样的事情	-7929
埃塞俄比亚	-7930
完全不知道	-7931
并没有什么	-7932
我们为什么	-7933
我们就可以	-7934
有什么影响	-7935
解决的问题	-7936
非常有意思	-7937
athryn	-7938
witter	-7939
▁但是我认为	-7940
▁你可以把它	-7941
▁我们并不是	-7942
▁我希望大家	-7943
▁这里有一个	-7944
世界上最大的	-7945
很长一段时间	-7946
acebook	-7947
▁我们可以看到	-7948
▁Kathryn	-7949
29	-7950
3.	-7951
46	-7952
CD	-7953
ah	-7954
ak	-7955
cy	-7956
ie	-7957
▁万	-7958
▁仍	-7959
▁另	-7960
▁吃	-7961
▁整	-7962
▁热	-7963
▁种	-7964
▁装	-7965
▁谢	-7966
▁走	-7967
▁达	-7968
一模	-7969
一路	-7970
上周	-7971
上班	-7972
上看	-7973
上角	-7974
下角	-7975
不信	-7976
不然	-7977
不着	-7978
丢失	-7979
两倍	-7980
主人	-7981
举起	-7982
之地	-7983
乐谱	-7984
乐高	-7985
书呆	-7986
买了	-7987
乳房	-7988
了的	-7989
二的	-7990
二进	-7991
交给	-7992
产卵	-7993
介意	-7994
付诸	-7995
众所	-7996
会把	-7997
作曲	-7998
修改	-7999
候选	-8000
停留	-8001
克拉	-8002
入了	-8003
八个	-8004
公交	-8005
公正	-8006
公路	-8007
再也	-8008
写道	-8009
几何	-8010
利他	-8011
前行	-8012
剑桥	-8013
加仑	-8014
加纳	-8015
医药	-8016
十一	-8017
协助	-8018
压迫	-8019
厘米	-8020
厚的	-8021
原油	-8022
去掉	-8023
去见	-8024
反而	-8025
发起	-8026
古典	-8027
古怪	-8028
只用	-8029
可归	-8030
可真	-8031
同伴	-8032
呆了	-8033
命名	-8034
哥们	-8035
唱片	-8036
四种	-8037
图上	-8038
土耳	-8039
在看	-8040
地震	-8041
塔利	-8042
多于	-8043
大事	-8044
大使	-8045
失业	-8046
头骨	-8047
她就	-8048
存储	-8049
守护	-8050
宣扬	-8051
容忍	-8052
察觉	-8053
射线	-8054
将被	-8055
尊严	-8056
尊敬	-8057
小镇	-8058
尔兰	-8059
尖叫	-8060
就得	-8061
巴勒	-8062
巴士	-8063
巴尔	-8064
带了	-8065
平凡	-8066
年半	-8067
并没	-8068
废弃	-8069
廉价	-8070
开采	-8071
引领	-8072
当成	-8073
很低	-8074
微粒	-8075
性爱	-8076
恰当	-8077
恶意	-8078
悄悄	-8079
悬崖	-8080
情的	-8081
感动	-8082
我为	-8083
我先	-8084
我已	-8085
所要	-8086
手稿	-8087
手表	-8088
拿来	-8089
指望	-8090
排名	-8091
接到	-8092
提及	-8093
提琴	-8094
收音	-8095
斯林	-8096
斯顿	-8097
新型	-8098
旅途	-8099
旅馆	-8100
是这	-8101
暂停	-8102
更像	-8103
更少	-8104
替换	-8105
朝着	-8106
木偶	-8107
机率	-8108
杀掉	-8109
来回	-8110
极大	-8111
构思	-8112
林肯	-8113
树林	-8114
核聚	-8115
格伦	-8116
格雷	-8117
橡胶	-8118
次方	-8119
欧嘞	-8120
歌唱	-8121
毒的	-8122
水母	-8123
永久	-8124
治愈	-8125
洪都	-8126
消化	-8127
渠道	-8128
滚动	-8129
激活	-8130
烈的	-8131
热的	-8132
爱好	-8133
瓶子	-8134
电击	-8135
电源	-8136
界的	-8137
病例	-8138
的多	-8139
目光	-8140
看做	-8141
着你	-8142
短暂	-8143
短短	-8144
碰撞	-8145
积分	-8146
积累	-8147
突触	-8148
笨蛋	-8149
第五	-8150
箱子	-8151
类比	-8152
精华	-8153
终身	-8154
维的	-8155
编程	-8156
聚焦	-8157
脉冲	-8158
腿上	-8159
般的	-8160
花在	-8161
薄膜	-8162
西亚	-8163
要把	-8164
要问	-8165
讲起	-8166
评价	-8167
误导	-8168
账户	-8169
起到	-8170
越好	-8171
路口	-8172
路易	-8173
辉煌	-8174
这首	-8175
远处	-8176
追逐	-8177
通往	-8178
造型	-8179
遗产	-8180
遵守	-8181
那张	-8182
醒来	-8183
重力	-8184
针头	-8185
长得	-8186
阴谋	-8187
阶级	-8188
限于	-8189
除非	-8190
隐喻	-8191
霍华	-8192
额外	-8193
颠倒	-8194
飞跃	-8195
马丁	-8196
高峰	-8197
黑帮	-8198
黑桃	-8199
800	-8200
ony	-8201
▁12	-8202
▁JA	-8203
▁SJ	-8204
▁WK	-8205
▁一定	-8206
▁一次	-8207
▁个人	-8208
▁举例	-8209
▁人的	-8210
▁他还	-8211
▁但最	-8212
▁你从	-8213
▁公司	-8214
▁几年	-8215
▁创新	-8216
▁动物	-8217
▁医院	-8218
▁太阳	-8219
▁妇女	-8220
▁它就	-8221
▁它还	-8222
▁宗教	-8223
▁工业	-8224
▁并非	-8225
▁恐惧	-8226
▁我敢	-8227
▁我称	-8228
▁数字	-8229
▁文化	-8230
▁相比	-8231
▁究竟	-8232
▁而非	-8233
▁要是	-8234
▁身体	-8235
▁这又	-8236
▁这块	-8237
▁这才	-8238
▁进化	-8239
▁连接	-8240
▁都会	-8241
▁重点	-8242
。。。	-8243
一般的	-8244
一起去	-8245
一起来	-8246
下面的	-8247
不一定	-8248
也可能	-8249
也非常	-8250
五十万	-8251
人们会	-8252
从我的	-8253
他们不	-8254
任何事	-8255
众所周	-8256
会变成	-8257
会如何	-8258
你认为	-8259
做很多	-8260
儿童的	-8261
刚开始	-8262
利用它	-8263
到我的	-8264
北极熊	-8265
医学院	-8266
去世了	-8267
去研究	-8268
吸引力	-8269
和朋友	-8270
哪一个	-8271
回到家	-8272
国家都	-8273
土耳其	-8274
在某些	-8275
在空中	-8276
城市中	-8277
处理器	-8278
天花板	-8279
奥林匹	-8280
她们的	-8281
学习的	-8282
它们都	-8283
实际的	-8284
家可归	-8285
导致了	-8286
就是个	-8287
就行了	-8288
屋子里	-8289
崭新的	-8290
左边的	-8291
布鲁诺	-8292
带你们	-8293
年左右	-8294
年开始	-8295
建筑物	-8296
开始做	-8297
当我们	-8298
很擅长	-8299
很有用	-8300
微小的	-8301
德里安	-8302
想办法	-8303
我也是	-8304
我们很	-8305
我并不	-8306
我把它	-8307
把所有	-8308
担心的	-8309
数据库	-8310
数据的	-8311
数量的	-8312
文化中	-8313
新加坡	-8314
昂贵的	-8315
是一只	-8316
是不可	-8317
是否有	-8318
显示的	-8319
普通人	-8320
智慧的	-8321
更像是	-8322
更糟糕	-8323
更高的	-8324
最近的	-8325
有任何	-8326
来说说	-8327
核武器	-8328
段视频	-8329
母亲的	-8330
每小时	-8331
沃尔玛	-8332
海洋中	-8333
深刻的	-8334
热衷于	-8335
版本的	-8336
现在就	-8337
现有的	-8338
理查德	-8339
电脑上	-8340
的一生	-8341
的人民	-8342
的人群	-8343
的会议	-8344
的家庭	-8345
的广告	-8346
的态度	-8347
的最后	-8348
的物种	-8349
的状态	-8350
的真实	-8351
的答案	-8352
的细胞	-8353
的苏茜	-8354
的需求	-8355
相应的	-8356
看一看	-8357
看到过	-8358
真正地	-8359
确实有	-8360
社会中	-8361
穆斯林	-8362
纽约客	-8363
组织的	-8364
给它们	-8365
老师的	-8366
自我的	-8367
艺术的	-8368
芥末酱	-8369
英国的	-8370
英尺的	-8371
表现出	-8372
被用来	-8373
要做的	-8374
观察到	-8375
让你的	-8376
说一句	-8377
请你们	-8378
请大家	-8379
起来的	-8380
达到的	-8381
运行的	-8382
这一代	-8383
这张图	-8384
这都是	-8385
透明的	-8386
通常会	-8387
那么做	-8388
那以后	-8389
那是个	-8390
部分是	-8391
都是由	-8392
银行家	-8393
闻起来	-8394
面临的	-8395
飞行的	-8396
食物的	-8397
高科技	-8398
黑眼睛	-8399
2008	-8400
usan	-8401
▁乌尔曼	-8402
▁事实是	-8403
▁他们将	-8404
▁他正在	-8405
▁你或许	-8406
▁你是否	-8407
▁其实是	-8408
▁刚开始	-8409
▁同时也	-8410
▁在一个	-8411
▁在印度	-8412
▁当人们	-8413
▁想想看	-8414
▁我们只	-8415
▁我只想	-8416
▁我母亲	-8417
▁我看见	-8418
▁更好的	-8419
▁最好的	-8420
▁有人说	-8421
▁特别是	-8422
▁现在是	-8423
▁第一条	-8424
▁这可以	-8425
▁这说明	-8426
▁那是我	-8427
▁首先是	-8428
一些关于	-8429
一张照片	-8430
临床试验	-8431
也是一个	-8432
任何人都	-8433
伊斯兰教	-8434
你为什么	-8435
你的生活	-8436
你的眼睛	-8437
做到这些	-8438
做这件事	-8439
全球变暖	-8440
几乎没有	-8441
办公室里	-8442
发生什么	-8443
变得非常	-8444
另外一种	-8445
告诉你的	-8446
在这方面	-8447
地球上的	-8448
基本上是	-8449
大不了的	-8450
大规模的	-8451
完成这个	-8452
就是我的	-8453
就是那个	-8454
巴勒斯坦	-8455
并不重要	-8456
开始思考	-8457
很有可能	-8458
怎么处理	-8459
意义上的	-8460
我们喜欢	-8461
我们希望	-8462
我们无法	-8463
改变我们	-8464
方法就是	-8465
无处不在	-8466
显示的是	-8467
最简单的	-8468
有很多人	-8469
没有办法	-8470
洪都拉斯	-8471
爱因斯坦	-8472
的事情是	-8473
的大部分	-8474
的过程中	-8475
知道如何	-8476
矮黑猩猩	-8477
社会问题	-8478
职业生涯	-8479
让我们的	-8480
购物中心	-8481
这并不是	-8482
遗憾的是	-8483
非常困难	-8484
非常大的	-8485
非洲国家	-8486
高尔夫球	-8487
▁2008	-8488
▁于是我就	-8489
▁今天我想	-8490
▁今天我要	-8491
▁他们正在	-8492
▁他们觉得	-8493
▁作为一名	-8494
▁你也许会	-8495
▁你知道吗	-8496
▁因为它们	-8497
▁因此他们	-8498
▁如果你的	-8499
▁它们都是	-8500
▁就是这个	-8501
▁我们今天	-8502
▁我们并不	-8503
▁我们相信	-8504
▁我的父亲	-8505
▁所以我的	-8506
▁然后我说	-8507
▁第一个是	-8508
▁让我们再	-8509
▁这也就是	-8510
▁这些问题	-8511
▁这是一些	-8512
▁那是因为	-8513
不可避免的	-8514
我们的孩子	-8515
改变我们的	-8516
▁于是我决定	-8517
▁在座的各位	-8518
▁大家都知道	-8519
▁我从来没有	-8520
▁我们为什么	-8521
▁我们实际上	-8522
▁我们每个人	-8523
▁这就是他们	-8524
▁这就是我想	-8525
是一个巨大的	-8526
黑眼睛的苏茜	-8527
Twitter	-8528
33	-8529
48	-8530
49	-8531
BA	-8532
In	-8533
MP	-8534
hi	-8535
▁云	-8536
▁佛	-8537
▁信	-8538
▁分	-8539
▁各	-8540
▁哈	-8541
▁圣	-8542
▁头	-8543
▁带	-8544
▁建	-8545
▁托	-8546
▁早	-8547
▁狗	-8548
▁离	-8549
▁稍	-8550
▁首	-8551
▁香	-8552
一杯	-8553
一谈	-8554
一首	-8555
三千	-8556
不必	-8557
不算	-8558
主宰	-8559
义务	-8560
之力	-8561
之旅	-8562
之道	-8563
书中	-8564
书里	-8565
事先	-8566
五百	-8567
从何	-8568
从前	-8569
会上	-8570
会计	-8571
传承	-8572
传说	-8573
伸展	-8574
但它	-8575
住民	-8576
体型	-8577
体温	-8578
何方	-8579
作的	-8580
修理	-8581
做完	-8582
光学	-8583
光滑	-8584
克利	-8585
再去	-8586
再说	-8587
写到	-8588
冰块	-8589
冷冻	-8590
几位	-8591
几点	-8592
出门	-8593
切割	-8594
列举	-8595
制成	-8596
剧场	-8597
加以	-8598
加密	-8599
匹马	-8600
升高	-8601
半径	-8602
协会	-8603
协同	-8604
卖给	-8605
叙事	-8606
同学	-8607
名单	-8608
向他	-8609
向的	-8610
听着	-8611
听见	-8612
和人	-8613
响应	-8614
喂养	-8615
嘈杂	-8616
四点	-8617
国王	-8618
土著	-8619
地是	-8620
坚守	-8621
培育	-8622
塔尔	-8623
处方	-8624
大幅	-8625
天使	-8626
天后	-8627
奉献	-8628
奋斗	-8629
奥克	-8630
始于	-8631
娜塔	-8632
字塔	-8633
宏观	-8634
实例	-8635
审查	-8636
客观	-8637
宪法	-8638
容纳	-8639
对么	-8640
对应	-8641
导航	-8642
尔巴	-8643
就业	-8644
就说	-8645
尸体	-8646
尼克	-8647
岁那	-8648
岛屿	-8649
崛起	-8650
工艺	-8651
干吗	-8652
干活	-8653
干燥	-8654
年间	-8655
幻肢	-8656
幼虫	-8657
广阔	-8658
床上	-8659
康恩	-8660
引人	-8661
强制	-8662
彗星	-8663
形势	-8664
彩色	-8665
得上	-8666
快要	-8667
总在	-8668
总理	-8669
恶劣	-8670
悲观	-8671
情报	-8672
想在	-8673
感冒	-8674
懂的	-8675
我用	-8676
我这	-8677
房里	-8678
手腕	-8679
打败	-8680
托邦	-8681
批准	-8682
承载	-8683
报酬	-8684
振动	-8685
捐助	-8686
捕鱼	-8687
接纳	-8688
提倡	-8689
揭示	-8690
搞定	-8691
摩尔	-8692
摩托	-8693
摩擦	-8694
摩西	-8695
放慢	-8696
政客	-8697
故意	-8698
教的	-8699
教科	-8700
新生	-8701
无穷	-8702
日期	-8703
星体	-8704
春天	-8705
是为	-8706
是全	-8707
是指	-8708
暗示	-8709
更能	-8710
有六	-8711
有四	-8712
服装	-8713
朝鲜	-8714
木材	-8715
杀戮	-8716
来吧	-8717
来找	-8718
杯子	-8719
栅栏	-8720
棕榈	-8721
次了	-8722
欢呼	-8723
正要	-8724
步伐	-8725
每秒	-8726
比利	-8727
比起	-8728
气温	-8729
水和	-8730
沙滩	-8731
活在	-8732
派对	-8733
测序	-8734
混淆	-8735
演变	-8736
演唱	-8737
澄清	-8738
灌木	-8739
热量	-8740
版的	-8741
特人	-8742
生来	-8743
用手	-8744
用过	-8745
电磁	-8746
男女	-8747
男生	-8748
留意	-8749
白天	-8750
的外	-8751
的美	-8752
的门	-8753
盖茨	-8754
相处	-8755
看它	-8756
短说	-8757
砍伐	-8758
碰巧	-8759
立马	-8760
端的	-8761
紧要	-8762
线索	-8763
细微	-8764
绳索	-8765
老虎	-8766
耶稣	-8767
联盟	-8768
胚胎	-8769
胞胎	-8770
脊椎	-8771
航行	-8772
船长	-8773
艰苦	-8774
艾滋	-8775
节省	-8776
菜单	-8777
葬礼	-8778
蒙特	-8779
藻类	-8780
虚构	-8781
蚁穴	-8782
蟑螂	-8783
行道	-8784
试了	-8785
询问	-8786
读了	-8787
谈起	-8788
贝拉	-8789
质的	-8790
走廊	-8791
起飞	-8792
足迹	-8793
跨国	-8794
跳伞	-8795
身处	-8796
转身	-8797
轻轻	-8798
辅导	-8799
辨识	-8800
还很	-8801
追寻	-8802
透了	-8803
逮捕	-8804
道歉	-8805
都用	-8806
配置	-8807
重组	-8808
钱的	-8809
铁路	-8810
长达	-8811
阴茎	-8812
降雨	-8813
陷阱	-8814
隧道	-8815
震荡	-8816
频繁	-8817
饼干	-8818
驱使	-8819
120	-8820
GPS	-8821
HIV	-8822
har	-8823
▁40	-8824
▁一点	-8825
▁三个	-8826
▁不然	-8827
▁乔治	-8828
▁亨利	-8829
▁他用	-8830
▁你再	-8831
▁你还	-8832
▁保持	-8833
▁信息	-8834
▁做出	-8835
▁充满	-8836
▁历史	-8837
▁压力	-8838
▁反而	-8839
▁哪里	-8840
▁在于	-8841
▁基因	-8842
▁她是	-8843
▁对吗	-8844
▁带来	-8845
▁心理	-8846
▁我为	-8847
▁我这	-8848
▁手指	-8849
▁打开	-8850
▁探索	-8851
▁支持	-8852
▁放在	-8853
▁是被	-8854
▁有了	-8855
▁每一	-8856
▁永远	-8857
▁治疗	-8858
▁理论	-8859
▁生物	-8860
▁电子	-8861
▁男孩	-8862
▁癌症	-8863
▁看着	-8864
▁神经	-8865
▁给予	-8866
▁考虑	-8867
▁试图	-8868
▁请看	-8869
▁身为	-8870
▁进入	-8871
▁那儿	-8872
▁项目	-8873
▁马特	-8874
▁鼓掌	-8875
一个很	-8876
一些事	-8877
一点的	-8878
一百万	-8879
一首诗	-8880
不停的	-8881
不够的	-8882
不明白	-8883
不是说	-8884
不相信	-8885
世上最	-8886
东西的	-8887
个世纪	-8888
丰富的	-8889
之后的	-8890
了一名	-8891
了这种	-8892
仍然是	-8893
他们所	-8894
代表了	-8895
以至于	-8896
体会到	-8897
你不会	-8898
你是在	-8899
你真的	-8900
例子是	-8901
做了个	-8902
做成的	-8903
停止了	-8904
全球性	-8905
关键是	-8906
几十年	-8907
出生于	-8908
到底是	-8909
力量的	-8910
加起来	-8911
动起来	-8912
原住民	-8913
去理解	-8914
反应堆	-8915
反应是	-8916
变化的	-8917
可爱的	-8918
史上最	-8919
吉尼亚	-8920
向他们	-8921
和别人	-8922
和工作	-8923
和这些	-8924
在很多	-8925
地图上	-8926
城市里	-8927
增长的	-8928
多数人	-8929
多样化	-8930
大学里	-8931
大脑里	-8932
大街上	-8933
大西洋	-8934
天之后	-8935
天然的	-8936
女人的	-8937
好奇心	-8938
如此之	-8939
学生的	-8940
家庭的	-8941
小女孩	-8942
居住在	-8943
年以来	-8944
幼儿园	-8945
开始吧	-8946
弄清楚	-8947
影响的	-8948
很强的	-8949
快速的	-8950
想到的	-8951
我只能	-8952
我想说	-8953
我有点	-8954
我甚至	-8955
我的天	-8956
我要去	-8957
房子里	-8958
把他的	-8959
抑郁症	-8960
拿到了	-8961
方式来	-8962
早期的	-8963
时间了	-8964
时间来	-8965
明确的	-8966
是美国	-8967
暴力的	-8968
最喜欢	-8969
有一半	-8970
有多么	-8971
有非常	-8972
机会去	-8973
来说明	-8974
核聚变	-8975
比这个	-8976
民主的	-8977
流行的	-8978
片状物	-8979
电视台	-8980
电视机	-8981
男人们	-8982
留下了	-8983
百上千	-8984
的一位	-8985
的一员	-8986
的一次	-8987
的人数	-8988
的人都	-8989
的场景	-8990
的女人	-8991
的安全	-8992
的情绪	-8993
的最大	-8994
的来说	-8995
的能量	-8996
的艺术	-8997
的食物	-8998
看电视	-8999
看这些	-9000
真实性	-9001
知道他	-9002
石油的	-9003
离心机	-9004
稳定的	-9005
空间的	-9006
第一步	-9007
等同于	-9008
米特里	-9009
精彩的	-9010
经济体	-9011
结婚了	-9012
翻译成	-9013
老师们	-9014
脆弱的	-9015
花费了	-9016
被我们	-9017
被用于	-9018
见过的	-9019
解释了	-9020
让我的	-9021
超过了	-9022
跟他们	-9023
过很多	-9024
这种事	-9025
这首歌	-9026
迷人的	-9027
通常是	-9028
那不是	-9029
那部分	-9030
都需要	-9031
金字塔	-9032
问题呢	-9033
问题就	-9034
霍华德	-9035
非政府	-9036
颜色的	-9037
食物链	-9038
饮用水	-9039
马拉松	-9040
..."	-9041
2005	-9042
2009	-9043
4000	-9044
▁100	-9045
▁And	-9046
▁一个人	-9047
▁下一步	-9048
▁不仅仅	-9049
▁不知道	-9050
▁伟大的	-9051
▁你会说	-9052
▁可以说	-9053
▁史蒂夫	-9054
▁如果有	-9055
▁学生们	-9056
▁它只是	-9057
▁对不起	-9058
▁当时的	-9059
▁很简单	-9060
▁很高兴	-9061
▁德里克	-9062
▁我之前	-9063
▁我们为	-9064
▁我想以	-9065
▁我看着	-9066
▁有什么	-9067
▁有没有	-9068
▁然后它	-9069
▁然后就	-9070
▁然后把	-9071
▁特斯拉	-9072
▁第二点	-9073
▁让他们	-9074
▁还记得	-9075
▁这也许	-9076
▁这些都	-9077
▁这是你	-9078
一开始就	-9079
不会发生	-9080
不是这样	-9081
两个星期	-9082
之一就是	-9083
他们需要	-9084
令人振奋	-9085
会怎样呢	-9086
你也可以	-9087
你的身体	-9088
你能看到	-9089
免疫系统	-9090
出乎意料	-9091
创作过程	-9092
到我们的	-9093
原始细胞	-9094
又是如何	-9095
可以说是	-9096
在一起的	-9097
在做什么	-9098
坐在那里	-9099
墨西哥湾	-9100
多样性的	-9101
完全可以	-9102
就是这么	-9103
已经成为	-9104
带给我们	-9105
恻隐之心	-9106
我们不会	-9107
我们今天	-9108
我们将会	-9109
我们想要	-9110
我是一个	-9111
所以我们	-9112
拉丁美洲	-9113
整个过程	-9114
新的东西	-9115
更多的钱	-9116
根本无法	-9117
演示一下	-9118
百分之百	-9119
的方式来	-9120
的时候了	-9121
看上去像	-9122
着我们的	-9123
精神分裂	-9124
给我们的	-9125
统计数据	-9126
聪明的人	-9127
能够改变	-9128
西方国家	-9129
让孩子们	-9130
这个国家	-9131
这个概念	-9132
这么认为	-9133
这张图片	-9134
这是不是	-9135
这种事情	-9136
这种状况	-9137
这种现象	-9138
连接起来	-9139
那是什么	-9140
随处可见	-9141
▁2000	-9142
▁不管怎样	-9143
▁今天我们	-9144
▁他们不会	-9145
▁他们会说	-9146
▁他们已经	-9147
▁他们知道	-9148
▁他们都是	-9149
▁但是它们	-9150
▁你可以把	-9151
▁可以看到	-9152
▁它们可以	-9153
▁尽管如此	-9154
▁当然还有	-9155
▁我不认为	-9156
▁我们决定	-9157
▁我们经常	-9158
▁我们首先	-9159
▁所以这些	-9160
▁没有一个	-9161
▁现在这个	-9162
▁而且他们	-9163
▁而我们的	-9164
▁而这就是	-9165
▁让我们来	-9166
▁还有其他	-9167
▁这些孩子	-9168
▁这听起来	-9169
▁这是一项	-9170
你所看到的	-9171
同样的问题	-9172
就是这样的	-9173
并不意味着	-9174
我们都知道	-9175
改变世界的	-9176
给你们展示	-9177
艺术博物馆	-9178
让我们回到	-9179
这是我们的	-9180
▁你可以看见	-9181
▁因为我们的	-9182
▁我们发现了	-9183
▁我们可以用	-9184
▁这就是一个	-9185
▁这张照片是	-9186
▁那么为什么	-9187
发生了什么呢	-9188
是什么样子的	-9189
▁我们需要一个	-9190
▁所以这是一个	-9191
▁现在我们可以	-9192
-4	-9193
1%	-9194
1/	-9195
2:	-9196
42	-9197
4:	-9198
59	-9199
:“	-9200
AT	-9201
GM	-9202
ep	-9203
ro	-9204
ve	-9205
▁X	-9206
▁于	-9207
▁停	-9208
▁凯	-9209
▁取	-9210
▁后	-9211
▁周	-9212
▁塞	-9213
▁外	-9214
▁归	-9215
▁未	-9216
▁某	-9217
▁穿	-9218
▁简	-9219
▁索	-9220
▁里	-9221
一会	-9222
一动	-9223
一番	-9224
一眼	-9225
三倍	-9226
上加	-9227
上海	-9228
上演	-9229
上述	-9230
不住	-9231
不容	-9232
不开	-9233
不敢	-9234
不自	-9235
世了	-9236
两千	-9237
中了	-9238
中被	-9239
中风	-9240
为他	-9241
丽莎	-9242
乘坐	-9243
乙醇	-9244
也被	-9245
习俗	-9246
了你	-9247
了四	-9248
二号	-9249
产量	-9250
人家	-9251
人脑	-9252
从头	-9253
从而	-9254
伏特	-9255
优点	-9256
传授	-9257
伯拉	-9258
但你	-9259
何处	-9260
作了	-9261
你还	-9262
你都	-9263
侵略	-9264
保佑	-9265
修斯	-9266
候风	-9267
停下	-9268
先从	-9269
光照	-9270
共识	-9271
关爱	-9272
养育	-9273
内疚	-9274
冰层	-9275
冲浪	-9276
分支	-9277
分歧	-9278
切换	-9279
列车	-9280
删除	-9281
到那	-9282
制品	-9283
加强	-9284
十个	-9285
十八	-9286
南方	-9287
卡罗	-9288
压抑	-9289
原料	-9290
又有	-9291
又说	-9292
双方	-9293
反驳	-9294
取出	-9295
受损	-9296
受过	-9297
古巴	-9298
可怜	-9299
合并	-9300
名称	-9301
后会	-9302
吓人	-9303
否定	-9304
听从	-9305
品种	-9306
哪怕	-9307
商场	-9308
喇嘛	-9309
喝彩	-9310
回归	-9311
图标	-9312
图画	-9313
图的	-9314
图象	-9315
圆柱	-9316
在外	-9317
地址	-9318
坐标	-9319
坦桑	-9320
埔寨	-9321
填充	-9322
多余	-9323
大街	-9324
大麻	-9325
失聪	-9326
头条	-9327
契尼	-9328
奶酪	-9329
好人	-9330
威廉	-9331
婆罗	-9332
婚礼	-9333
字胡	-9334
存的	-9335
学徒	-9336
它有	-9337
容量	-9338
密切	-9339
对着	-9340
封闭	-9341
射击	-9342
将军	-9343
将近	-9344
小猫	-9345
尽头	-9346
尽情	-9347
屋里	-9348
峡谷	-9349
峰顶	-9350
差点	-9351
已被	-9352
巴布	-9353
带你	-9354
带我	-9355
平静	-9356
建成	-9357
弟弟	-9358
张图	-9359
强度	-9360
当的	-9361
待了	-9362
很深	-9363
微小	-9364
性地	-9365
恶心	-9366
我了	-9367
我叫	-9368
我猜	-9369
我跟	-9370
户外	-9371
手上	-9372
手提	-9373
打字	-9374
打造	-9375
抗争	-9376
抬起	-9377
担忧	-9378
按下	-9379
挪威	-9380
损害	-9381
捷径	-9382
探寻	-9383
搜集	-9384
摆动	-9385
放了	-9386
放映	-9387
斯加	-9388
无形	-9389
早餐	-9390
时每	-9391
明星	-9392
星际	-9393
是说	-9394
智商	-9395
暴风	-9396
有力	-9397
有幸	-9398
杀了	-9399
来听	-9400
格陵	-9401
桥梁	-9402
歌曲	-9403
此时	-9404
比特	-9405
气象	-9406
水池	-9407
水泥	-9408
沉迷	-9409
沙发	-9410
没了	-9411
洗手	-9412
洛斯	-9413
流程	-9414
流通	-9415
海湾	-9416
清醒	-9417
滑翔	-9418
漂浮	-9419
潮流	-9420
濒危	-9421
灌溉	-9422
烂的	-9423
牛肉	-9424
物件	-9425
特权	-9426
状的	-9427
狗的	-9428
王子	-9429
玩儿	-9430
现有	-9431
理智	-9432
甘地	-9433
生俱	-9434
电动	-9435
电荷	-9436
的的	-9437
的要	-9438
盲人	-9439
确切	-9440
私营	-9441
穿的	-9442
突出	-9443
立体	-9444
章节	-9445
答应	-9446
筹集	-9447
米的	-9448
粉笔	-9449
粪便	-9450
精细	-9451
素的	-9452
纸张	-9453
线虫	-9454
维亚	-9455
维尔	-9456
罗德	-9457
羞愧	-9458
而然	-9459
肉眼	-9460
背上	-9461
胎儿	-9462
胸部	-9463
能从	-9464
芬奇	-9465
芭蕾	-9466
茶壶	-9467
荒谬	-9468
蒸发	-9469
蚁后	-9470
蛛丝	-9471
融入	-9472
行政	-9473
袋狼	-9474
袋獾	-9475
要么	-9476
见识	-9477
视而	-9478
言论	-9479
言语	-9480
让她	-9481
议员	-9482
词是	-9483
诱惑	-9484
读到	-9485
谁会	-9486
调研	-9487
货物	-9488
资讯	-9489
走的	-9490
赶上	-9491
超出	-9492
跑步	-9493
身高	-9494
躯体	-9495
辅助	-9496
辛苦	-9497
返回	-9498
还真	-9499
迷恋	-9500
逃离	-9501
选的	-9502
选票	-9503
道的	-9504
遥控	-9505
酵母	-9506
重叠	-9507
镜子	-9508
长远	-9509
问过	-9510
问问	-9511
间接	-9512
雕刻	-9513
预言	-9514
领先	-9515
飓风	-9516
饮料	-9517
首都	-9518
高潮	-9519
鸭子	-9520
黄瓜	-9521
黏液	-9522
25%	-9523
50%	-9524
LED	-9525
Ste	-9526
ber	-9527
ows	-9528
ube	-9529
▁60	-9530
▁80	-9531
▁不到	-9532
▁不错	-9533
▁也不	-9534
▁今日	-9535
▁他对	-9536
▁他要	-9537
▁他问	-9538
▁你对	-9539
▁农业	-9540
▁别人	-9541
▁图片	-9542
▁在它	-9543
▁坦白	-9544
▁士兵	-9545
▁天然	-9546
▁女士	-9547
▁安全	-9548
▁寻找	-9549
▁常常	-9550
▁当地	-9551
▁形成	-9552
▁影响	-9553
▁很少	-9554
▁快乐	-9555
▁成功	-9556
▁我一	-9557
▁按照	-9558
▁是对	-9559
▁更加	-9560
▁最好	-9561
▁欢迎	-9562
▁欧洲	-9563
▁比起	-9564
▁游戏	-9565
▁父母	-9566
▁玩乐	-9567
▁电影	-9568
▁病毒	-9569
▁科勒	-9570
▁罗宾	-9571
▁自我	-9572
▁蜘蛛	-9573
▁蜜蜂	-9574
▁这场	-9575
▁这太	-9576
▁这比	-9577
▁那我	-9578
▁采用	-9579
▁飞机	-9580
一直是	-9581
一直都	-9582
万年前	-9583
三百万	-9584
不及待	-9585
不同了	-9586
不同意	-9587
不在乎	-9588
与他人	-9589
与你们	-9590
严肃的	-9591
中只有	-9592
也知道	-9593
也需要	-9594
了一大	-9595
了两个	-9596
了多少	-9597
了过来	-9598
人心的	-9599
人生中	-9600
人群中	-9601
亿人口	-9602
什么也	-9603
什么吗	-9604
仔细看	-9605
他们将	-9606
他们被	-9607
件事是	-9608
会导致	-9609
会带来	-9610
会想到	-9611
伯拉罕	-9612
低成本	-9613
你们会	-9614
供应链	-9615
俱乐部	-9616
做决定	-9617
做实验	-9618
做起来	-9619
先进的	-9620
内部的	-9621
几百万	-9622
分子的	-9623
到最后	-9624
到这个	-9625
制作了	-9626
制成的	-9627
力资源	-9628
努力地	-9629
努力的	-9630
原因的	-9631
去探索	-9632
发电机	-9633
变得很	-9634
另一半	-9635
可行性	-9636
史蒂夫	-9637
同样也	-9638
听我说	-9639
和数据	-9640
在场的	-9641
在工作	-9642
在整个	-9643
在过去	-9644
在里面	-9645
在非洲	-9646
复杂了	-9647
大家的	-9648
大约是	-9649
天晚上	-9650
天然气	-9651
娜塔莎	-9652
季候风	-9653
它就会	-9654
实验中	-9655
将他们	-9656
尽全力	-9657
局限于	-9658
工业化	-9659
巴拉维	-9660
市中心	-9661
平均值	-9662
幸福感	-9663
开始于	-9664
当时的	-9665
彻底的	-9666
很危险	-9667
很好地	-9668
很显然	-9669
很漂亮	-9670
得非常	-9671
怎么去	-9672
慢慢地	-9673
成年人	-9674
我们去	-9675
我们没	-9676
我就能	-9677
我打算	-9678
我曾经	-9679
我说过	-9680
把事情	-9681
提出的	-9682
提高了	-9683
搞清楚	-9684
摄氏度	-9685
收音机	-9686
数百万	-9687
方程式	-9688
无人机	-9689
是错的	-9690
晶体管	-9691
有一位	-9692
有一千	-9693
有一只	-9694
本身就	-9695
来控制	-9696
来解释	-9697
来谈谈	-9698
柬埔寨	-9699
格陵兰	-9700
正在被	-9701
每一位	-9702
涉及到	-9703
游戏中	-9704
激动的	-9705
环境下	-9706
现实中	-9707
理想的	-9708
生产的	-9709
用我的	-9710
的人是	-9711
的危险	-9712
的形状	-9713
的循环	-9714
的恐惧	-9715
的数字	-9716
的案例	-9717
的理由	-9718
的电影	-9719
的电话	-9720
的空气	-9721
的设备	-9722
的那样	-9723
的需要	-9724
盒子里	-9725
直升机	-9726
相反的	-9727
看得见	-9728
真是太	-9729
真正想	-9730
知道了	-9731
科医生	-9732
第一位	-9733
简单地	-9734
系统是	-9735
结果是	-9736
美国和	-9737
而且是	-9738
脑海里	-9739
自由的	-9740
舞台上	-9741
莱斯特	-9742
被发现	-9743
被认为	-9744
规模的	-9745
许多的	-9746
话短说	-9747
该怎样	-9748
诺贝尔	-9749
谈一谈	-9750
谈到了	-9751
走过去	-9752
走过来	-9753
跟我们	-9754
转折点	-9755
这一刻	-9756
这样说	-9757
这部分	-9758
连接体	-9759
那时起	-9760
那里的	-9761
都不能	-9762
都会有	-9763
里面的	-9764
银行业	-9765
集中在	-9766
需要有	-9767
非常小	-9768
非零和	-9769
驱动的	-9770
100%	-9771
1970	-9772
▁198	-9773
▁DNA	-9774
▁一旦你	-9775
▁不只是	-9776
▁互联网	-9777
▁仅仅是	-9778
▁今天的	-9779
▁他们很	-9780
▁他当时	-9781
▁但同时	-9782
▁但有些	-9783
▁你无法	-9784
▁剩下的	-9785
▁可能会	-9786
▁和我们	-9787
▁因为她	-9788
▁因此这	-9789
▁在这儿	-9790
▁如果它	-9791
▁它是由	-9792
▁我保证	-9793
▁我其实	-9794
▁我在想	-9795
▁我感觉	-9796
▁我最近	-9797
▁我研究	-9798
▁我还有	-9799
▁我问他	-9800
▁所以她	-9801
▁所谓的	-9802
▁接着我	-9803
▁最大的	-9804
▁有两个	-9805
▁未来的	-9806
▁查尔斯	-9807
▁没什么	-9808
▁现在有	-9809
▁真的是	-9810
▁能不能	-9811
▁还有些	-9812
▁这一次	-9813
▁这一点	-9814
▁这两种	-9815
▁这个词	-9816
▁这便是	-9817
▁这完全	-9818
▁这确实	-9819
一个小时	-9820
一直都在	-9821
三分之二	-9822
不一样了	-9823
世界上的	-9824
也可能是	-9825
了不起的	-9826
亿美元的	-9827
他们如何	-9828
他们来说	-9829
他们的人	-9830
令人惊叹	-9831
众所周知	-9832
你可能会	-9833
做得更好	-9834
像我一样	-9835
公共空间	-9836
再也没有	-9837
几个世纪	-9838
千年发展	-9839
华盛顿特	-9840
同样的事	-9841
告诉人们	-9842
和我一起	-9843
因为它们	-9844
外科手术	-9845
奇怪的是	-9846
奥林匹克	-9847
如何使用	-9848
它是一种	-9849
就会看到	-9850
干什么呢	-9851
得到这些	-9852
怎么办呢	-9853
怎么才能	-9854
怎么知道	-9855
思维方式	-9856
恰恰相反	-9857
我们做的	-9858
我们只是	-9859
我们就要	-9860
我们并不	-9861
我们怎样	-9862
我们把它	-9863
我们来看	-9864
我们真的	-9865
我意识到	-9866
所带来的	-9867
所有事情	-9868
把它放在	-9869
拥有一个	-9870
有很大的	-9871
每个国家	-9872
电话号码	-9873
的地方是	-9874
科学家们	-9875
给孩子们	-9876
自然而然	-9877
视而不见	-9878
让我们来	-9879
该怎么做	-9880
资本主义	-9881
运作方式	-9882
这个机会	-9883
这个游戏	-9884
这个理论	-9885
这个说法	-9886
这么一个	-9887
这些数字	-9888
这样一种	-9889
这样的话	-9890
这种想法	-9891
这种感觉	-9892
这种技术	-9893
这种方法	-9894
迫不及待	-9895
问题所在	-9896
高中毕业	-9897
▁举例来说	-9898
▁也许你会	-9899
▁也许我们	-9900
▁他们真的	-9901
▁你不可能	-9902
▁你们现在	-9903
▁如果你不	-9904
▁如果它们	-9905
▁我不是说	-9906
▁我们可能	-9907
▁我们怎样	-9908
▁我们每天	-9909
▁我们的确	-9910
▁我们觉得	-9911
▁我们通常	-9912
▁我现在要	-9913
▁我称之为	-9914
▁我觉得这	-9915
▁所以它们	-9916
▁艾德里安	-9917
▁这个数字	-9918
▁这些事情	-9919
▁这些是我	-9920
▁这实际上	-9921
▁这是其中	-9922
▁这看起来	-9923
▁那么这些	-9924
不同的东西	-9925
什么也没有	-9926
今天的演讲	-9927
发生的一切	-9928
大家都知道	-9929
太阳能电池	-9930
展示给大家	-9931
巴拉维契尼	-9932
并不是一个	-9933
我们不知道	-9934
我们来看看	-9935
我们要如何	-9936
最重要的是	-9937
有趣的事情	-9938
生活的世界	-9939
的工作方式	-9940
真是太棒了	-9941
笔记本电脑	-9942
这就是我们	-9943
这张幻灯片	-9944
非常简单的	-9945
非政府组织	-9946
面临的挑战	-9947
▁Susan	-9948
▁我们不得不	-9949
▁我们也可以	-9950
▁我们可以在	-9951
▁正如你们所	-9952
▁然后我开始	-9953
回答这个问题	-9954
就是这个样子	-9955
这意味着什么	-9956
▁为什么我们要	-9957
▁于是我们开始	-9958
▁女士们先生们	-9959
▁所以我们必须	-9960
Facebook	-9961
▁德里克巴拉维契尼	-9962
!」	-9963
1,	-9964
1。	-9965
72	-9966
AS	-9967
ch	-9968
▁·	-9969
▁买	-9970
▁出	-9971
▁发	-9972
▁右	-9973
▁哥	-9974
▁嗨	-9975
▁国	-9976
▁戴	-9977
▁时	-9978
▁查	-9979
▁核	-9980
▁梅	-9981
▁沙	-9982
▁活	-9983
▁照	-9984
▁眼	-9985
▁祝	-9986
▁约	-9987
▁纳	-9988
▁纵	-9989
▁肯	-9990
▁胡	-9991
▁行	-9992
▁迪	-9993
▁风	-9994
一团	-9995
一的	-9996
一股	-9997
一角	-9998
七十	-9999
万能	-10000
三百	-10001
上传	-10002
上映	-10003
上过	-10004
下方	-10005
不动	-10006
丢掉	-10007
两半	-10008
两百	-10009
两组	-10010
严峻	-10011
个小	-10012
为生	-10013
主席	-10014
丽尔	-10015
举例	-10016
举行	-10017
之上	-10018
也门	-10019
了么	-10020
云彩	-10021
五岁	-10022
交响	-10023
交往	-10024
产出	-10025
产权	-10026
今后	-10027
从小	-10028
从我	-10029
他想	-10030
他有	-10031
代理	-10032
优化	-10033
会做	-10034
传到	-10035
你我	-10036
你真	-10037
侮辱	-10038
便利	-10039
促使	-10040
促成	-10041
信徒	-10042
倒在	-10043
倡导	-10044
债务	-10045
假的	-10046
充斥	-10047
全面	-10048
公斤	-10049
兰经	-10050
兹堡	-10051
养活	-10052
冷的	-10053
出租	-10054
函数	-10055
分数	-10056
分的	-10057
利比	-10058
到此	-10059
前列	-10060
前额	-10061
十月	-10062
华丽	-10063
却在	-10064
去除	-10065
发酵	-10066
发音	-10067
古代	-10068
只在	-10069
只想	-10070
可言	-10071
台湾	-10072
吃掉	-10073
同等	-10074
名人	-10075
听觉	-10076
和的	-10077
品质	-10078
哭泣	-10079
唱歌	-10080
喜好	-10081
嘴巴	-10082
四月	-10083
因子	-10084
土卫	-10085
圣战	-10086
圣母	-10087
在场	-10088
场地	-10089
城镇	-10090
堵塞	-10091
复活	-10092
夏威	-10093
外婆	-10094
多远	-10095
大于	-10096
大战	-10097
失控	-10098
头部	-10099
奥运	-10100
女王	-10101
好笑	-10102
如下	-10103
子女	-10104
子是	-10105
孤立	-10106
它又	-10107
它呢	-10108
它将	-10109
完好	-10110
宝石	-10111
实的	-10112
实说	-10113
宠物	-10114
宣言	-10115
宪章	-10116
对撞	-10117
导演	-10118
将此	-10119
小了	-10120
就很	-10121
尼尔	-10122
山谷	-10123
崇拜	-10124
巨人	-10125
巨星	-10126
布拉	-10127
常态	-10128
常识	-10129
平滑	-10130
延长	-10131
建的	-10132
开口	-10133
张牌	-10134
录制	-10135
往前	-10136
德克	-10137
德尔	-10138
忧郁	-10139
快感	-10140
快点	-10141
思索	-10142
怪物	-10143
总体	-10144
恐慌	-10145
恶化	-10146
想成	-10147
想看	-10148
成品	-10149
所知	-10150
才华	-10151
才有	-10152
打了	-10153
找个	-10154
找的	-10155
抉择	-10156
抚养	-10157
抢劫	-10158
拍了	-10159
拜访	-10160
拥堵	-10161
拼命	-10162
捐献	-10163
捕捞	-10164
排队	-10165
接口	-10166
推出	-10167
揭露	-10168
搞得	-10169
搞砸	-10170
摄取	-10171
摔跤	-10172
撰写	-10173
敏捷	-10174
救助	-10175
文盲	-10176
施加	-10177
旁观	-10178
无神	-10179
无视	-10180
明的	-10181
昏迷	-10182
是中	-10183
是能	-10184
晚了	-10185
更具	-10186
最小	-10187
木头	-10188
杠杆	-10189
条路	-10190
杰克	-10191
柏林	-10192
树上	-10193
树枝	-10194
树的	-10195
根廷	-10196
欢乐	-10197
死刑	-10198
死后	-10199
母牛	-10200
每日	-10201
水果	-10202
没能	-10203
沸腾	-10204
法语	-10205
波斯	-10206
注视	-10207
流传	-10208
流体	-10209
深信	-10210
源自	-10211
滑稽	-10212
火灾	-10213
灾害	-10214
焦点	-10215
照相	-10216
熄灭	-10217
爱人	-10218
片子	-10219
牧羊	-10220
特勒	-10221
狩猎	-10222
狱警	-10223
玩的	-10224
现金	-10225
珍珠	-10226
琳达	-10227
生成	-10228
生机	-10229
用作	-10230
由此	-10231
画廊	-10232
界线	-10233
登陆	-10234
的很	-10235
的我	-10236
的模	-10237
的风	-10238
盲目	-10239
相片	-10240
眼中	-10241
眼里	-10242
着了	-10243
示威	-10244
神殿	-10245
祷告	-10246
秋天	-10247
科幻	-10248
空调	-10249
童话	-10250
等的	-10251
答道	-10252
策划	-10253
粉丝	-10254
糖果	-10255
红的	-10256
纸板	-10257
线条	-10258
经费	-10259
结晶	-10260
绕着	-10261
给人	-10262
维和	-10263
维多	-10264
罪行	-10265
置身	-10266
考验	-10267
者中	-10268
而去	-10269
而知	-10270
而被	-10271
耗费	-10272
耳机	-10273
肚子	-10274
肺癌	-10275
肾脏	-10276
胡子	-10277
能做	-10278
能被	-10279
脑电	-10280
脚步	-10281
脸书	-10282
船只	-10283
艰巨	-10284
艾米	-10285
节食	-10286
莎士	-10287
营利	-10288
萧条	-10289
萨拉	-10290
蠕虫	-10291
行驶	-10292
表皮	-10293
被人	-10294
规矩	-10295
规范	-10296
视线	-10297
言之	-10298
计时	-10299
认的	-10300
议程	-10301
记载	-10302
诠释	-10303
语法	-10304
说唱	-10305
谁能	-10306
质数	-10307
赛鲁	-10308
赞同	-10309
走近	-10310
起始	-10311
起诉	-10312
身后	-10313
躲避	-10314
转的	-10315
边上	-10316
边形	-10317
过得	-10318
过着	-10319
近了	-10320
还未	-10321
这三	-10322
这不	-10323
这可	-10324
这真	-10325
远程	-10326
迷你	-10327
遗忘	-10328
邮箱	-10329
都行	-10330
酒精	-10331
野心	-10332
钥匙	-10333
钱包	-10334
锻炼	-10335
阶层	-10336
阻力	-10337
降临	-10338
降解	-10339
陨石	-10340
隐形	-10341
隔绝	-10342
雅图	-10343
雕像	-10344
震网	-10345
霍乱	-10346
非法	-10347
面团	-10348
面孔	-10349
音量	-10350
顶上	-10351
顶峰	-10352
风车	-10353
首要	-10354
髋骨	-10355
魔法	-10356
鸟儿	-10357
鸡蛋	-10358
鸽子	-10359
龄化	-10360
30%	-10361
Fur	-10362
ian	-10363
ich	-10364
ico	-10365
ing	-10366
ran	-10367
▁70	-10368
▁CO	-10369
▁HG	-10370
▁LG	-10371
▁MO	-10372
▁人口	-10373
▁今晚	-10374
▁仍然	-10375
▁以下	-10376
▁但请	-10377
▁保护	-10378
▁保罗	-10379
▁值得	-10380
▁停止	-10381
▁像我	-10382
▁全部	-10383
▁再来	-10384
▁再过	-10385
▁军队	-10386
▁则是	-10387
▁刚刚	-10388
▁到达	-10389
▁参加	-10390
▁发展	-10391
▁可惜	-10392
▁坐在	-10393
▁基本	-10394
▁大多	-10395
▁天哪	-10396
▁女声	-10397
▁如同	-10398
▁它与	-10399
▁展示	-10400
▁当他	-10401
▁当她	-10402
▁我去	-10403
▁我受	-10404
▁手术	-10405
▁整整	-10406
▁方法	-10407
▁无线	-10408
▁日本	-10409
▁是吧	-10410
▁最初	-10411
▁有一	-10412
▁有关	-10413
▁正好	-10414
▁死于	-10415
▁毫无	-10416
▁琼斯	-10417
▁盖瑞	-10418
▁穷人	-10419
▁经常	-10420
▁绝对	-10421
▁统计	-10422
▁自从	-10423
▁艾米	-10424
▁要么	-10425
▁观察	-10426
▁解释	-10427
▁计算	-10428
▁贝索	-10429
▁还要	-10430
▁这两	-10431
▁阅读	-10432
一些小	-10433
一半的	-10434
一整天	-10435
一致的	-10436
一辈子	-10437
三十年	-10438
三年前	-10439
上世纪	-10440
下来了	-10441
下降了	-10442
不会再	-10443
不会是	-10444
与生俱	-10445
中国人	-10446
为此而	-10447
乌干达	-10448
书呆子	-10449
了出来	-10450
了整个	-10451
了解了	-10452
亿年前	-10453
从这个	-10454
从这些	-10455
他们很	-10456
他没有	-10457
以一种	-10458
件好事	-10459
会不会	-10460
会出现	-10461
会觉得	-10462
传染病	-10463
但是它	-10464
体系的	-10465
作出了	-10466
你们在	-10467
你的手	-10468
例子中	-10469
保守派	-10470
允许我	-10471
共同的	-10472
关注的	-10473
关闭了	-10474
内在的	-10475
再回到	-10476
出色的	-10477
到哪里	-10478
匹兹堡	-10479
医生和	-10480
医院的	-10481
印度河	-10482
去学习	-10483
去思考	-10484
去那里	-10485
参与者	-10486
又如何	-10487
反过来	-10488
发明家	-10489
取下来	-10490
只是想	-10491
可以去	-10492
可以有	-10493
可能有	-10494
可视化	-10495
和其它	-10496
和平的	-10497
回答说	-10498
因如此	-10499
因此而	-10500
在其中	-10501
在墙上	-10502
在网上	-10503
在艺术	-10504
基督徒	-10505
基贝拉	-10506
夏威夷	-10507
多大的	-10508
多巴胺	-10509
大吃一	-10510
大学生	-10511
大屠杀	-10512
太大的	-10513
失败者	-10514
奥巴马	-10515
女朋友	-10516
好像是	-10517
学家们	-10518
它们在	-10519
完全不	-10520
实在太	-10521
实实在	-10522
实用的	-10523
对未来	-10524
对自己	-10525
将来的	-10526
尝试过	-10527
就好像	-10528
岁那年	-10529
希望能	-10530
平等的	-10531
应用在	-10532
应该有	-10533
引发了	-10534
很久了	-10535
很小的	-10536
很快的	-10537
很聪明	-10538
微积分	-10539
德修斯	-10540
性行为	-10541
总是很	-10542
想什么	-10543
想法和	-10544
感到很	-10545
慢慢的	-10546
成这样	-10547
成长的	-10548
我妈妈	-10549
我将要	-10550
我就会	-10551
我就想	-10552
我爸爸	-10553
我确实	-10554
所用的	-10555
才开始	-10556
才知道	-10557
打开了	-10558
把东西	-10559
把椅子	-10560
提到了	-10561
提到过	-10562
搬到了	-10563
数十亿	-10564
新势力	-10565
方式的	-10566
无能为	-10567
时间里	-10568
是基于	-10569
是好的	-10570
最新的	-10571
最棒的	-10572
有一台	-10573
有一次	-10574
有希望	-10575
有能力	-10576
来描述	-10577
来结束	-10578
来解决	-10579
植物的	-10580
橄榄球	-10581
死去的	-10582
每一天	-10583
永久的	-10584
海洋的	-10585
清楚地	-10586
灭绝了	-10587
热爱的	-10588
熟悉的	-10589
熟知的	-10590
爱尔兰	-10591
物体的	-10592
生命体	-10593
生态圈	-10594
用什么	-10595
用这些	-10596
男性的	-10597
癌细胞	-10598
百分比	-10599
的一年	-10600
的事了	-10601
的全部	-10602
的功能	-10603
的动作	-10604
的地区	-10605
的增长	-10606
的定义	-10607
的成分	-10608
的材料	-10609
的植物	-10610
的海洋	-10611
的温度	-10612
的现象	-10613
的真正	-10614
的经验	-10615
的表面	-10616
的认识	-10617
的身体	-10618
的那种	-10619
监狱里	-10620
目标的	-10621
目的是	-10622
看得到	-10623
研究所	-10624
种不同	-10625
简直是	-10626
绝不会	-10627
罕见的	-10628
联系的	-10629
脑震荡	-10630
苏格兰	-10631
英国人	-10632
被诊断	-10633
解剖学	-10634
詹姆斯	-10635
让一个	-10636
负责任	-10637
赛鲁士	-10638
转化为	-10639
过时了	-10640
过来的	-10641
还只是	-10642
还是很	-10643
还是有	-10644
还有人	-10645
这一天	-10646
这三个	-10647
这类的	-10648
进化论	-10649
道德的	-10650
那是我	-10651
都是有	-10652
非常难	-10653
1980	-10654
2004	-10655
Tony	-10656
Wind	-10657
▁...	-10658
▁从这个	-10659
▁他们所	-10660
▁他可以	-10661
▁以至于	-10662
▁但其实	-10663
▁但对于	-10664
▁但是那	-10665
▁你不用	-10666
▁你已经	-10667
▁其中的	-10668
▁即使是	-10669
▁只要你	-10670
▁右边的	-10671
▁同样地	-10672
▁唯一的	-10673
▁在他的	-10674
▁在许多	-10675
▁在这一	-10676
▁在那些	-10677
▁坏消息	-10678
▁它们都	-10679
▁它必须	-10680
▁它没有	-10681
▁左边的	-10682
▁布鲁诺	-10683
▁应该是	-10684
▁当它们	-10685
▁当我在	-10686
▁我从来	-10687
▁我们却	-10688
▁我做了	-10689
▁我刚刚	-10690
▁我妈妈	-10691
▁我将要	-10692
▁我就说	-10693
▁我花了	-10694
▁把这些	-10695
▁改变了	-10696
▁有一次	-10697
▁每一天	-10698
▁每一次	-10699
▁每年有	-10700
▁每次我	-10701
▁然后再	-10702
▁现如今	-10703
▁甚至在	-10704
▁甚至是	-10705
▁给我们	-10706
▁而且他	-10707
▁而且它	-10708
▁而那些	-10709
▁艾滋病	-10710
▁请大家	-10711
▁还没有	-10712
▁这句话	-10713
▁这已经	-10714
▁这张是	-10715
▁这真的	-10716
▁这里面	-10717
▁这需要	-10718
一个人的	-10719
一小部分	-10720
一系列的	-10721
一起工作	-10722
了自己的	-10723
亚伯拉罕	-10724
从中学到	-10725
仔细想想	-10726
他的名字	-10727
他自己的	-10728
令人惊讶	-10729
令人震惊	-10730
会怎么样	-10731
你一定要	-10732
你知道的	-10733
做出决定	-10734
做得很好	-10735
全球化的	-10736
关于这些	-10737
其他东西	-10738
凌晨四点	-10739
创造力的	-10740
到处都是	-10741
到处都有	-10742
医疗保健	-10743
变得更好	-10744
另一只手	-10745
另一方面	-10746
可以看见	-10747
合作伙伴	-10748
商业模式	-10749
因为这是	-10750
坐在那儿	-10751
坦桑尼亚	-10752
大自然的	-10753
就在这里	-10754
工作人员	-10755
已经有了	-10756
年轻人的	-10757
并不只是	-10758
弗吉尼亚	-10759
很多时间	-10760
很简单的	-10761
快的速度	-10762
想象中的	-10763
感到非常	-10764
我为什么	-10765
我们就能	-10766
我们怎么	-10767
我的学生	-10768
我的身体	-10769
我第一次	-10770
所发生的	-10771
所有的人	-10772
找到答案	-10773
把注意力	-10774
指数增长	-10775
改变我的	-10776
无家可归	-10777
无能为力	-10778
无论如何	-10779
是一个有	-10780
智能手机	-10781
更多的人	-10782
有所作为	-10783
有趣的事	-10784
某个地方	-10785
每一件事	-10786
没人知道	-10787
现代社会	-10788
生活中的	-10789
相似之处	-10790
竞争对手	-10791
结合起来	-10792
维多利亚	-10793
美国人的	-10794
聚在一起	-10795
莎士比亚	-10796
这个事情	-10797
这个技术	-10798
这个方法	-10799
这么多的	-10800
这是你的	-10801
这项工作	-10802
那个问题	-10803
那些没有	-10804
都不一样	-10805
都是为了	-10806
重新开始	-10807
长什么样	-10808
Furby	-10809
icole	-10810
▁不仅如此	-10811
▁于是我想	-10812
▁人们开始	-10813
▁他们必须	-10814
▁他们想要	-10815
▁但我觉得	-10816
▁其中一些	-10817
▁它看上去	-10818
▁就是这样	-10819
▁总而言之	-10820
▁想象一个	-10821
▁我们人类	-10822
▁我们在这	-10823
▁我们就能	-10824
▁我们曾经	-10825
▁我给大家	-10826
▁所以你们	-10827
▁现在你们	-10828
▁答案就是	-10829
▁结果发现	-10830
▁而实际上	-10831
▁这个作品	-10832
▁这就好像	-10833
▁这就是在	-10834
▁这是一幅	-10835
▁那为什么	-10836
一个简单的	-10837
与众不同的	-10838
做这个实验	-10839
创造了一个	-10840
华盛顿特区	-10841
变成了一个	-10842
可再生能源	-10843
向大家展示	-10844
在世界各地	-10845
开始的时候	-10846
心脏病发作	-10847
成为了一个	-10848
成千上万的	-10849
我从来没有	-10850
我们看到了	-10851
有趣的现象	-10852
根本不知道	-10853
每个人都能	-10854
灵长类动物	-10855
百分之九十	-10856
要做的事情	-10857
这样的例子	-10858
都有自己的	-10859
▁但不幸的是	-10860
▁但是如果你	-10861
▁对于我来说	-10862
▁我们在这里	-10863
▁我们得到了	-10864
▁我们有很多	-10865
▁我们看到了	-10866
▁我们还需要	-10867
▁我对自己说	-10868
▁我知道你们	-10869
▁我认为我们	-10870
▁所以我们就	-10871
▁所以我们的	-10872
▁所以我觉得	-10873
▁某种程度上	-10874
▁让我告诉你	-10875
▁这不是一个	-10876
▁这就是今天	-10877
▁这正是我们	-10878
发生了什么事	-10879
是这个样子的	-10880
生活的一部分	-10881
让我们来看看	-10882
▁Nicole	-10883
▁我们为什么要	-10884
▁我们可以通过	-10885
........	-10886
▁我们生活在一个	-10887
............	-10888
".	-10889
"?	-10890
),	-10891
,5	-10892
38	-10893
57	-10894
76	-10895
78	-10896
AR	-10897
BM	-10898
BP	-10899
CA	-10900
DE	-10901
HC	-10902
IM	-10903
OL	-10904
VD	-10905
ff	-10906
um	-10907
ut	-10908
▁伊	-10909
▁偏	-10910
▁半	-10911
▁宝	-10912
▁希	-10913
▁放	-10914
▁法	-10915
▁环	-10916
▁蓝	-10917
▁解	-10918
▁跳	-10919
▁难	-10920
▁飞	-10921
》,	-10922
一体	-10923
一号	-10924
一时	-10925
一类	-10926
一阵	-10927
七八	-10928
万亿	-10929
上课	-10930
下水	-10931
下车	-10932
不变	-10933
不应	-10934
不曾	-10935
与此	-10936
东欧	-10937
东非	-10938
临时	-10939
为主	-10940
之久	-10941
乐于	-10942
乐手	-10943
书亚	-10944
了几	-10945
争执	-10946
事务	-10947
亚历	-10948
亮了	-10949
人文	-10950
仅有	-10951
仅此	-10952
仍旧	-10953
他又	-10954
他妈	-10955
以南	-10956
们在	-10957
仿真	-10958
伐木	-10959
休假	-10960
会从	-10961
会使	-10962
会去	-10963
会让	-10964
传教	-10965
伤口	-10966
伦理	-10967
伴随	-10968
住院	-10969
体外	-10970
何种	-10971
侵入	-10972
侵蚀	-10973
债券	-10974
偶像	-10975
储备	-10976
储藏	-10977
傻瓜	-10978
光亮	-10979
克夫	-10980
克鲁	-10981
入手	-10982
公元	-10983
关上	-10984
兽医	-10985
内卢	-10986
内裤	-10987
再多	-10988
冰洋	-10989
冷战	-10990
净化	-10991
减轻	-10992
几周	-10993
击败	-10994
分半	-10995
分流	-10996
切除	-10997
制药	-10998
前方	-10999
前途	-11000
办事	-11001
助手	-11002
化氢	-11003
化疗	-11004
午饭	-11005
单单	-11006
卡拉	-11007
卡路	-11008
即可	-11009
压根	-11010
厌倦	-11011
厌恶	-11012
及其	-11013
双鞋	-11014
反正	-11015
变换	-11016
口语	-11017
叫作	-11018
召唤	-11019
可惜	-11020
史上	-11021
同盟	-11022
同行	-11023
名词	-11024
后者	-11025
向后	-11026
君子	-11027
吨的	-11028
吸入	-11029
呆在	-11030
员的	-11031
周末	-11032
周边	-11033
和大	-11034
和蕾	-11035
和解	-11036
咱们	-11037
哈麦	-11038
响了	-11039
商人	-11040
喝酒	-11041
嘲笑	-11042
器和	-11043
噪声	-11044
图解	-11045
土豆	-11046
地做	-11047
地平	-11048
块钱	-11049
坚硬	-11050
坦率	-11051
基石	-11052
塔斯	-11053
填补	-11054
境界	-11055
复合	-11056
复苏	-11057
外国	-11058
多次	-11059
大人	-11060
大奖	-11061
天上	-11062
天线	-11063
太久	-11064
夫人	-11065
女神	-11066
孕育	-11067
孢子	-11068
孩童	-11069
宝贵	-11070
宣称	-11071
害羞	-11072
家的	-11073
家门	-11074
对立	-11075
小小	-11076
小屋	-11077
就想	-11078
就把	-11079
就更	-11080
就象	-11081
尺度	-11082
屈服	-11083
展望	-11084
山大	-11085
岛上	-11086
左手	-11087
市区	-11088
布尔	-11089
常理	-11090
干了	-11091
干的	-11092
平和	-11093
废料	-11094
座位	-11095
座椅	-11096
开场	-11097
引进	-11098
强暴	-11099
当前	-11100
当劳	-11101
录影	-11102
往后	-11103
待在	-11104
得太	-11105
得越	-11106
心智	-11107
忘掉	-11108
怜悯	-11109
急剧	-11110
怪人	-11111
恒温	-11112
恶魔	-11113
悲惨	-11114
惊慌	-11115
我真	-11116
我给	-11117
房租	-11118
手势	-11119
手法	-11120
打扰	-11121
披萨	-11122
抬头	-11123
抵达	-11124
指的	-11125
指责	-11126
捉摸	-11127
捐款	-11128
排在	-11129
排斥	-11130
排的	-11131
排行	-11132
接种	-11133
接管	-11134
推移	-11135
提炼	-11136
插入	-11137
搬到	-11138
摄入	-11139
摔倒	-11140
收购	-11141
政权	-11142
救生	-11143
教导	-11144
散布	-11145
整套	-11146
断了	-11147
新陈	-11148
族人	-11149
无趣	-11150
昨晚	-11151
是非	-11152
普拉	-11153
暗的	-11154
更长	-11155
曾在	-11156
曾被	-11157
曾说	-11158
木星	-11159
木板	-11160
杀人	-11161
杂交	-11162
村民	-11163
村落	-11164
条约	-11165
板块	-11166
果蝇	-11167
枯燥	-11168
架构	-11169
柏拉	-11170
标语	-11171
树立	-11172
校园	-11173
格的	-11174
棒子	-11175
次数	-11176
歌剧	-11177
止境	-11178
比率	-11179
毫秒	-11180
民权	-11181
气管	-11182
沙粒	-11183
沼泽	-11184
波罗	-11185
泥土	-11186
泰国	-11187
洗澡	-11188
流逝	-11189
流量	-11190
浮现	-11191
淡水	-11192
清新	-11193
渔民	-11194
源头	-11195
滥用	-11196
演绎	-11197
潜在	-11198
潜能	-11199
濒临	-11200
灰尘	-11201
灰色	-11202
烤箱	-11203
热点	-11204
然无	-11205
爷爷	-11206
片的	-11207
牠们	-11208
特尔	-11209
特律	-11210
猪的	-11211
瓦西	-11212
画了	-11213
画像	-11214
留给	-11215
疯子	-11216
疲惫	-11217
痕迹	-11218
痢疾	-11219
的初	-11220
的网	-11221
直播	-11222
看我	-11223
真人	-11224
真好	-11225
真心	-11226
眼光	-11227
短的	-11228
破产	-11229
硕士	-11230
禁忌	-11231
离婚	-11232
种群	-11233
稍稍	-11234
突起	-11235
立法	-11236
站着	-11237
笑了	-11238
简易	-11239
算出	-11240
类人	-11241
糊口	-11242
素材	-11243
繁衍	-11244
纹身	-11245
线圈	-11246
绑在	-11247
绝妙	-11248
维修	-11249
罗里	-11250
置于	-11251
置疑	-11252
美人	-11253
群落	-11254
联络	-11255
肉类	-11256
背面	-11257
胜过	-11258
脚下	-11259
脱落	-11260
自从	-11261
自尊	-11262
致敬	-11263
致死	-11264
航天	-11265
节拍	-11266
芬兰	-11267
苦难	-11268
荣誉	-11269
药片	-11270
莱恩	-11271
获益	-11272
薄的	-11273
薪水	-11274
藏着	-11275
蝴蝶	-11276
被动	-11277
被送	-11278
西兰	-11279
西南	-11280
西西	-11281
要好	-11282
觉醒	-11283
警卫	-11284
讲完	-11285
访问	-11286
诚的	-11287
说来	-11288
读取	-11289
课本	-11290
谦卑	-11291
谷物	-11292
财务	-11293
责备	-11294
贯穿	-11295
赚了	-11296
赢家	-11297
起步	-11298
起点	-11299
路德	-11300
躺在	-11301
车库	-11302
轨迹	-11303
转了	-11304
转型	-11305
转过	-11306
轰炸	-11307
轻微	-11308
较为	-11309
辍学	-11310
辨别	-11311
边是	-11312
迁徙	-11313
迄今	-11314
过后	-11315
过渡	-11316
进到	-11317
连线	-11318
迫在	-11319
退出	-11320
选出	-11321
选手	-11322
透过	-11323
途中	-11324
通用	-11325
通道	-11326
道夫	-11327
道而	-11328
避开	-11329
那次	-11330
都市	-11331
里是	-11332
重塑	-11333
铭记	-11334
铸造	-11335
长出	-11336
闪烁	-11337
闭上	-11338
陪伴	-11339
难为	-11340
难了	-11341
难过	-11342
雇主	-11343
雏形	-11344
零下	-11345
非同	-11346
面纱	-11347
音响	-11348
颜料	-11349
风力	-11350
驾驭	-11351
骗子	-11352
高于	-11353
鱼和	-11354
1.5	-11355
15%	-11356
75%	-11357
900	-11358
CEO	-11359
FGM	-11360
MIT	-11361
Mar	-11362
RNA	-11363
anb	-11364
art	-11365
ass	-11366
ice	-11367
ile	-11368
mat	-11369
▁13	-11370
▁25	-11371
▁Al	-11372
▁CP	-11373
▁IM	-11374
▁JH	-11375
▁YR	-11376
▁一名	-11377
▁一条	-11378
▁一样	-11379
▁不像	-11380
▁世上	-11381
▁两者	-11382
▁也能	-11383
▁二十	-11384
▁人均	-11385
▁从中	-11386
▁他想	-11387
▁代表	-11388
▁传播	-11389
▁但要	-11390
▁位于	-11391
▁你可	-11392
▁再看	-11393
▁决定	-11394
▁准备	-11395
▁分享	-11396
▁到处	-11397
▁前面	-11398
▁加纳	-11399
▁南非	-11400
▁变得	-11401
▁听到	-11402
▁和我	-11403
▁哪些	-11404
▁商业	-11405
▁因而	-11406
▁埃隆	-11407
▁基于	-11408
▁塑料	-11409
▁它由	-11410
▁将来	-11411
▁尝试	-11412
▁巴西	-11413
▁当作	-11414
▁当它	-11415
▁录像	-11416
▁彼得	-11417
▁往往	-11418
▁我与	-11419
▁我以	-11420
▁我妈	-11421
▁持续	-11422
▁教师	-11423
▁昨天	-11424
▁是不	-11425
▁有两	-11426
▁机器	-11427
▁植物	-11428
▁母亲	-11429
▁海地	-11430
▁演讲	-11431
▁漫画	-11432
▁生产	-11433
▁直接	-11434
▁相互	-11435
▁等待	-11436
▁等等	-11437
▁系统	-11438
▁给我	-11439
▁而当	-11440
▁而最	-11441
▁花了	-11442
▁苏珊	-11443
▁讨论	-11444
▁让他	-11445
▁让你	-11446
▁路人	-11447
▁还在	-11448
▁这使	-11449
▁这跟	-11450
▁马上	-11451
一天的	-11452
一瞬间	-11453
三件事	-11454
上看到	-11455
不了解	-11456
不出来	-11457
不同于	-11458
不是个	-11459
不是你	-11460
不相同	-11461
不稳定	-11462
不舒服	-11463
不见了	-11464
不适合	-11465
与大家	-11466
与这些	-11467
世界中	-11468
中找到	-11469
为人知	-11470
为这个	-11471
之外的	-11472
习惯于	-11473
了一种	-11474
了一项	-11475
了那些	-11476
五百万	-11477
人与人	-11478
人性化	-11479
人民的	-11480
今天要	-11481
仍然在	-11482
仔细的	-11483
他现在	-11484
以后的	-11485
会看到	-11486
但不是	-11487
位置上	-11488
体现在	-11489
你喜欢	-11490
你将会	-11491
你就是	-11492
便宜的	-11493
做不了	-11494
做事情	-11495
做研究	-11496
全都是	-11497
八字胡	-11498
具体的	-11499
再也不	-11500
准备的	-11501
几秒钟	-11502
别担心	-11503
制造商	-11504
化合物	-11505
十一月	-11506
卫生巾	-11507
去改变	-11508
去看看	-11509
参加了	-11510
又开始	-11511
友好的	-11512
双胞胎	-11513
取代了	-11514
▁	-11515
的	-11516
。	-11517
我	-11518
,	-11519
是	-11520
们	-11521
这	-11522
一	-11523
个	-11524
在	-11525
有	-11526
了	-11527
不	-11528
你	-11529
人	-11530
他	-11531
"	-11532
到	-11533
就	-11534
以	-11535
来	-11536
?	-11537
为	-11538
么	-11539
它	-11540
要	-11541
会	-11542
些	-11543
可	-11544
那	-11545
上	-11546
能	-11547
大	-11548
看	-11549
所	-11550
说	-11551
想	-11552
生	-11553
很	-11554
时	-11555
现	-11556
样	-11557
里	-11558
也	-11559
做	-11560
多	-11561
但	-11562
中	-11563
都	-11564
事	-11565
对	-11566
和	-11567
过	-11568
什	-11569
用	-11570
:	-11571
子	-11572
好	-11573
得	-11574
没	-11575
如	-11576
实	-11577
地	-11578
种	-11579
后	-11580
而	-11581
0	-11582
发	-11583
下	-11584
家	-11585
然	-11586
于	-11587
自	-11588
成	-11589
因	-11590
作	-11591
去	-11592
年	-11593
道	-11594
.	-11595
方	-11596
学	-11597
出	-11598
问	-11599
开	-11600
当	-11601
还	-11602
知	-11603
最	-11604
常	-11605
着	-11606
分	-11607
经	-11608
同	-11609
非	-11610
让	-11611
只	-11612
之	-11613
面	-11614
题	-11615
意	-11616
动	-11617
物	-11618
果	-11619
国	-11620
点	-11621
变	-11622
法	-11623
起	-11624
其	-11625
从	-11626
行	-11627
把	-11628
天	-11629
1	-11630
情	-11631
正	-11632
机	-11633
力	-11634
并	-11635
她	-11636
更	-11637
小	-11638
像	-11639
需	-11640
关	-11641
呢	-11642
被	-11643
前	-11644
性	-11645
真	-11646
此	-11647
重	-11648
数	-11649
感	-11650
间	-11651
工	-11652
给	-11653
理	-11654
体	-11655
始	-11656
者	-11657
全	-11658
进	-11659
美	-11660
西	-11661
世	-11662
将	-11663
部	-11664
何	-11665
定	-11666
相	-11667
吗	-11668
-	-11669
第	-11670
解	-11671
本	-11672
比	-11673
应	-11674
化	-11675
心	-11676
已	-11677
界	-11678
每	-11679
新	-11680
电	-11681
明	-11682
信	-11683
认	-11684
怎	-11685
2	-11686
度	-11687
己	-11688
计	-11689
无	-11690
两	-11691
觉	-11692
东	-11693
手	-11694
回	-11695
候	-11696
系	-11697
类	-11698
活	-11699
特	-11700
片	-11701
接	-11702
次	-11703
制	-11704
孩	-11705
结	-11706
造	-11707
许	-11708
加	-11709
使	-11710
式	-11711
长	-11712
术	-11713
或	-11714
完	-11715
量	-11716
儿	-11717
通	-11718
设	-11719
再	-11720
话	-11721
图	-11722
斯	-11723
与	-11724
吧	-11725
身	-11726
件	-11727
器	-11728
5	-11729
三	-11730
高	-11731
展	-11732
表	-11733
该	-11734
女	-11735
且	-11736
a	-11737
谢	-11738
几	-11739
改	-11740
目	-11741
外	-11742
入	-11743
建	-11744
今	-11745
代	-11746
基	-11747
公	-11748
利	-11749
论	-11750
主	-11751
太	-11752
确	-11753
教	-11754
思	-11755
水	-11756
位	-11757
程	-11758
合	-11759
放	-11760
见	-11761
观	-11762
球	-11763
任	-11764
试	-11765
听	-11766
e	-11767
望	-11768
科	-11769
别	-11770
向	-11771
决	-11772
受	-11773
告	-11774
产	-11775
脑	-11776
讲	-11777
直	-11778
色	-11779
仅	-11780
另	-11781
克	-11782
难	-11783
处	-11784
车	-11785
提	-11786
少	-11787
统	-11788
带	-11789
十	-11790
原	-11791
技	-11792
场	-11793
必	-11794
象	-11795
病	-11796
内	-11797
—	-11798
业	-11799
例	-11800
单	-11801
才	-11802
影	-11803
创	-11804
品	-11805
运	-11806
头	-11807
先	-11808
尔	-11809
平	-11810
示	-11811
3	-11812
找	-11813
故	-11814
究	-11815
名	-11816
9	-11817
研	-11818
音	-11819
乐	-11820
!	-11821
命	-11822
二	-11823
字	-11824
i	-11825
喜	-11826
打	-11827
照	-11828
视	-11829
又	-11830
验	-11831
张	-11832
记	-11833
快	-11834
走	-11835
据	-11836
诉	-11837
保	-11838
万	-11839
拉	-11840
星	-11841
声	-11842
网	-11843
谈	-11844
形	-11845
希	-11846
整	-11847
海	-11848
欢	-11849
存	-11850
演	-11851
边	-11852
义	-11853
区	-11854
神	-11855
o	-11856
市	-11857
简	-11858
够	-11859
4	-11860
模	-11861
组	-11862
文	-11863
气	-11864
由	-11865
总	-11866
等	-11867
越	-11868
传	-11869
叫	-11870
际	-11871
须	-11872
息	-11873
至	-11874
空	-11875
选	-11876
爱	-11877
复	-11878
、	-11879
反	-11880
安	-11881
r	-11882
项	-11883
识	-11884
达	-11885
条	-11886
错	-11887
n	-11888
光	-11889
哪	-11890
各	-11891
算	-11892
战	-11893
马	-11894
社	-11895
期	-11896
切	-11897
花	-11898
奇	-11899
持	-11900
D	-11901
线	-11902
助	-11903
跟	-11904
语	-11905
死	-11906
画	-11907
显	-11908
约	-11909
标	-11910
德	-11911
失	-11912
未	-11913
百	-11914
英	-11915
老	-11916
飞	-11917
型	-11918
趣	-11919
注	-11920
细	-11921
答	-11922
转	-11923
言	-11924
具	-11925
管	-11926
况	-11927
政	-11928
案	-11929
交	-11930
医	-11931
8	-11932
测	-11933
帮	-11934
路	-11935
民	-11936
金	-11937
书	-11938
流	-11939
立	-11940
历	-11941
远	-11942
源	-11943
亚	-11944
口	-11945
月	-11946
极	-11947
步	-11948
众	-11949
消	-11950
收	-11951
·	-11952
资	-11953
质	-11954
7	-11955
A	-11956
四	-11957
6	-11958
首	-11959
师	-11960
白	-11961
请	-11962
)	-11963
指	-11964
称	-11965
联	-11966
(	-11967
士	-11968
段	-11969
住	-11970
考	-11971
亲	-11972
日	-11973
离	-11974
食	-11975
洲	-11976
取	-11977
岁	-11978
钱	-11979
写	-11980
根	-11981
兴	-11982
玩	-11983
男	-11984
却	-11985
响	-11986
环	-11987
刚	-11988
容	-11989
底	-11990
乎	-11991
游	-11992
员	-11993
l	-11994
备	-11995
续	-11996
功	-11997
准	-11998
导	-11999
料	-12000
近	-12001
则	-12002
元	-12003
眼	-12004
母	-12005
T	-12006
强	-12007
领	-12008
治	-12009
争	-12010
角	-12011
共	-12012
及	-12013
构	-12014
效	-12015
某	-12016
印	-12017
习	-12018
城	-12019
速	-12020
格	-12021
节	-12022
概	-12023
笑	-12024
尼	-12025
费	-12026
t	-12027
精	-12028
亿	-12029
室	-12030
司	-12031
证	-12032
谁	-12033
值	-12034
终	-12035
千	-12036
巴	-12037
状	-12038
议	-12039
五	-12040
服	-12041
办	-12042
%	-12043
E	-12044
干	-12045
超	-12046
曾	-12047
黑	-12048
令	-12049
便	-12050
啊	-12051
清	-12052
似	-12053
择	-12054
周	-12055
互	-12056
维	-12057
味	-12058
拿	-12059
易	-12060
境	-12061
深	-12062
s	-12063
引	-12064
价	-12065
层	-12066
布	-12067
念	-12068
甚	-12069
史	-12070
否	-12071
举	-12072
杂	-12073
满	-12074
艺	-12075
装	-12076
随	-12077
绝	-12078
求	-12079
阿	-12080
S	-12081
风	-12082
热	-12083
幸	-12084
育	-12085
吃	-12086
惊	-12087
预	-12088
集	-12089
友	-12090
戏	-12091
济	-12092
台	-12093
移	-12094
素	-12095
症	-12096
置	-12097
参	-12098
控	-12099
态	-12100
断	-12101
险	-12102
微	-12103
报	-12104
止	-12105
半	-12106
房	-12107
调	-12108
规	-12109
包	-12110
群	-12111
护	-12112
假	-12113
激	-12114
停	-12115
拥	-12116
权	-12117
站	-12118
读	-12119
火	-12120
P	-12121
石	-12122
买	-12123
B	-12124
投	-12125
拍	-12126
害	-12127
h	-12128
愿	-12129
即	-12130
门	-12131
往	-12132
域	-12133
增	-12134
米	-12135
刻	-12136
卡	-12137
号	-12138
支	-12139
疗	-12140
待	-12141
差	-12142
词	-12143
鱼	-12144
足	-12145
罗	-12146
林	-12147
密	-12148
连	-12149
录	-12150
棒	-12151
父	-12152
率	-12153
C	-12154
享	-12155
务	-12156
致	-12157
释	-12158
块	-12159
划	-12160
座	-12161
巨	-12162
早	-12163
校	-12164
队	-12165
普	-12166
低	-12167
突	-12168
胞	-12169
除	-12170
寻	-12171
恐	-12172
查	-12173
供	-12174
商	-12175
掌	-12176
轻	-12177
钟	-12178
坐	-12179
索	-12180
毒	-12181
织	-12182
富	-12183
山	-12184
围	-12185
筑	-12186
油	-12187
落	-12188
专	-12189
摄	-12190
院	-12191
推	-12192
击	-12193
景	-12194
朋	-12195
排	-12196
独	-12197
吸	-12198
鼓	-12199
较	-12200
掉	-12201
适	-12202
危	-12203
尽	-12204
土	-12205
纪	-12206
康	-12207
d	-12208
穿	-12209
健	-12210
药	-12211
探	-12212
纸	-12213
M	-12214
N	-12215
困	-12216
获	-12217
团	-12218
纳	-12219
络	-12220
讨	-12221
充	-12222
怕	-12223
u	-12224
降	-12225
列	-12226
坏	-12227
歌	-12228
客	-12229
频	-12230
植	-12231
肯	-12232
;	-12233
久	-12234
广	-12235
杀	-12236
继	-12237
仍	-12238
府	-12239
怪	-12240
晚	-12241
y	-12242
妈	-12243
六	-12244
兰	-12245
尝	-12246
养	-12247
板	-12248
留	-12249
福	-12250
换	-12251
左	-12252
伤	-12253
察	-12254
述	-12255
革	-12256
压	-12257
夫	-12258
短	-12259
份	-12260
播	-12261
疾	-12262
智	-12263
皮	-12264
南	-12265
博	-12266
冰	-12267
舞	-12268
救	-12269
束	-12270
顶	-12271
依	-12272
背	-12273
阳	-12274
责	-12275
严	-12276
右	-12277
癌	-12278
破	-12279
异	-12280
担	-12281
顿	-12282
级	-12283
G	-12284
古	-12285
糟	-12286
误	-12287
势	-12288
永	-12289
温	-12290
亮	-12291
句	-12292
采	-12293
射	-12294
森	-12295
序	-12296
律	-12297
染	-12298
洋	-12299
灯	-12300
灵	-12301
临	-12302
卫	-12303
哈	-12304
核	-12305
限	-12306
亡	-12307
唯	-12308
善	-12309
庭	-12310
积	-12311
键	-12312
北	-12313
波	-12314
c	-12315
虑	-12316
靠	-12317
挑	-12318
农	-12319
暴	-12320
犯	-12321
b	-12322
课	-12323
m	-12324
《	-12325
》	-12326
伊	-12327
努	-12328
军	-12329
宇	-12330
慢	-12331
承	-12332
汽	-12333
码	-12334
减	-12335
败	-12336
R	-12337
升	-12338
树	-12339
牌	-12340
疑	-12341
红	-12342
虫	-12343
典	-12344
宙	-12345
紧	-12346
志	-12347
触	-12348
迷	-12349
丽	-12350
策	-12351
K	-12352
威	-12353
材	-12354
牛	-12355
猩	-12356
J	-12357
童	-12358
梦	-12359
沙	-12360
艾	-12361
跳	-12362
馆	-12363
遇	-12364
八	-12365
哦	-12366
圣	-12367
帝	-12368
户	-12369
介	-12370
奏	-12371
奥	-12372
描	-12373
营	-12374
负	-12375
州	-12376
双	-12377
弹	-12378
曲	-12379
伙	-12380
按	-12381
痛	-12382
练	-12383
I	-12384
木	-12385
免	-12386
剧	-12387
血	-12388
H	-12389
呼	-12390
欧	-12391
坦	-12392
楚	-12393
倍	-12394
怀	-12395
旅	-12396
哥	-12397
居	-12398
版	-12399
贝	-12400
镜	-12401
优	-12402
尺	-12403
纽	-12404
赛	-12405
倒	-12406
闻	-12407
冲	-12408
端	-12409
街	-12410
付	-12411
L	-12412
均	-12413
奋	-12414
媒	-12415
官	-12416
修	-12417
配	-12418
k	-12419
混	-12420
笔	-12421
脏	-12422
顺	-12423
七	-12424
伦	-12425
含	-12426
坚	-12427
局	-12428
施	-12429
洛	-12430
益	-12431
睛	-12432
旧	-12433
般	-12434
嗯	-12435
盖	-12436
苦	-12437
输	-12438
追	-12439
防	-12440
餐	-12441
幅	-12442
罪	-12443
翻	-12444
伯	-12445
蓝	-12446
抗	-12447
族	-12448
础	-12449
暗	-12450
藏	-12451
警	-12452
塔	-12453
妙	-12454
初	-12455
征	-12456
伟	-12457
糕	-12458
送	-12459
毫	-12460
绿	-12461
菌	-12462
阶	-12463
园	-12464
竟	-12465
缺	-12466
肉	-12467
监	-12468
遍	-12469
卖	-12470
睡	-12471
秘	-12472
贫	-12473
软	-12474
属	-12475
患	-12476
塑	-12477
架	-12478
狂	-12479
穷	-12480
企	-12481
幻	-12482
恩	-12483
爸	-12484
编	-12485
屋	-12486
聚	-12487
g	-12488
彩	-12489
河	-12490
酒	-12491
骨	-12492
励	-12493
巧	-12494
惧	-12495
搞	-12496
漫	-12497
班	-12498
弄	-12499
忘	-12500
略	-12501
莱	-12502
衣	-12503
折	-12504
潜	-12505
谷	-12506
F	-12507
华	-12508
盘	-12509
跑	-12510
」	-12511
岛	-12512
范	-12513
训	-12514
圈	-12515
洞	-12516
O	-12517
p	-12518
狗	-12519
猜	-12520
船	-12521
诗	-12522
遗	-12523
龙	-12524
疯	-12525
秒	-12526
奖	-12527
店	-12528
曼	-12529
萨	-12530
麻	-12531
迪	-12532
乱	-12533
捕	-12534
恶	-12535
村	-12536
顾	-12537
麦	-12538
票	-12539
透	-12540
「	-12541
您	-12542
牙	-12543
脱	-12544
丝	-12545
堂	-12546
粉	-12547
隐	-12548
墙	-12549
懂	-12550
蒂	-12551
蛋	-12552
醒	-12553
雨	-12554
楼	-12555
轮	-12556
静	-12557
启	-12558
套	-12559
宝	-12560
脸	-12561
幕	-12562
检	-12563
融	-12564
页	-12565
评	-12566
协	-12567
培	-12568
避	-12569
操	-12570
礼	-12571
脚	-12572
婚	-12573
尾	-12574
职	-12575
聪	-12576
腿	-12577
宗	-12578
弱	-12579
散	-12580
滑	-12581
碳	-12582
闭	-12583
零	-12584
鲁	-12585
氧	-12586
瑞	-12587
迹	-12588
销	-12589
灭	-12590
蜂	-12591
震	-12592
偏	-12593
托	-12594
熟	-12595
祖	-12596
蚁	-12597
衡	-12598
袋	-12599
退	-12600
冷	-12601
弃	-12602
章	-12603
绍	-12604
耳	-12605
黄	-12606
稍	-12607
青	-12608
伴	-12609
固	-12610
埃	-12611
沉	-12612
洗	-12613
符	-12614
缩	-12615
草	-12616
距	-12617
妇	-12618
挥	-12619
浪	-12620
渐	-12621
诺	-12622
赢	-12623
鸟	-12624
派	-12625
炸	-12626
虽	-12627
占	-12628
漂	-12629
辆	-12630
针	-12631
刺	-12632
悲	-12633
枪	-12634
泡	-12635
私	-12636
银	-12637
陆	-12638
颜	-12639
予	-12640
归	-12641
箱	-12642
粒	-12643
劳	-12644
唱	-12645
径	-12646
燃	-12647
雄	-12648
鼠	-12649
括	-12650
酷	-12651
授	-12652
款	-12653
阻	-12654
默	-12655
床	-12656
忆	-12657
爆	-12658
疫	-12659
途	-12660
雷	-12661
冒	-12662
姆	-12663
宣	-12664
恰	-12665
抱	-12666
挺	-12667
障	-12668
塞	-12669
屏	-12670
杰	-12671
良	-12672
魔	-12673
诊	-12674
判	-12675
松	-12676
毕	-12677
胜	-12678
厂	-12679
喝	-12680
毛	-12681
池	-12682
聊	-12683
仔	-12684
吉	-12685
扩	-12686
狱	-12687
王	-12688
财	-12689
购	-12690
贵	-12691
仿	-12692
抓	-12693
液	-12694
访	-12695
额	-12696
兵	-12697
损	-12698
磁	-12699
铁	-12700
握	-12701
倾	-12702
竞	-12703
野	-12704
估	-12705
勒	-12706
库	-12707
禁	-12708
绕	-12709
噢	-12710
循	-12711
玛	-12712
货	-12713
香	-12714
糖	-12715
苏	-12716
载	-12717
九	-12718
偶	-12719
夜	-12720
奶	-12721
守	-12722
献	-12723
登	-12724
阅	-12725
阴	-12726
允	-12727
朝	-12728
绪	-12729
赖	-12730
迎	-12731
彼	-12732
摆	-12733
斗	-12734
旁	-12735
毁	-12736
滋	-12737
谓	-12738
圆	-12739
堆	-12740
封	-12741
旋	-12742
烈	-12743
著	-12744
乳	-12745
休	-12746
借	-12747
繁	-12748
仪	-12749
储	-12750
拟	-12751
武	-12752
耍	-12753
耗	-12754
航	-12755
副	-12756
售	-12757
援	-12758
烦	-12759
荣	-12760
陷	-12761
f	-12762
执	-12763
搜	-12764
肢	-12765
丁	-12766
急	-12767
扫	-12768
椅	-12769
碰	-12770
股	-12771
逐	-12772
v	-12773
厅	-12774
忙	-12775
残	-12776
焦	-12777
瓦	-12778
辑	-12779
迫	-12780
乌	-12781
佛	-12782
嘛	-12783
弗	-12784
桌	-12785
慧	-12786
拜	-12787
猫	-12788
云	-12789
彻	-12790
怖	-12791
朗	-12792
诞	-12793
鲜	-12794
鹅	-12795
龄	-12796
慈	-12797
撒	-12798
替	-12799
碎	-12800
遭	-12801
露	-12802
w	-12803
伸	-12804
午	-12805
摩	-12806
虚	-12807
赞	-12808
剩	-12809
延	-12810
灰	-12811
盒	-12812
祝	-12813
驱	-12814
俄	-12815
呀	-12816
抑	-12817
敢	-12818
旦	-12819
硬	-12820
碍	-12821
绘	-12822
胡	-12823
•	-12824
夏	-12825
猴	-12826
瓶	-12827
篇	-12828
肤	-12829
谱	-12830
恒	-12831
析	-12832
汗	-12833
污	-12834
烧	-12835
婴	-12836
尤	-12837
徒	-12838
沃	-12839
洁	-12840
译	-12841
鞋	-12842
尊	-12843
忽	-12844
杯	-12845
欲	-12846
稳	-12847
跨	-12848
隔	-12849
“	-12850
”	-12851
妻	-12852
宜	-12853
捐	-12854
撞	-12855
殊	-12856
胶	-12857
芬	-12858
雪	-12859
呆	-12860
圾	-12861
垃	-12862
寿	-12863
弟	-12864
汇	-12865
浮	-12866
漠	-12867
脉	-12868
裂	-12869
递	-12870
附	-12871
颗	-12872
乔	-12873
岸	-12874
拯	-12875
爬	-12876
荷	-12877
蒙	-12878
诸	-12879
贴	-12880
赶	-12881
'	-12882
W	-12883
凡	-12884
桥	-12885
殖	-12886
羊	-12887
肿	-12888
菜	-12889
蜜	-12890
踪	-12891
邮	-12892
驾	-12893
仰	-12894
沟	-12895
烟	-12896
秀	-12897
纯	-12898
邀	-12899
X	-12900
丧	-12901
乡	-12902
促	-12903
壁	-12904
忍	-12905
悉	-12906
惯	-12907
批	-12908
灾	-12909
磨	-12910
缘	-12911
蚊	-12912
余	-12913
墨	-12914
姐	-12915
恋	-12916
攻	-12917
既	-12918
翰	-12919
蚂	-12920
覆	-12921
谎	-12922
饮	-12923
V	-12924
啦	-12925
季	-12926
振	-12927
昆	-12928
菲	-12929
鲨	-12930
孤	-12931
峰	-12932
恢	-12933
扰	-12934
械	-12935
猎	-12936
肥	-12937
迈	-12938
逊	-12939
丢	-12940
尖	-12941
抽	-12942
梅	-12943
瘤	-12944
腐	-12945
苗	-12946
逃	-12947
饭	-12948
兹	-12949
妹	-12950
废	-12951
摇	-12952
窗	-12953
签	-12954
若	-12955
莫	-12956
补	-12957
跃	-12958
轨	-12959
链	-12960
兄	-12961
戴	-12962
珊	-12963
讶	-12964
雕	-12965
Y	-12966
剂	-12967
卷	-12968
寄	-12969
梯	-12970
盛	-12971
览	-12972
郁	-12973
侵	-12974
帕	-12975
搭	-12976
末	-12977
脆	-12978
诚	-12979
赚	-12980
勇	-12981
嘴	-12982
艰	-12983
蛛	-12984
轴	-12985
雇	-12986
骗	-12987
啡	-12988
喻	-12989
敏	-12990
荒	-12991
凯	-12992
厌	-12993
扔	-12994
搬	-12995
摸	-12996
滚	-12997
玻	-12998
琴	-12999
胁	-13000
辩	-13001
雅	-13002
霍	-13003
驶	-13004
刀	-13005
匹	-13006
咖	-13007
哇	-13008
扎	-13009
招	-13010
映	-13011
省	-13012
矿	-13013
腺	-13014
鲸	-13015
党	-13016
刷	-13017
割	-13018
拒	-13019
膜	-13020
趋	-13021
辨	-13022
邦	-13023
丹	-13024
乏	-13025
嘿	-13026
币	-13027
暂	-13028
矛	-13029
穆	-13030
缓	-13031
臂	-13032
裤	-13033
钻	-13034
U	-13035
净	-13036
堡	-13037
宽	-13038
怒	-13039
泛	-13040
瑟	-13041
甲	-13042
箭	-13043
累	-13044
鸡	-13045
乘	-13046
审	-13047
寸	-13048
截	-13049
杉	-13050
汉	-13051
肌	-13052
舒	-13053
闪	-13054
偷	-13055
厨	-13056
喷	-13057
幼	-13058
拼	-13059
敌	-13060
沿	-13061
盲	-13062
莎	-13063
镇	-13064
・	-13065
丰	-13066
叠	-13067
帐	-13068
朵	-13069
涉	-13070
潮	-13071
熊	-13072
盗	-13073
羞	-13074
黎	-13075
吹	-13076
噪	-13077
孔	-13078
晨	-13079
框	-13080
璃	-13081
盾	-13082
赋	-13083
酸	-13084
叶	-13085
壮	-13086
孕	-13087
捉	-13088
昂	-13089
渴	-13090
珍	-13091
瞬	-13092
肃	-13093
迅	-13094
钢	-13095
隆	-13096
佳	-13097
暖	-13098
瑚	-13099
粗	-13100
耐	-13101
薄	-13102
谋	-13103
魂	-13104
卢	-13105
喂	-13106
夺	-13107
惑	-13108
抵	-13109
敦	-13110
歉	-13111
脊	-13112
遵	-13113
鼻	-13114
吓	-13115
呈	-13116
桑	-13117
泰	-13118
湾	-13119
疟	-13120
眠	-13121
饥	-13122
哲	-13123
娜	-13124
尚	-13125
庆	-13126
愤	-13127
携	-13128
讯	-13129
邻	-13130
饿	-13131
鸦	-13132
叔	-13133
岩	-13134
庞	-13135
挣	-13136
擎	-13137
煤	-13138
田	-13139
肺	-13140
膀	-13141
蹈	-13142
迁	-13143
逻	-13144
阵	-13145
哭	-13146
扮	-13147
欣	-13148
糊	-13149
莉	-13150
衰	-13151
赫	-13152
/	-13153
庄	-13154
戈	-13155
敬	-13156
柱	-13157
横	-13158
综	-13159
脂	-13160
豪	-13161
赏	-13162
x	-13163
z	-13164
厚	-13165
崩	-13166
席	-13167
愉	-13168
擅	-13169
牧	-13170
盟	-13171
胸	-13172
苹	-13173
蠢	-13174
袖	-13175
酱	-13176
骤	-13177
伐	-13178
侧	-13179
劲	-13180
填	-13181
措	-13182
灌	-13183
烂	-13184
甜	-13185
肝	-13186
虎	-13187
辈	-13188
兽	-13189
坡	-13190
弦	-13191
扬	-13192
杜	-13193
泳	-13194
涂	-13195
淡	-13196
湖	-13197
疼	-13198
籍	-13199
纹	-13200
胎	-13201
践	-13202
骑	-13203
鬼	-13204
催	-13205
冬	-13206
勃	-13207
夸	-13208
宾	-13209
抛	-13210
拖	-13211
春	-13212
杆	-13213
犹	-13214
猪	-13215
纵	-13216
蜘	-13217
袭	-13218
诱	-13219
齿	-13220
剪	-13221
悬	-13222
撑	-13223
昨	-13224
桶	-13225
欺	-13226
申	-13227
磅	-13228
稀	-13229
穴	-13230
粘	-13231
绳	-13232
萄	-13233
葡	-13234
蓄	-13235
豚	-13236
饼	-13237
厕	-13238
帽	-13239
幽	-13240
忧	-13241
愚	-13242
挂	-13243
栏	-13244
滤	-13245
盐	-13246
矶	-13247
耶	-13248
蛇	-13249
豆	-13250
贸	-13251
醉	-13252
钮	-13253
髓	-13254
鸣	-13255
Z	-13256
丈	-13257
壳	-13258
宫	-13259
川	-13260
悦	-13261
晰	-13262
晶	-13263
棉	-13264
泥	-13265
牢	-13266
祷	-13267
筹	-13268
腊	-13269
贡	-13270
赌	-13271
鲍	-13272
凌	-13273
卵	-13274
妮	-13275
弯	-13276
抢	-13277
津	-13278
胆	-13279
京	-13280
冠	-13281
冻	-13282
喊	-13283
坞	-13284
堵	-13285
央	-13286
扭	-13287
氏	-13288
汤	-13289
滩	-13290
漏	-13291
税	-13292
笨	-13293
纠	-13294
茶	-13295
辛	-13296
违	-13297
韩	-13298
馈	-13299
[	-13300
]	-13301
姻	-13302
愈	-13303
慰	-13304
抬	-13305
拆	-13306
捷	-13307
揭	-13308
棵	-13309
氢	-13310
炎	-13311
畏	-13312
皆	-13313
硅	-13314
祈	-13315
粮	-13316
绩	-13317
罕	-13318
罚	-13319
耻	-13320
蛙	-13321
贷	-13322
陌	-13323
魅	-13324
佩	-13325
俗	-13326
凭	-13327
剥	-13328
岗	-13329
挖	-13330
沮	-13331
泽	-13332
溃	-13333
瓜	-13334
畅	-13335
痴	-13336
督	-13337
磷	-13338
蝇	-13339
陈	-13340
叹	-13341
咬	-13342
尘	-13343
尿	-13344
憾	-13345
插	-13346
橡	-13347
澳	-13348
牲	-13349
甘	-13350
睹	-13351
瞧	-13352
肩	-13353
苍	-13354
裁	-13355
踢	-13356
返	-13357
齐	-13358
刑	-13359
剖	-13360
吨	-13361
嗨	-13362
囚	-13363
娱	-13364
寓	-13365
惨	-13366
挤	-13367
泄	-13368
烹	-13369
番	-13370
肠	-13371
舱	-13372
躲	-13373
遥	-13374
锁	-13375
颠	-13376
饰	-13377
亨	-13378
俱	-13379
叉	-13380
姿	-13381
婆	-13382
孙	-13383
廉	-13384
恨	-13385
悄	-13386
掘	-13387
朱	-13388
炭	-13389
矮	-13390
租	-13391
稿	-13392
逆	-13393
闲	-13394
串	-13395
井	-13396
叙	-13397
唤	-13398
宏	-13399
廊	-13400
拔	-13401
攀	-13402
斜	-13403
浓	-13404
湿	-13405
滴	-13406
炼	-13407
祸	-13408
纤	-13409
纷	-13410
胀	-13411
询	-13412
踏	-13413
丘	-13414
伍	-13415
傻	-13416
兆	-13417
卓	-13418
呃	-13419
哺	-13420
堪	-13421
惜	-13422
扣	-13423
档	-13424
歧	-13425
烤	-13426
狼	-13427
珠	-13428
胖	-13429
藻	-13430
详	-13431
豹	-13432
貌	-13433
赠	-13434
辞	-13435
饪	-13436
伞	-13437
佣	-13438
俩	-13439
啥	-13440
垂	-13441
垫	-13442
埋	-13443
姑	-13444
孟	-13445
忠	-13446
斥	-13447
栖	-13448
渔	-13449
玉	-13450
绑	-13451
翅	-13452
膝	-13453
荡	-13454
蕾	-13455
蝠	-13456
订	-13457
冥	-13458
吻	-13459
惠	-13460
慌	-13461
枝	-13462
柯	-13463
栋	-13464
粹	-13465
翼	-13466
胺	-13467
腹	-13468
舍	-13469
芝	-13470
螺	-13471
衷	-13472
谜	-13473
饱	-13474
Q	-13475
丛	-13476
厉	-13477
召	-13478
奔	-13479
奴	-13480
委	-13481
寒	-13482
摔	-13483
浏	-13484
淋	-13485
牺	-13486
琳	-13487
疲	-13488
砸	-13489
竭	-13490
罢	-13491
舌	-13492
茨	-13493
螂	-13494
谐	-13495
躺	-13496
醇	-13497
亦	-13498
侣	-13499
姥	-13500
屁	-13501
弊	-13502
悔	-13503
惩	-13504
惹	-13505
敲	-13506
泪	-13507
涯	-13508
港	-13509
紫	-13510
臭	-13511
薪	-13512
蝙	-13513
邪	-13514
铜	-13515
闹	-13516
雾	-13517
仁	-13518
傲	-13519
哨	-13520
契	-13521
崇	-13522
巢	-13523
怨	-13524
悟	-13525
扯	-13526
柏	-13527
浴	-13528
涌	-13529
渡	-13530
砖	-13531
礁	-13532
罩	-13533
肪	-13534
肾	-13535
膨	-13536
艘	-13537
芯	-13538
虐	-13539
蜡	-13540
誉	-13541
谨	-13542
辱	-13543
逝	-13544
j	-13545
丑	-13546
丸	-13547
倡	-13548
债	-13549
凝	-13550
劫	-13551
墓	-13552
尸	-13553
巾	-13554
擦	-13555
旺	-13556
桃	-13557
榜	-13558
浅	-13559
溯	-13560
滥	-13561
瘫	-13562
盯	-13563
瞄	-13564
窟	-13565
罐	-13566
耀	-13567
腕	-13568
腾	-13569
荧	-13570
赤	-13571
辅	-13572
阐	-13573
雌	-13574
伏	-13575
册	-13576
削	-13577
吐	-13578
址	-13579
夹	-13580
妥	-13581
娘	-13582
宪	-13583
役	-13584
扇	-13585
撕	-13586
棍	-13587
歇	-13588
泉	-13589
润	-13590
猛	-13591
瘾	-13592
眉	-13593
篷	-13594
糙	-13595
署	-13596
讽	-13597
轰	-13598
辐	-13599
驼	-13600
伽	-13601
喔	-13602
奉	-13603
奸	-13604
屠	-13605
怜	-13606
戒	-13607
抚	-13608
斑	-13609
昏	-13610
柔	-13611
棕	-13612
洪	-13613
涨	-13614
濒	-13615
疏	-13616
痹	-13617
矩	-13618
砍	-13619
缠	-13620
翔	-13621
芭	-13622
菇	-13623
蒸	-13624
贯	-13625
逼	-13626
酵	-13627
鉴	-13628
铺	-13629
阔	-13630
隶	-13631
骼	-13632
鳄	-13633
乙	-13634
倭	-13635
券	-13636
匿	-13637
厘	-13638
吞	-13639
挪	-13640
浸	-13641
燥	-13642
盈	-13643
粪	-13644
缝	-13645
聆	-13646
萤	-13647
蘑	-13648
裕	-13649
诀	-13650
账	-13651
躯	-13652
锋	-13653
鹿	-13654
匠	-13655
卑	-13656
呵	-13657
嘲	-13658
宁	-13659
慎	-13660
摧	-13661
旗	-13662
殿	-13663
烷	-13664
狮	-13665
琼	-13666
詹	-13667
谦	-13668
陪	-13669
颇	-13670
颈	-13671
~	-13672
伪	-13673
兼	-13674
劣	-13675
君	-13676
唐	-13677
妨	-13678
宰	-13679
屈	-13680
恤	-13681
慨	-13682
押	-13683
挽	-13684
晓	-13685
柜	-13686
毯	-13687
添	-13688
爽	-13689
痕	-13690
痪	-13691
篮	-13692
葬	-13693
酶	-13694
钉	-13695
鸽	-13696
鹰	-13697
‧	-13698
仓	-13699
刊	-13700
叛	-13701
喇	-13702
囊	-13703
壤	-13704
娃	-13705
娅	-13706
峡	-13707
弓	-13708
披	-13709
拇	-13710
捡	-13711
撼	-13712
李	-13713
棘	-13714
沫	-13715
泌	-13716
爷	-13717
牵	-13718
睾	-13719
碑	-13720
秋	-13721
秩	-13722
窝	-13723
笼	-13724
胰	-13725
蔓	-13726
贪	-13727
跌	-13728
迟	-13729
铭	-13730
韦	-13731
骆	-13732
剑	-13733
厄	-13734
啤	-13735
壶	-13736
尬	-13737
尴	-13738
恼	-13739
挡	-13740
枯	-13741
梁	-13742
榄	-13743
橄	-13744
汁	-13745
泊	-13746
涵	-13747
牠	-13748
皱	-13749
碗	-13750
窃	-13751
耕	-13752
胃	-13753
腰	-13754
蔬	-13755
虾	-13756
蚀	-13757
裔	-13758
闷	-13759
韧	-13760
饶	-13761
骄	-13762
鳍	-13763
鸭	-13764
黏	-13765
仑	-13766
仙	-13767
僵	-13768
删	-13769
勾	-13770
咨	-13771
坎	-13772
奈	-13773
嫩	-13774
忌	-13775
恭	-13776
悠	-13777
慷	-13778
抹	-13779
拓	-13780
拘	-13781
掠	-13782
掩	-13783
撤	-13784
旨	-13785
棋	-13786
溶	-13787
澡	-13788
爵	-13789
砂	-13790
筋	-13791
缸	-13792
茜	-13793
荐	-13794
薯	-13795
蝶	-13796
衍	-13797
裸	-13798
谅	-13799
贾	-13800
趾	-13801
酬	-13802
雀	-13803
霉	-13804
韵	-13805
鸿	-13806
倦	-13807
凉	-13808
卧	-13809
呐	-13810
哎	-13811
姓	-13812
嫉	-13813
崖	-13814
崭	-13815
廷	-13816
戮	-13817
拨	-13818
撰	-13819
晃	-13820
晕	-13821
氦	-13822
氮	-13823
淘	-13824
渠	-13825
溜	-13826
炮	-13827
烛	-13828
犬	-13829
狄	-13830
猿	-13831
皂	-13832
笛	-13833
缚	-13834
肖	-13835
胳	-13836
膊	-13837
芥	-13838
葛	-13839
蜓	-13840
蜻	-13841
衫	-13842
辉	-13843
郊	-13844
酪	-13845
颂	-13846
凑	-13847
凶	-13848
咒	-13849
夷	-13850
妒	-13851
嫁	-13852
巫	-13853
愧	-13854
捞	-13855
搏	-13856
杠	-13857
枢	-13858
椎	-13859
汀	-13860
牡	-13861
疚	-13862
睁	-13863
硫	-13864
筒	-13865
缆	-13866
聘	-13867
肚	-13868
茎	-13869
蛎	-13870
蜗	-13871
蜣	-13872
衔	-13873
裹	-13874
趟	-13875
躁	-13876
铃	-13877
铸	-13878
驳	-13879
骚	-13880
侠	-13881
勤	-13882
县	-13883
吁	-13884
吊	-13885
咪	-13886
咸	-13887
嘞	-13888
噩	-13889
垮	-13890
嬉	-13891
宠	-13892
宿	-13893
崛	-13894
庸	-13895
弈	-13896
恻	-13897
拾	-13898
斤	-13899
旱	-13900
栅	-13901
梭	-13902
棚	-13903
椰	-13904
橙	-13905
欠	-13906
氛	-13907
沸	-13908
熄	-13909
爪	-13910
瓣	-13911
甸	-13912
皇	-13913
腔	-13914
芽	-13915
藤	-13916
蛮	-13917
蟹	-13918
衬	-13919
贩	-13920
贿	-13921
赐	-13922
逮	-13923
钩	-13924
锐	-13925
陵	-13926
颤	-13927
─	-13928
僧	-13929
兔	-13930
刮	-13931
刹	-13932
剔	-13933
募	-13934
卜	-13935
吵	-13936
坠	-13937
寨	-13938
嵌	-13939
弥	-13940
捏	-13941
泵	-13942
溪	-13943
漆	-13944
澄	-13945
煌	-13946
皿	-13947
稣	-13948
竹	-13949
纱	-13950
绵	-13951
羽	-13952
胚	-13953
艇	-13954
茄	-13955
萝	-13956
谬	-13957
遮	-13958
钞	-13959
锤	-13960
阱	-13961
陶	-13962
隧	-13963
颅	-13964
驻	-13965
龟	-13966
佐	-13967
佑	-13968
侦	-13969
侮	-13970
函	-13971
咱	-13972
啸	-13973
嗅	-13974
嘈	-13975
嘉	-13976
垒	-13977
塌	-13978
塘	-13979
孢	-13980
宅	-13981
屿	-13982
帆	-13983
彗	-13984
悖	-13985
慕	-13986
懒	-13987
扼	-13988
挨	-13989
柬	-13990
柴	-13991
榈	-13992
槽	-13993
洒	-13994
涡	-13995
淆	-13996
狸	-13997
瓷	-13998
痒	-13999
碟	-14000
稻	-14001
稽	-14002
绞	-14003
缪	-14004
肘	-14005
脖	-14006
膏	-14007
萧	-14008
蕴	-14009
蟑	-14010
蠕	-14011
谊	-14012
酿	-14013
钓	-14014
铅	-14015
锻	-14016
阀	-14017
隙	-14018
驯	-14019
骇	-14020
髋	-14021
麽	-14022
+	-14023
q	-14024
冈	-14025
凸	-14026
呜	-14027
咯	-14028
唇	-14029
埔	-14030
宴	-14031
屎	-14032
庙	-14033
怯	-14034
抖	-14035
拐	-14036
掷	-14037
搁	-14038
摊	-14039
敞	-14040
斐	-14041
於	-14042
株	-14043
椒	-14044
氨	-14045
沼	-14046
泣	-14047
浑	-14048
淹	-14049
渗	-14050
溉	-14051
溺	-14052
獾	-14053
癫	-14054
盼	-14055
耸	-14056
腻	-14057
舟	-14058
董	-14059
蓬	-14060
裙	-14061
贺	-14062
跤	-14063
辍	-14064
辜	-14065
鄂	-14066
锡	-14067
陋	-14068
颖	-14069
飓	-14070
饲	-14071
黛	-14072
【	-14073
】	-14074
仇	-14075
侍	-14076
偿	-14077
兜	-14078
刃	-14079
匙	-14080
吟	-14081
咀	-14082
唔	-14083
喘	-14084
嚼	-14085
坛	-14086
娶	-14087
寂	-14088
峻	-14089
庇	-14090
悯	-14091
憎	-14092
抄	-14093
抉	-14094
拦	-14095
拳	-14096
掏	-14097
摘	-14098
朴	-14099
桨	-14100
桩	-14101
滞	-14102
焚	-14103
犀	-14104
狩	-14105
甩	-14106
畜	-14107
痢	-14108
眨	-14109
睫	-14110
砌	-14111
窍	-14112
舅	-14113
萎	-14114
诈	-14115
诠	-14116
辣	-14117
逗	-14118
逛	-14119
钥	-14120
铝	-14121
铲	-14122
陨	-14123
顷	-14124
颁	-14125
乞	-14126
仗	-14127
俯	-14128
卸	-14129
啪	-14130
喉	-14131
嘀	-14132
嚷	-14133
坟	-14134
坪	-14135
夕	-14136
奧	-14137
姨	-14138
嫌	-14139
屑	-14140
帅	-14141
徙	-14142
恕	-14143
悼	-14144
惫	-14145
惰	-14146
扁	-14147
扶	-14148
挠	-14149
搅	-14150
斧	-14151
枚	-14152
柄	-14153
栓	-14154
汰	-14155
汲	-14156
沦	-14157
浇	-14158
涅	-14159
涸	-14160
炒	-14161
烁	-14162
焊	-14163
珀	-14164
疆	-14165
瘦	-14166
盆	-14167
盔	-14168
砰	-14169
硕	-14170
禽	-14171
筛	-14172
绎	-14173
绸	-14174
翁	-14175
翩	-14176
肆	-14177
艳	-14178
蔽	-14179
虹	-14180
蝴	-14181
觅	-14182
誓	-14183
诅	-14184
诡	-14185
赎	-14186
蹦	-14187
迄	-14188
遣	-14189
锅	-14190
镑	-14191
陀	-14192
雏	-14193
霸	-14194
顽	-14195
驭	-14196
麼	-14197
亏	-14198
亩	-14199
僚	-14200
刘	-14201
匪	-14202
厦	-14203
叨	-14204
叭	-14205
咋	-14206
咳	-14207
哀	-14208
哮	-14209
嗒	-14210
嗷	-14211
奢	-14212
妓	-14213
寺	-14214
對	-14215
岔	-14216
巡	-14217
帘	-14218
徽	-14219
拙	-14220
拷	-14221
挫	-14222
捣	-14223
掀	-14224
昔	-14225
晒	-14226
栩	-14227
汪	-14228
泼	-14229
浩	-14230
淀	-14231
淌	-14232
溢	-14233
滔	-14234
滨	-14235
潘	-14236
煮	-14237
熬	-14238
燕	-14239
琐	-14240
琢	-14241
畴	-14242
疤	-14243
痫	-14244
瞎	-14245
碌	-14246
祭	-14247
禅	-14248
竖	-14249
筝	-14250
簧	-14251
纲	-14252
绷	-14253
缀	-14254
羚	-14255
肮	-14256
芒	-14257
蕉	-14258
虔	-14259
螃	-14260
褶	-14261
譬	-14262
谣	-14263
跪	-14264
酋	-14265
酗	-14266
颚	-14267
飘	-14268
驰	-14269
鬣	-14270
～	-14271
&	-14272
―	-14273
亥	-14274
侄	-14275
侏	-14276
匀	-14277
匆	-14278
叮	-14279
吼	-14280
呕	-14281
咎	-14282
哔	-14283
哼	-14284
囱	-14285
坑	-14286
堕	-14287
妄	-14288
届	-14289
巷	-14290
廓	-14291
弛	-14292
御	-14293
恳	-14294
惕	-14295
懈	-14296
懦	-14297
扑	-14298
拭	-14299
拱	-14300
杖	-14301
柠	-14302
榨	-14303
橘	-14304
檬	-14305
毋	-14306
沾	-14307
烩	-14308
焰	-14309
熵	-14310
狠	-14311
狭	-14312
瑜	-14313
眩	-14314
瞥	-14315
矫	-14316
稚	-14317
穗	-14318
纬	-14319
羡	-14320
臀	-14321
舰	-14322
芙	-14323
芦	-14324
芳	-14325
茅	-14326
茫	-14327
莓	-14328
萌	-14329
萦	-14330
贮	-14331
赝	-14332
踩	-14333
蹄	-14334
蹲	-14335
辟	-14336
迥	-14337
迦	-14338
郡	-14339
鄙	-14340
钙	-14341
锂	-14342
锥	-14343
锯	-14344
馅	-14345
骸	-14346
«	-14347
»	-14348
乃	-14349
乖	-14350
凹	-14351
匮	-14352
咄	-14353
咻	-14354
哑	-14355
喀	-14356
嗓	-14357
嗽	-14358
嘘	-14359
噬	-14360
奎	-14361
奠	-14362
妆	-14363
娇	-14364
媲	-14365
寡	-14366
岂	-14367
峭	-14368
幢	-14369
後	-14370
恍	-14371
戳	-14372
扉	-14373
拽	-14374
捆	-14375
捍	-14376
撇	-14377
斋	-14378
旭	-14379
昌	-14380
昧	-14381
昭	-14382
晋	-14383
晾	-14384
栽	-14385
梳	-14386
棱	-14387
槟	-14388
沛	-14389
沥	-14390
泻	-14391
洽	-14392
淇	-14393
淫	-14394
渺	-14395
溅	-14396
瀑	-14397
炉	-14398
炫	-14399
熔	-14400
猖	-14401
玄	-14402
瘟	-14403
睬	-14404
瞰	-14405
碱	-14406
碾	-14407
祥	-14408
稼	-14409
穹	-14410
窥	-14411
簿	-14412
籽	-14413
纂	-14414
纺	-14415
绒	-14416
绣	-14417
缴	-14418
翠	-14419
腥	-14420
臣	-14421
莲	-14422
藉	-14423
蚜	-14424
蚪	-14425
蜥	-14426
蝌	-14427
螨	-14428
袍	-14429
诃	-14430
赴	-14431
辙	-14432
逸	-14433
逾	-14434
遏	-14435
郑	-14436
酝	-14437
钦	-14438
铀	-14439
镖	-14440
闯	-14441
陛	-14442
陡	-14443
霜	-14444
靴	-14445
饵	-14446
驴	-14447
骂	-14448
髦	-14449
魁	-14450
丙	-14451
丶	-14452
侈	-14453
侯	-14454
倚	-14455
剃	-14456
劝	-14457
厢	-14458
吱	-14459
咔	-14460
唉	-14461
唠	-14462
唬	-14463
啄	-14464
喧	-14465
嗜	-14466
圭	-14467
坊	-14468
坍	-14469
堤	-14470
夭	-14471
婪	-14472
屡	-14473
履	-14474
巅	-14475
帜	-14476
弧	-14477
徊	-14478
徘	-14479
忱	-14480
怠	-14481
惚	-14482
戚	-14483
拂	-14484
拧	-14485
挚	-14486
捅	-14487
搐	-14488
摒	-14489
晴	-14490
暇	-14491
暑	-14492
朽	-14493
梗	-14494
歪	-14495
殆	-14496
殴	-14497
毅	-14498
沌	-14499
浦	-14500
涩	-14501
渊	-14502
渣	-14503
渲	-14504
湛	-14505
灿	-14506
烘	-14507
烯	-14508
焕	-14509
煎	-14510
狐	-14511
狡	-14512
猝	-14513
猾	-14514
獗	-14515
瑕	-14516
疮	-14517
疵	-14518
瘠	-14519
癖	-14520
盏	-14521
眷	-14522
瞩	-14523
瞪	-14524
瞻	-14525
禧	-14526
秃	-14527
稠	-14528
箔	-14529
篱	-14530
紊	-14531
缅	-14532
肴	-14533
腌	-14534
苛	-14535
葆	-14536
蔗	-14537
蔼	-14538
蜴	-14539
蜷	-14540
袜	-14541
讼	-14542
诫	-14543
诵	-14544
贤	-14545
贬	-14546
贼	-14547
赔	-14548
趁	-14549
蹋	-14550
轶	-14551
轿	-14552
辽	-14553
铉	-14554
铐	-14555
锈	-14556
颊	-14557
颞	-14558
馁	-14559
鳃	-14560
鳕	-14561
®	-14562
อ	-14563
♪	-14564
亢	-14565
仆	-14566
仲	-14567
佬	-14568
佼	-14569
來	-14570
儒	-14571
冗	-14572
冯	-14573
凤	-14574
凳	-14575
勘	-14576
勿	-14577
卤	-14578
卿	-14579
呻	-14580
咙	-14581
哄	-14582
嗝	-14583
嗡	-14584
嘎	-14585
嘟	-14586
嘭	-14587
嘻	-14588
坝	-14589
墅	-14590
妳	-14591
姊	-14592
姜	-14593
姬	-14594
婉	-14595
媚	-14596
宵	-14597
寐	-14598
彭	-14599
彰	-14600
怡	-14601
恙	-14602
悚	-14603
愁	-14604
扪	-14605
拌	-14606
拢	-14607
拣	-14608
敛	-14609
昼	-14610
曙	-14611
杏	-14612
柚	-14613
栗	-14614
楷	-14615
槌	-14616
樣	-14617
橇	-14618
橱	-14619
毙	-14620
江	-14621
浆	-14622
涤	-14623
淑	-14624
淤	-14625
滕	-14626
漩	-14627
澈	-14628
瀚	-14629
炊	-14630
烫	-14631
爹	-14632
玫	-14633
疸	-14634
痊	-14635
竣	-14636
竿	-14637
笆	-14638
箴	-14639
絮	-14640
绅	-14641
缔	-14642
羟	-14643
翘	-14644
聋	-14645
胥	-14646
胱	-14647
脾	-14648
苟	-14649
茸	-14650
葵	-14651
蓓	-14652
薇	-14653
藐	-14654
蚕	-14655
蛆	-14656
蛭	-14657
裘	-14658
褪	-14659
谴	-14660
贞	-14661
赁	-14662
赘	-14663
跋	-14664
踝	-14665
辰	-14666
迭	-14667
這	-14668
遛	-14669
郎	-14670
镀	-14671
隘	-14672
隼	-14673
靡	-14674
馨	-14675
髖	-14676
鹤	-14677
鼾	-14678
£	-14679
©	-14680
β	-14681
–	-14682
亟	-14683
伎	-14684
侥	-14685
傅	-14686
傍	-14687
兑	-14688
內	-14689
冤	-14690
凰	-14691
凿	-14692
刁	-14693
劈	-14694
勉	-14695
勺	-14696
吠	-14697
呗	-14698
咏	-14699
咕	-14700
哟	-14701
唧	-14702
喃	-14703
喵	-14704
噗	-14705
噱	-14706
噼	-14707
垄	-14708
垢	-14709
垣	-14710
墟	-14711
妖	-14712
姚	-14713
娩	-14714
孰	-14715
孵	-14716
岭	-14717
帖	-14718
帷	-14719
彷	-14720
愛	-14721
扒	-14722
抒	-14723
拗	-14724
拴	-14725
挛	-14726
挞	-14727
捧	-14728
搪	-14729
旷	-14730
昵	-14731
晤	-14732
暧	-14733
暮	-14734
曝	-14735
曳	-14736
枕	-14737
枣	-14738
桅	-14739
梨	-14740
梵	-14741
椭	-14742
榭	-14743
樊	-14744
歹	-14745
氓	-14746
沒	-14747
沓	-14748
沧	-14749
浊	-14750
渍	-14751
烙	-14752
烬	-14753
煽	-14754
犁	-14755
玲	-14756
瑰	-14757
甄	-14758
甥	-14759
疙	-14760
痉	-14761
瘩	-14762
皈	-14763
睦	-14764
瞌	-14765
瞒	-14766
矗	-14767
矢	-14768
碧	-14769
秆	-14770
窒	-14771
笃	-14772
笋	-14773
簇	-14774
粥	-14775
纫	-14776
绊	-14777
绦	-14778
绽	-14779
缕	-14780
缤	-14781
罄	-14782
翱	-14783
耽	-14784
肋	-14785
胭	-14786
脐	-14787
脓	-14788
腓	-14789
腮	-14790
膛	-14791
膳	-14792
臆	-14793
舆	-14794
芋	-14795
茲	-14796
菩	-14797
菱	-14798
葫	-14799
藓	-14800
蛔	-14801
蛞	-14802
蝓	-14803
裡	-14804
褐	-14805
襟	-14806
诶	-14807
豫	-14808
赂	-14809
赃	-14810
趴	-14811
踵	-14812
躬	-14813
迸	-14814
逢	-14815
邓	-14816
酮	-14817
醛	-14818
钛	-14819
钳	-14820
钽	-14821
铎	-14822
锌	-14823
锢	-14824
镊	-14825
镶	-14826
阁	-14827
雯	-14828
靶	-14829
鞠	-14830
颌	-14831
飙	-14832
骡	-14833
魄	-14834
魇	-14835
鱿	-14836
鳞	-14837
鳟	-14838
鷉	-14839
鸠	-14840
鹉	-14841
鹓	-14842
鹦	-14843
鹬	-14844
點	-14845
黯	-14846
鼬	-14847
#	-14848
°	-14849
á	-14850
ø	-14851
ˎ	-14852
ย	-14853
ร	-14854
่	-14855
€	-14856
ㄧ	-14857
丐	-14858
乍	-14859
亭	-14860
亵	-14861
佝	-14862
佯	-14863
侃	-14864
俑	-14865
俘	-14866
俭	-14867
俺	-14868
俾	-14869
們	-14870
倘	-14871
偻	-14872
僻	-14873
兮	-14874
冶	-14875
凄	-14876
動	-14877
匈	-14878
匍	-14879
匐	-14880
匣	-14881
卒	-14882
卦	-14883
吩	-14884
呛	-14885
呤	-14886
咆	-14887
咐	-14888
咧	-14889
哗	-14890
哩	-14891
唆	-14892
唾	-14893
啉	-14894
啜	-14895
啧	-14896
啮	-14897
啰	-14898
啶	-14899
喋	-14900
嗎	-14901
嗖	-14902
嗪	-14903
嘌	-14904
嘤	-14905
嘧	-14906
嘶	-14907
噶	-14908
嚣	-14909
圳	-14910
垛	-14911
垦	-14912
垩	-14913
墩	-14914
奄	-14915
奕	-14916
婶	-14917
孀	-14918
孜	-14919
宕	-14920
宛	-14921
寥	-14922
尉	-14923
岌	-14924
岳	-14925
崎	-14926
崔	-14927
崽	-14928
巩	-14929
帧	-14930
幌	-14931
彪	-14932
彬	-14933
徐	-14934
從	-14935
忏	-14936
忡	-14937
悍	-14938
惋	-14939
惭	-14940
惮	-14941
愕	-14942
愣	-14943
憋	-14944
憧	-14945
憬	-14946
扳	-14947
抨	-14948
拎	-14949
挐	-14950
捎	-14951
捱	-14952
採	-14953
揍	-14954
搂	-14955
摁	-14956
撂	-14957
攥	-14958
攸	-14959
昙	-14960
晦	-14961
曹	-14962
柑	-14963
柿	-14964
栈	-14965
桂	-14966
桔	-14967
榴	-14968
槛	-14969
檐	-14970
殃	-14971
毗	-14972
毡	-14973
氚	-14974
沐	-14975
浃	-14976
涎	-14977
涕	-14978
渎	-14979
渝	-14980
漓	-14981
潢	-14982
潦	-14983
潭	-14984
潺	-14985
澜	-14986
灼	-14987
炬	-14988
焉	-14989
熏	-14990
犸	-14991
狒	-14992
猬	-14993
現	-14994
琪	-14995
