<pad>	0
<unk>	0
<s>	0
</s>	0
▁t	-0
▁th	-1
▁a	-2
in	-3
re	-4
▁w	-5
▁the	-6
▁s	-7
ou	-8
at	-9
▁o	-10
is	-11
er	-12
nd	-13
▁c	-14
it	-15
▁h	-16
▁I	-17
▁m	-18
ing	-19
▁b	-20
▁to	-21
on	-22
▁d	-23
en	-24
▁p	-25
an	-26
ll	-27
es	-28
▁f	-29
or	-30
▁of	-31
▁l	-32
ed	-33
▁in	-34
▁A	-35
▁y	-36
ar	-37
▁g	-38
▁T	-39
▁is	-40
as	-41
▁n	-42
om	-43
▁you	-44
▁that	-45
ve	-46
ow	-47
le	-48
▁Th	-49
▁it	-50
▁And	-51
▁we	-52
ic	-53
al	-54
ot	-55
et	-56
▁e	-57
us	-58
▁wh	-59
▁and	-60
ion	-61
▁S	-62
▁ha	-63
▁be	-64
ut	-65
▁this	-66
ay	-67
▁W	-68
▁re	-69
▁on	-70
id	-71
ver	-72
ct	-73
ld	-74
ent	-75
all	-76
ere	-77
se	-78
out	-79
ig	-80
im	-81
▁do	-82
▁st	-83
st	-84
ro	-85
ke	-86
▁So	-87
ly	-88
▁was	-89
ch	-90
▁are	-91
▁The	-92
▁for	-93
▁go	-94
▁B	-95
ce	-96
▁It	-97
▁an	-98
▁have	-99
ally	-100
ra	-101
▁li	-102
▁k	-103
▁We	-104
▁ab	-105
▁can	-106
ir	-107
▁se	-108
op	-109
am	-110
ith	-111
ht	-112
▁what	-113
th	-114
▁u	-115
▁not	-116
oo	-117
▁me	-118
▁with	-119
▁they	-120
very	-121
▁about	-122
our	-123
ant	-124
▁mo	-125
ad	-126
▁ne	-127
▁sh	-128
if	-129
▁wor	-130
ome	-131
▁"	-132
▁he	-133
ust	-134
ill	-135
ould	-136
ur	-137
ation	-138
▁N	-139
▁j	-140
▁H	-141
ight	-142
ol	-143
▁as	-144
▁at	-145
▁Y	-146
ge	-147
▁there	-148
▁But	-149
▁all	-150
▁r	-151
▁my	-152
▁ex	-153
ter	-154
il	-155
ul	-156
▁ch	-157
pp	-158
▁kn	-159
▁pro	-160
▁so	-161
▁one	-162
▁like	-163
▁us	-164
art	-165
▁com	-166
ck	-167
ers	-168
od	-169
▁fr	-170
ure	-171
▁de	-172
ear	-173
▁You	-174
▁know	-175
▁This	-176
um	-177
eop	-178
eople	-179
ink	-180
ess	-181
."	-182
est	-183
▁just	-184
▁ma	-185
▁thing	-186
qu	-187
ble	-188
ive	-189
ook	-190
▁con	-191
▁al	-192
ate	-193
▁going	-194
▁M	-195
▁Wh	-196
nt	-197
▁people	-198
ind	-199
▁see	-200
▁O	-201
ity	-202
▁They	-203
▁out	-204
ect	-205
▁very	-206
▁think	-207
▁don	-208
ist	-209
▁te	-210
▁get	-211
ies	-212
▁sa	-213
▁C	-214
un	-215
ide	-216
▁from	-217
▁up	-218
▁tr	-219
▁want	-220
▁them	-221
▁-	-222
▁v	-223
▁--	-224
▁these	-225
▁here	-226
▁int	-227
ort	-228
ie	-229
os	-230
▁our	-231
oug	-232
▁pl	-233
ain	-234
el	-235
▁sp	-236
her	-237
▁or	-238
▁really	-239
▁your	-240
▁act	-241
ound	-242
▁Now	-243
▁some	-244
▁look	-245
and	-246
▁had	-247
ca	-248
▁how	-249
▁That	-250
▁more	-251
ame	-252
hing	-253
▁1	-254
▁tim	-255
▁were	-256
▁did	-257
▁work	-258
em	-259
▁im	-260
ually	-261
ard	-262
▁L	-263
use	-264
▁ar	-265
▁year	-266
▁would	-267
▁E	-268
ine	-269
▁D	-270
ack	-271
ci	-272
▁ta	-273
▁way	-274
iv	-275
▁qu	-276
▁who	-277
ous	-278
ple	-279
og	-280
▁by	-281
▁has	-282
ast	-283
▁P	-284
one	-285
ose	-286
▁su	-287
▁now	-288
omet	-289
reat	-290
act	-291
▁said	-292
ap	-293
▁no	-294
▁time	-295
itt	-296
▁le	-297
▁need	-298
▁happ	-299
▁say	-300
ore	-301
alk	-302
cause	-303
▁actually	-304
▁right	-305
▁F	-306
▁G	-307
▁In	-308
▁then	-309
▁things	-310
are	-311
ther	-312
▁There	-313
ment	-314
▁fe	-315
ond	-316
ong	-317
ans	-318
▁exp	-319
iz	-320
▁every	-321
ag	-322
▁ag	-323
iff	-324
wo	-325
▁but	-326
▁somet	-327
▁got	-328
▁will	-329
▁world	-330
▁en	-331
▁He	-332
▁man	-333
▁pre	-334
age	-335
▁start	-336
ab	-337
▁What	-338
▁if	-339
▁per	-340
▁any	-341
▁when	-342
ence	-343
ven	-344
▁diff	-345
so	-346
▁could	-347
▁make	-348
ice	-349
ace	-350
▁other	-351
ild	-352
▁been	-353
ough	-354
▁R	-355
▁two	-356
ree	-357
ff	-358
ach	-359
ud	-360
▁something	-361
ory	-362
irst	-363
▁call	-364
ions	-365
▁does	-366
ittle	-367
▁cl	-368
▁happen	-369
▁years	-370
▁little	-371
▁into	-372
▁lot	-373
pt	-374
ich	-375
▁their	-376
ical	-377
▁comp	-378
ry	-379
ang	-380
▁kind	-381
▁differe	-382
▁also	-383
▁back	-384
▁co	-385
00	-386
way	-387
ri	-388
▁than	-389
own	-390
ite	-391
▁talk	-392
▁po	-393
uch	-394
▁bu	-395
▁first	-396
fe	-397
ell	-398
▁much	-399
▁over	-400
ue	-401
ber	-402
▁imp	-403
▁good	-404
▁un	-405
▁part	-406
ody	-407
ia	-408
ass	-409
ign	-410
▁new	-411
▁ro	-412
ick	-413
ss	-414
ire	-415
▁lo	-416
ep	-417
▁where	-418
sel	-419
▁2	-420
ater	-421
▁pr	-422
▁Well	-423
orm	-424
▁she	-425
▁those	-426
▁dis	-427
▁different	-428
?"	-429
he	-430
other	-431
▁because	-432
ip	-433
▁gr	-434
olog	-435
▁life	-436
ult	-437
ict	-438
▁cou	-439
▁J	-440
▁show	-441
▁day	-442
cent	-443
ces	-444
▁res	-445
int	-446
ving	-447
▁ph	-448
nder	-449
ish	-450
▁cont	-451
▁too	-452
▁am	-453
▁only	-454
▁down	-455
ought	-456
▁let	-457
blem	-458
▁spe	-459
▁which	-460
▁tell	-461
▁problem	-462
king	-463
▁ide	-464
ated	-465
▁des	-466
▁ac	-467
ood	-468
ves	-469
urn	-470
▁bet	-471
▁take	-472
▁sy	-473
▁bl	-474
rain	-475
ru	-476
ase	-477
▁many	-478
▁real	-479
ne	-480
pl	-481
▁ad	-482
▁most	-483
ob	-484
▁big	-485
▁thr	-486
▁doing	-487
ange	-488
▁around	-489
▁under	-490
able	-491
▁hum	-492
▁even	-493
▁his	-494
▁come	-495
▁U	-496
day	-497
▁her	-498
xt	-499
▁gu	-500
▁off	-501
▁quest	-502
▁three	-503
ph	-504
▁same	-505
▁How	-506
ations	-507
ful	-508
red	-509
ese	-510
cess	-511
▁mean	-512
pe	-513
vel	-514
▁put	-515
ance	-516
▁Be	-517
▁br	-518
▁why	-519
body	-520
▁cour	-521
▁use	-522
▁wr	-523
▁didn	-524
▁great	-525
ens	-526
ning	-527
ject	-528
▁again	-529
ents	-530
ade	-531
ars	-532
illion	-533
be	-534
ark	-535
thing	-536
ank	-537
ary	-538
ys	-539
▁try	-540
ak	-541
du	-542
ial	-543
▁well	-544
ty	-545
▁sm	-546
▁sec	-547
▁If	-548
▁called	-549
▁course	-550
ric	-551
mer	-552
▁being	-553
ool	-554
ible	-555
self	-556
▁should	-557
▁fact	-558
▁through	-559
▁fl	-560
get	-561
ath	-562
▁story	-563
▁sim	-564
wn	-565
ting	-566
chn	-567
ons	-568
▁thought	-569
ower	-570
▁fa	-571
▁bit	-572
te	-573
ically	-574
form	-575
▁exam	-576
ved	-577
▁today	-578
▁Ch	-579
▁bec	-580
erest	-581
ors	-582
ious	-583
stem	-584
ual	-585
▁play	-586
▁ra	-587
▁percent	-588
ib	-589
▁gen	-590
▁techn	-591
olut	-592
▁him	-593
▁pers	-594
▁lear	-595
tern	-596
▁app	-597
▁import	-598
ics	-599
ord	-600
▁inc	-601
▁feel	-602
▁made	-603
▁started	-604
ft	-605
▁turn	-606
per	-607
▁doesn	-608
▁may	-609
▁comm	-610
▁interest	-611
▁idea	-612
▁human	-613
▁ask	-614
ology	-615
▁fo	-616
▁dec	-617
▁Because	-618
▁count	-619
▁K	-620
▁sur	-621
▁build	-622
▁change	-623
▁sc	-624
les	-625
▁went	-626
▁exper	-627
▁find	-628
▁end	-629
▁never	-630
vers	-631
▁system	-632
fore	-633
▁Let	-634
▁rem	-635
▁ob	-636
▁important	-637
ress	-638
▁long	-639
▁These	-640
▁bel	-641
▁give	-642
▁question	-643
fter	-644
ms	-645
▁em	-646
▁point	-647
ition	-648
▁child	-649
ah	-650
ile	-651
oss	-652
ost	-653
ied	-654
▁another	-655
ew	-656
▁inv	-657
▁last	-658
▁still	-659
igh	-660
▁own	-661
ave	-662
▁tra	-663
▁Here	-664
▁stud	-665
▁St	-666
▁ind	-667
ren	-668
kes	-669
ways	-670
▁hel	-671
▁design	-672
cial	-673
ub	-674
▁ins	-675
ize	-676
ull	-677
ction	-678
ating	-679
▁love	-680
ise	-681
▁bas	-682
▁sort	-683
▁better	-684
▁example	-685
▁car	-686
▁second	-687
cy	-688
ities	-689
▁sl	-690
▁She	-691
▁few	-692
▁person	-693
▁next	-694
ix	-695
▁sch	-696
▁hand	-697
ates	-698
▁brain	-699
we	-700
▁always	-701
▁ev	-702
▁ele	-703
old	-704
▁cr	-705
▁gl	-706
▁ke	-707
▁num	-708
▁One	-709
▁power	-710
▁trans	-711
▁kid	-712
icture	-713
▁beg	-714
▁water	-715
ian	-716
▁picture	-717
kay	-718
▁help	-719
▁wom	-720
▁comple	-721
atch	-722
▁hard	-723
ert	-724
▁might	-725
▁done	-726
▁came	-727
▁learn	-728
▁3	-729
▁gra	-730
▁after	-731
000	-732
▁belie	-733
▁creat	-734
▁before	-735
▁mon	-736
▁four	-737
▁underst	-738
oth	-739
▁rel	-740
▁No	-741
▁All	-742
▁Why	-743
ility	-744
▁read	-745
als	-746
con	-747
▁stu	-748
▁its	-749
ience	-750
▁word	-751
ily	-752
▁bo	-753
ward	-754
▁Thank	-755
▁place	-756
▁My	-757
ug	-758
▁ago	-759
▁cons	-760
▁used	-761
ng	-762
▁ent	-763
▁chang	-764
▁found	-765
▁wanted	-766
▁imag	-767
oney	-768
▁sci	-769
▁Af	-770
,000	-771
▁school	-772
▁produ	-773
ird	-774
▁mod	-775
▁old	-776
ense	-777
ited	-778
▁V	-779
▁fin	-780
read	-781
ature	-782
uc	-783
tty	-784
▁whole	-785
▁move	-786
▁ext	-787
ata	-788
iss	-789
▁plan	-790
sw	-791
und	-792
ular	-793
▁ever	-794
gether	-795
▁together	-796
az	-797
lic	-798
▁pol	-799
▁inter	-800
▁fam	-801
▁mom	-802
▁ser	-803
ness	-804
▁rec	-805
▁small	-806
meric	-807
▁looking	-808
▁light	-809
▁An	-810
▁art	-811
▁pretty	-812
▁answ	-813
▁care	-814
ac	-815
▁el	-816
▁When	-817
▁away	-818
▁high	-819
▁technology	-820
▁understand	-821
ably	-822
▁10	-823
▁med	-824
▁min	-825
▁att	-826
▁inst	-827
▁19	-828
▁met	-829
▁data	-830
▁each	-831
▁live	-832
▁Americ	-833
ope	-834
▁ter	-835
ather	-836
▁coll	-837
iness	-838
cept	-839
▁resp	-840
ered	-841
ists	-842
▁million	-843
▁pat	-844
▁Is	-845
▁money	-846
▁run	-847
▁dr	-848
▁str	-849
▁able	-850
▁took	-851
▁book	-852
▁quite	-853
ger	-854
▁expl	-855
eah	-856
▁Afric	-857
av	-858
▁poss	-859
alth	-860
▁interesting	-861
▁happened	-862
ks	-863
▁Do	-864
ative	-865
cer	-866
▁lar	-867
ings	-868
▁Ind	-869
atter	-870
olution	-871
▁eff	-872
▁cre	-873
▁op	-874
here	-875
gy	-876
▁bad	-877
▁five	-878
▁trying	-879
ets	-880
▁comes	-881
▁project	-882
oc	-883
orn	-884
▁20	-885
▁grow	-886
▁left	-887
▁prob	-888
▁5	-889
▁As	-890
▁la	-891
▁fut	-892
▁reas	-893
ount	-894
▁working	-895
▁ed	-896
▁cent	-897
ism	-898
▁less	-899
▁believe	-900
▁fun	-901
▁future	-902
▁stuff	-903
▁teach	-904
▁far	-905
ized	-906
▁cell	-907
▁everything	-908
▁sk	-909
▁beh	-910
nce	-911
formation	-912
ont	-913
ram	-914
▁supp	-915
▁comput	-916
ail	-917
▁bus	-918
▁means	-919
▁happens	-920
ced	-921
▁home	-922
▁number	-923
▁talking	-924
▁wond	-925
▁commun	-926
▁Un	-927
▁looks	-928
▁partic	-929
ruct	-930
▁ear	-931
▁mind	-932
co	-933
▁For	-934
▁goes	-935
▁thinking	-936
ract	-937
ween	-938
velop	-939
▁walk	-940
▁answer	-941
Wh	-942
aut	-943
alf	-944
▁stop	-945
arch	-946
ific	-947
▁getting	-948
▁probably	-949
ural	-950
▁kids	-951
lear	-952
▁uni	-953
ross	-954
▁Every	-955
▁di	-956
▁Okay	-957
▁doll	-958
▁else	-959
▁children	-960
its	-961
▁giv	-962
iting	-963
▁Se	-964
▁head	-965
▁moment	-966
ake	-967
▁mus	-968
ork	-969
▁sound	-970
▁between	-971
ock	-972
▁gener	-973
▁OK	-974
▁isn	-975
▁pie	-976
▁lead	-977
▁war	-978
▁anything	-979
▁Some	-980
▁anim	-981
▁best	-982
▁process	-983
gan	-984
▁rep	-985
selves	-986
▁begin	-987
conom	-988
ention	-989
iend	-990
▁simple	-991
ote	-992
▁vis	-993
ational	-994
▁develop	-995
▁guy	-996
▁side	-997
gest	-998
▁job	-999
▁bi	-1000
iew	-1001
ately	-1002
ott	-1003
ories	-1004
▁wrong	-1005
▁coming	-1006
oy	-1007
reen	-1008
▁cap	-1009
▁eas	-1010
li	-1011
me	-1012
res	-1013
▁form	-1014
▁wonder	-1015
▁country	-1016
ps	-1017
▁sub	-1018
▁billion	-1019
ands	-1020
ines	-1021
▁sol	-1022
ments	-1023
▁beaut	-1024
▁become	-1025
▁contro	-1026
imes	-1027
ital	-1028
ember	-1029
▁says	-1030
ertain	-1031
▁econom	-1032
ortun	-1033
▁food	-1034
led	-1035
▁enough	-1036
▁information	-1037
▁4	-1038
▁acc	-1039
▁top	-1040
▁month	-1041
▁elect	-1042
▁air	-1043
▁saw	-1044
▁open	-1045
▁space	-1046
▁wee	-1047
▁create	-1048
▁complete	-1049
ries	-1050
▁pres	-1051
any	-1052
▁matter	-1053
pr	-1054
▁opp	-1055
▁hope	-1056
▁makes	-1057
▁sense	-1058
▁times	-1059
▁making	-1060
nect	-1061
▁building	-1062
▁room	-1063
lf	-1064
▁pass	-1065
▁nothing	-1066
▁ey	-1067
ouse	-1068
▁Then	-1069
▁spec	-1070
▁friend	-1071
▁dollars	-1072
▁Or	-1073
▁pop	-1074
▁true	-1075
hip	-1076
▁maybe	-1077
▁half	-1078
▁seen	-1079
▁model	-1080
▁women	-1081
▁Africa	-1082
▁Chin	-1083
▁sing	-1084
aces	-1085
▁reg	-1086
▁works	-1087
ety	-1088
ken	-1089
most	-1090
▁asked	-1091
▁using	-1092
▁health	-1093
▁dem	-1094
▁set	-1095
ots	-1096
oice	-1097
▁case	-1098
▁sign	-1099
▁told	-1100
▁organ	-1101
io	-1102
angu	-1103
▁inf	-1104
▁hear	-1105
irl	-1106
▁ca	-1107
▁body	-1108
▁news	-1109
cus	-1110
▁eng	-1111
▁keep	-1112
▁prog	-1113
▁minut	-1114
▁People	-1115
▁ty	-1116
ogra	-1117
▁mach	-1118
air	-1119
ided	-1120
ident	-1121
ten	-1122
▁cur	-1123
▁inside	-1124
▁Not	-1125
▁suc	-1126
▁yet	-1127
▁conf	-1128
..	-1129
rib	-1130
▁list	-1131
▁mark	-1132
idd	-1133
ilt	-1134
ues	-1135
uck	-1136
ever	-1137
▁couple	-1138
ergy	-1139
▁cam	-1140
▁rob	-1141
▁char	-1142
▁business	-1143
▁basically	-1144
▁six	-1145
where	-1146
▁phys	-1147
▁reason	-1148
ream	-1149
▁wasn	-1150
▁living	-1151
gs	-1152
▁aut	-1153
▁bre	-1154
ality	-1155
▁ways	-1156
▁later	-1157
▁social	-1158
▁without	-1159
ready	-1160
▁days	-1161
▁test	-1162
iron	-1163
▁dist	-1164
▁sure	-1165
▁vide	-1166
▁connect	-1167
▁science	-1168
▁exc	-1169
llow	-1170
▁May	-1171
▁exact	-1172
▁langu	-1173
▁quick	-1174
▁stand	-1175
▁experience	-1176
ED	-1177
vious	-1178
▁kill	-1179
▁par	-1180
▁watch	-1181
▁already	-1182
▁sit	-1183
▁myself	-1184
▁wa	-1185
▁val	-1186
▁educ	-1187
▁hour	-1188
ograph	-1189
▁energy	-1190
ime	-1191
▁fil	-1192
▁cost	-1193
▁hist	-1194
▁possible	-1195
uge	-1196
▁..	-1197
ying	-1198
▁amaz	-1199
▁such	-1200
▁heard	-1201
▁young	-1202
ient	-1203
ures	-1204
▁equ	-1205
▁pain	-1206
ins	-1207
▁col	-1208
▁effect	-1209
▁pub	-1210
vern	-1211
▁add	-1212
▁self	-1213
,"	-1214
▁At	-1215
▁both	-1216
▁almost	-1217
▁family	-1218
Well	-1219
▁def	-1220
▁fore	-1221
▁guys	-1222
ught	-1223
▁che	-1224
verse	-1225
▁Can	-1226
▁iss	-1227
▁remember	-1228
osed	-1229
▁dra	-1230
▁mem	-1231
▁mor	-1232
▁words	-1233
▁completely	-1234
iter	-1235
▁prot	-1236
▁beautif	-1237
▁certain	-1238
ator	-1239
▁mag	-1240
▁control	-1241
ts	-1242
der	-1243
unch	-1244
▁New	-1245
▁det	-1246
▁must	-1247
▁amazing	-1248
ices	-1249
▁grou	-1250
▁name	-1251
▁incred	-1252
▁fig	-1253
allen	-1254
▁phot	-1255
▁rest	-1256
▁level	-1257
▁happening	-1258
cle	-1259
▁env	-1260
arent	-1261
▁ideas	-1262
▁Al	-1263
▁200	-1264
▁lives	-1265
▁music	-1266
▁changed	-1267
▁cor	-1268
itive	-1269
▁line	-1270
▁countries	-1271
▁...	-1272
▁God	-1273
▁ref	-1274
▁exactly	-1275
▁everybody	-1276
ash	-1277
ead	-1278
arth	-1279
ince	-1280
aster	-1281
▁third	-1282
▁experim	-1283
ier	-1284
▁sw	-1285
▁itself	-1286
▁single	-1287
▁TED	-1288
▁India	-1289
▁front	-1290
▁piece	-1291
ush	-1292
reme	-1293
▁cra	-1294
ulation	-1295
▁looked	-1296
ows	-1297
ield	-1298
▁abs	-1299
▁video	-1300
▁across	-1301
▁problems	-1302
▁mil	-1303
▁challen	-1304
side	-1305
▁share	-1306
▁saying	-1307
▁beautiful	-1308
▁city	-1309
▁glob	-1310
▁govern	-1311
▁decided	-1312
med	-1313
ner	-1314
ants	-1315
▁girl	-1316
▁bring	-1317
▁having	-1318
▁imagine	-1319
▁questions	-1320
rop	-1321
▁Earth	-1322
▁entire	-1323
▁On	-1324
▁knew	-1325
▁built	-1326
▁result	-1327
aper	-1328
▁Yeah	-1329
▁cult	-1330
▁couldn	-1331
▁environ	-1332
▁success	-1333
lish	-1334
▁class	-1335
▁const	-1336
▁planet	-1337
▁Right	-1338
▁months	-1339
up	-1340
▁cut	-1341
▁dev	-1342
uring	-1343
▁prof	-1344
▁language	-1345
ane	-1346
▁pe	-1347
less	-1348
▁thous	-1349
▁cancer	-1350
What	-1351
ages	-1352
▁age	-1353
▁ass	-1354
▁deep	-1355
▁night	-1356
ization	-1357
▁Fr	-1358
▁nature	-1359
▁computer	-1360
▁15	-1361
fect	-1362
▁men	-1363
▁heart	-1364
br	-1365
▁turns	-1366
▁object	-1367
de	-1368
▁fly	-1369
▁rese	-1370
▁Maybe	-1371
▁follow	-1372
bs	-1373
▁Ar	-1374
▁ret	-1375
▁Just	-1376
▁soci	-1377
▁history	-1378
man	-1379
bers	-1380
▁pay	-1381
ected	-1382
▁often	-1383
▁woman	-1384
▁particular	-1385
no	-1386
▁lab	-1387
▁cond	-1388
▁United	-1389
▁To	-1390
▁kinds	-1391
▁Intern	-1392
▁became	-1393
▁z	-1394
ene	-1395
outh	-1396
ully	-1397
ware	-1398
iddle	-1399
istic	-1400
▁dire	-1401
▁face	-1402
▁huge	-1403
▁adv	-1404
▁aff	-1405
▁nat	-1406
▁gets	-1407
undred	-1408
dd	-1409
icult	-1410
▁education	-1411
gr	-1412
▁[	-1413
cing	-1414
olute	-1415
▁deal	-1416
▁hold	-1417
▁land	-1418
▁view	-1419
▁close	-1420
▁happy	-1421
▁scient	-1422
ery	-1423
oud	-1424
lease	-1425
▁wind	-1426
▁learned	-1427
▁product	-1428
ling	-1429
▁Our	-1430
▁mar	-1431
▁mother	-1432
▁research	-1433
▁7	-1434
ior	-1435
omes	-1436
▁sca	-1437
ivity	-1438
▁black	-1439
▁figure	-1440
▁worked	-1441
▁America	-1442
aps	-1443
▁Sh	-1444
▁clear	-1445
▁disco	-1446
ife	-1447
land	-1448
line	-1449
▁cir	-1450
▁won	-1451
▁tool	-1452
▁large	-1453
▁global	-1454
els	-1455
▁sex	-1456
▁miss	-1457
▁polit	-1458
▁difficult	-1459
▁9	-1460
app	-1461
ove	-1462
uro	-1463
▁easy	-1464
▁gave	-1465
aterial	-1466
▁species	-1467
ases	-1468
ives	-1469
ivid	-1470
▁vir	-1471
▁hundred	-1472
▁environment	-1473
ex	-1474
▁eat	-1475
▁opt	-1476
▁game	-1477
ret	-1478
ury	-1479
▁eyes	-1480
▁once	-1481
▁treat	-1482
▁places	-1483
▁machine	-1484
▁obvious	-1485
atic	-1486
ional	-1487
▁ones	-1488
▁minutes	-1489
▁50	-1490
ones	-1491
▁100	-1492
▁ris	-1493
▁free	-1494
▁States	-1495
▁stories	-1496
▁opportun	-1497
▁wonderful	-1498
▁past	-1499
▁China	-1500
▁house	-1501
▁train	-1502
▁contin	-1503
▁moving	-1504
ike	-1505
asure	-1506
udience	-1507
▁30	-1508
ames	-1509
ired	-1510
▁bott	-1511
▁focus	-1512
▁state	-1513
ey	-1514
▁6	-1515
etic	-1516
▁pos	-1517
▁lots	-1518
▁meet	-1519
▁mess	-1520
▁eight	-1521
▁incre	-1522
▁short	-1523
▁somebody	-1524
att	-1525
ctor	-1526
ined	-1527
ples	-1528
▁Yes	-1529
▁listen	-1530
▁perfect	-1531
▁Internet	-1532
▁absolute	-1533
imate	-1534
▁dise	-1535
▁norm	-1536
▁pred	-1537
▁appro	-1538
▁takes	-1539
▁within	-1540
▁complex	-1541
▁material	-1542
ged	-1543
▁leave	-1544
▁order	-1545
▁taken	-1546
▁difference	-1547
gle	-1548
not	-1549
ering	-1550
cl	-1551
ians	-1552
sy	-1553
▁Any	-1554
▁8	-1555
ters	-1556
▁bro	-1557
▁stay	-1558
▁struct	-1559
▁experiment	-1560
The	-1561
ider	-1562
acter	-1563
▁pick	-1564
itting	-1565
▁seven	-1566
▁universe	-1567
ium	-1568
▁oil	-1569
ision	-1570
▁Where	-1571
▁study	-1572
▁Oh	-1573
▁oce	-1574
▁fail	-1575
▁fast	-1576
▁image	-1577
▁turned	-1578
▁serious	-1579
ats	-1580
nov	-1581
ode	-1582
▁hy	-1583
▁net	-1584
▁yes	-1585
wards	-1586
▁First	-1587
▁exist	-1588
▁hours	-1589
▁taking	-1590
▁individ	-1591
erv	-1592
rand	-1593
ules	-1594
▁Eng	-1595
▁Who	-1596
▁ill	-1597
▁born	-1598
▁draw	-1599
▁step	-1600
▁dream	-1601
▁indust	-1602
▁public	-1603
▁someone	-1604
▁beginning	-1605
to	-1606
ien	-1607
▁sym	-1608
▁typ	-1609
▁sens	-1610
▁cells	-1611
▁ourselves	-1612
▁mic	-1613
ented	-1614
▁cool	-1615
▁fear	-1616
verage	-1617
▁needs	-1618
▁cannot	-1619
▁needed	-1620
▁finally	-1621
▁natural	-1622
eth	-1623
ibly	-1624
▁tot	-1625
▁win	-1626
▁tried	-1627
ability	-1628
▁though	-1629
▁yourself	-1630
▁individual	-1631
ony	-1632
ply	-1633
▁mot	-1634
aring	-1635
▁math	-1636
▁speak	-1637
▁while	-1638
▁cities	-1639
▁animals	-1640
▁friends	-1641
▁reality	-1642
▁learning	-1643
aw	-1644
You	-1645
gen	-1646
▁jo	-1647
▁mass	-1648
▁nice	-1649
▁explain	-1650
▁interested	-1651
ern	-1652
urs	-1653
▁Re	-1654
▁rad	-1655
▁film	-1656
▁along	-1657
▁early	-1658
▁field	-1659
▁middle	-1660
▁created	-1661
▁community	-1662
cc	-1663
ale	-1664
ogn	-1665
itch	-1666
ither	-1667
▁allow	-1668
▁liter	-1669
▁spend	-1670
▁behind	-1671
▁everyone	-1672
ude	-1673
▁unt	-1674
ribut	-1675
▁arch	-1676
▁sent	-1677
▁extra	-1678
▁surpr	-1679
▁extreme	-1680
Oh	-1681
que	-1682
▁fre	-1683
▁green	-1684
▁hands	-1685
▁paper	-1686
▁market	-1687
▁parent	-1688
▁outside	-1689
▁students	-1690
▁law	-1691
▁Most	-1692
▁week	-1693
▁behav	-1694
▁engine	-1695
▁American	-1696
▁sometimes	-1697
unt	-1698
▁Of	-1699
pect	-1700
▁Are	-1701
▁rev	-1702
▁shap	-1703
▁began	-1704
▁since	-1705
▁thank	-1706
▁company	-1707
end	-1708
ral	-1709
ised	-1710
ming	-1711
▁dig	-1712
▁red	-1713
▁common	-1714
▁against	-1715
▁quickly	-1716
▁approach	-1717
ift	-1718
ped	-1719
rew	-1720
ides	-1721
▁arg	-1722
▁loc	-1723
▁dead	-1724
ential	-1725
▁break	-1726
▁pract	-1727
▁longer	-1728
No	-1729
▁Br	-1730
ared	-1731
ried	-1732
▁buy	-1733
▁innov	-1734
▁simply	-1735
rug	-1736
▁av	-1737
aking	-1738
▁aren	-1739
▁full	-1740
▁relations	-1741
▁er	-1742
▁dep	-1743
ising	-1744
▁wall	-1745
idence	-1746
▁robot	-1747
bo	-1748
▁'	-1749
ether	-1750
▁fund	-1751
▁stre	-1752
▁guess	-1753
ination	-1754
▁record	-1755
▁government	-1756
▁da	-1757
▁Don	-1758
▁ant	-1759
▁bab	-1760
▁key	-1761
astic	-1762
▁group	-1763
▁phone	-1764
▁expect	-1765
▁wouldn	-1766
▁absolutely	-1767
erm	-1768
ext	-1769
vor	-1770
face	-1771
ouch	-1772
▁fall	-1773
year	-1774
▁tem	-1775
▁var	-1776
▁York	-1777
▁blue	-1778
▁fish	-1779
▁issue	-1780
▁shows	-1781
▁running	-1782
▁electric	-1783
▁interact	-1784
▁themselves	-1785
elt	-1786
▁leg	-1787
▁lim	-1788
▁sho	-1789
anger	-1790
fully	-1791
ients	-1792
▁jour	-1793
▁situ	-1794
▁pattern	-1795
▁systems	-1796
▁12	-1797
rees	-1798
▁ice	-1799
ially	-1800
olved	-1801
▁Those	-1802
▁fight	-1803
▁anybody	-1804
▁program	-1805
▁ap	-1806
itut	-1807
sych	-1808
▁Somet	-1809
▁books	-1810
versity	-1811
▁society	-1812
▁challenge	-1813
▁opportunity	-1814
ler	-1815
uth	-1816
work	-1817
▁mov	-1818
inary	-1819
▁oper	-1820
▁favor	-1821
▁knows	-1822
▁disease	-1823
▁communic	-1824
xy	-1825
▁cle	-1826
▁sug	-1827
ental	-1828
thers	-1829
▁lost	-1830
▁orig	-1831
▁wish	-1832
ibility	-1833
▁father	-1834
Th	-1835
lt	-1836
eng	-1837
cond	-1838
ging	-1839
orth	-1840
▁Look	-1841
▁size	-1842
▁media	-1843
▁terms	-1844
▁seeing	-1845
▁numbers	-1846
▁present	-1847
▁respons	-1848
ney	-1849
▁18	-1850
▁Chr	-1851
▁box	-1852
▁vers	-1853
▁write	-1854
▁behavior	-1855
▁population	-1856
sh	-1857
▁die	-1858
▁dark	-1859
▁pull	-1860
▁team	-1861
▁weeks	-1862
▁theory	-1863
ny	-1864
zy	-1865
▁vol	-1866
anies	-1867
▁foot	-1868
▁colle	-1869
▁death	-1870
▁least	-1871
▁scale	-1872
ological	-1873
▁collect	-1874
▁measure	-1875
ee	-1876
▁Z	-1877
ole	-1878
vent	-1879
▁sle	-1880
cious	-1881
ption	-1882
▁Euro	-1883
▁feet	-1884
▁okay	-1885
▁white	-1886
▁amount	-1887
▁invest	-1888
▁concept	-1889
▁relationship	-1890
of	-1891
osp	-1892
haps	-1893
▁hot	-1894
vered	-1895
▁area	-1896
▁felt	-1897
▁rock	-1898
▁color	-1899
▁until	-1900
▁images	-1901
▁changes	-1902
▁photograph	-1903
hor	-1904
▁ve	-1905
ales	-1906
ased	-1907
ilar	-1908
inal	-1909
▁ess	-1910
▁hor	-1911
▁squ	-1912
▁prop	-1913
▁psych	-1914
▁recent	-1915
▁starting	-1916
oh	-1917
ero	-1918
omen	-1919
▁sun	-1920
▁With	-1921
▁desc	-1922
▁fing	-1923
▁forward	-1924
▁incredible	-1925
oll	-1926
ror	-1927
▁sn	-1928
more	-1929
room	-1930
▁Tod	-1931
▁emb	-1932
▁non	-1933
itect	-1934
▁sold	-1935
▁camer	-1936
▁press	-1937
▁reach	-1938
▁bottom	-1939
▁English	-1940
▁movement	-1941
aly	-1942
ges	-1943
iol	-1944
ards	-1945
ived	-1946
▁occ	-1947
▁repl	-1948
▁gives	-1949
▁grand	-1950
▁micro	-1951
▁super	-1952
▁Europe	-1953
▁talked	-1954
▁average	-1955
▁century	-1956
▁predict	-1957
ron	-1958
ison	-1959
▁prov	-1960
▁leaders	-1961
▁special	-1962
ump	-1963
▁Am	-1964
▁cal	-1965
▁low	-1966
▁sil	-1967
▁sum	-1968
ument	-1969
▁feed	-1970
▁stat	-1971
▁Today	-1972
▁blood	-1973
▁ocean	-1974
▁seems	-1975
▁touch	-1976
▁repres	-1977
▁powerful	-1978
▁bar	-1979
▁Like	-1980
▁fire	-1981
▁force	-1982
▁worth	-1983
ression	-1984
▁animal	-1985
▁feeling	-1986
▁attention	-1987
▁companies	-1988
!"	-1989
apt	-1990
han	-1991
ton	-1992
ule	-1993
▁40	-1994
▁By	-1995
pend	-1996
rodu	-1997
▁gone	-1998
▁ready	-1999
▁consum	-2000
▁rather	-2001
▁telling	-2002
▁solution	-2003
row	-2004
▁circ	-2005
▁yeah	-2006
assion	-2007
▁alone	-2008
▁haven	-2009
▁value	-2010
▁direct	-2011
▁Two	-2012
▁obs	-2013
▁ball	-2014
▁dest	-2015
▁mill	-2016
▁seem	-2017
▁slow	-2018
▁recogn	-2019
▁brought	-2020
▁morning	-2021
▁support	-2022
hy	-2023
▁pot	-2024
iving	-2025
izing	-2026
▁poor	-2027
▁asking	-2028
▁danger	-2029
▁strong	-2030
▁playing	-2031
▁examples	-2032
▁pictures	-2033
lec	-2034
▁Com	-2035
▁trad	-2036
▁Which	-2037
▁famil	-2038
▁normal	-2039
▁others	-2040
▁parents	-2041
▁personal	-2042
▁architect	-2043
NA	-2044
racy	-2045
▁Your	-2046
▁sell	-2047
▁surv	-2048
▁choice	-2049
▁writing	-2050
▁audience	-2051
▁evolution	-2052
▁tw	-2053
dden	-2054
lect	-2055
ledge	-2056
▁code	-2057
▁main	-2058
▁text	-2059
▁parts	-2060
▁during	-2061
▁sudden	-2062
▁economic	-2063
▁physical	-2064
asc	-2065
▁ge	-2066
onse	-2067
rent	-2068
▁Even	-2069
▁post	-2070
▁risk	-2071
▁polic	-2072
▁anymore	-2073
▁culture	-2074
jor	-2075
head	-2076
ills	-2077
▁deg	-2078
ively	-2079
ource	-2080
▁mult	-2081
itions	-2082
▁impro	-2083
▁extremely	-2084
▁thousands	-2085
amp	-2086
▁Im	-2087
▁cy	-2088
pped	-2089
ators	-2090
ouble	-2091
▁emot	-2092
▁fair	-2093
▁starts	-2094
▁protect	-2095
▁response	-2096
0.	-2097
▁sat	-2098
▁send	-2099
▁breat	-2100
▁defin	-2101
▁known	-2102
▁rules	-2103
▁wants	-2104
▁device	-2105
▁either	-2106
▁structure	-2107
▁Ag	-2108
▁insp	-2109
▁Think	-2110
▁major	-2111
▁humans	-2112
▁please	-2113
▁visual	-2114
▁economy	-2115
▁growing	-2116
▁sitting	-2117
▁obviously	-2118
nam	-2119
oon	-2120
▁De	-2121
▁Le	-2122
vert	-2123
▁har	-2124
▁near	-2125
▁prin	-2126
▁road	-2127
▁soft	-2128
▁viol	-2129
▁event	-2130
▁sounds	-2131
▁becomes	-2132
▁supposed	-2133
▁situation	-2134
arr	-2135
▁25	-2136
▁Ph	-2137
chie	-2138
▁arm	-2139
▁bene	-2140
▁cars	-2141
▁died	-2142
▁tend	-2143
▁truth	-2144
▁similar	-2145
iny	-2146
▁aw	-2147
oose	-2148
osph	-2149
▁fur	-2150
light	-2151
▁hosp	-2152
▁vill	-2153
▁given	-2154
▁ident	-2155
▁molec	-2156
▁sleep	-2157
▁anyone	-2158
▁bigger	-2159
▁ground	-2160
▁perform	-2161
ai	-2162
▁Sp	-2163
▁af	-2164
▁ce	-2165
▁bed	-2166
▁fem	-2167
ished	-2168
▁requ	-2169
▁games	-2170
▁relig	-2171
▁smart	-2172
▁intell	-2173
▁meaning	-2174
▁designed	-2175
▁literally	-2176
iet	-2177
ned	-2178
oke	-2179
ung	-2180
ains	-2181
chan	-2182
▁arr	-2183
▁enc	-2184
▁chem	-2185
▁save	-2186
▁moved	-2187
▁stage	-2188
▁spread	-2189
▁reasons	-2190
▁political	-2191
oor	-2192
umb	-2193
ites	-2194
▁DNA	-2195
▁grew	-2196
▁sand	-2197
ources	-2198
▁spent	-2199
▁stick	-2200
▁depend	-2201
▁impact	-2202
▁largest	-2203
rom	-2204
▁fu	-2205
▁flu	-2206
urity	-2207
▁rain	-2208
▁soon	-2209
▁type	-2210
▁movie	-2211
▁trust	-2212
▁access	-2213
▁Another	-2214
▁instead	-2215
▁whether	-2216
▁certainly	-2217
▁everywhere	-2218
by	-2219
lu	-2220
par	-2221
▁pu	-2222
orld	-2223
imens	-2224
▁crit	-2225
▁rate	-2226
ensive	-2227
▁speed	-2228
▁tools	-2229
▁voice	-2230
▁attack	-2231
▁Chinese	-2232
▁medical	-2233
▁industry	-2234
▁compassion	-2235
▁incredibly	-2236
eed	-2237
▁es	-2238
▁ast	-2239
▁din	-2240
▁dog	-2241
▁ult	-2242
▁Inst	-2243
▁South	-2244
▁miles	-2245
▁virus	-2246
▁necess	-2247
▁nobody	-2248
▁transp	-2249
▁profess	-2250
▁suggest	-2251
▁patients	-2252
▁realized	-2253
ortunately	-2254
zz	-2255
hood	-2256
▁sea	-2257
arily	-2258
ified	-2259
▁camp	-2260
▁poll	-2261
iction	-2262
▁After	-2263
▁democ	-2264
▁worse	-2265
▁convers	-2266
▁Go	-2267
ivil	-2268
quen	-2269
used	-2270
▁eye	-2271
usion	-2272
▁conv	-2273
ground	-2274
▁crazy	-2275
▁drive	-2276
▁store	-2277
▁giving	-2278
▁modern	-2279
▁produce	-2280
for	-2281
▁emp	-2282
▁gas	-2283
▁priv	-2284
▁serv	-2285
▁suff	-2286
▁wife	-2287
▁carry	-2288
▁girls	-2289
▁react	-2290
▁wrote	-2291
▁mechan	-2292
▁complic	-2293
▁perhaps	-2294
▁favorite	-2295
ala	-2296
bon	-2297
bor	-2298
iant	-2299
irth	-2300
view	-2301
▁adm	-2302
▁cop	-2303
▁hon	-2304
▁map	-2305
▁tar	-2306
▁fine	-2307
ilities	-2308
▁travel	-2309
▁extraord	-2310
▁thousand	-2311
▁happiness	-2312
cul	-2313
▁ur	-2314
orry	-2315
ploy	-2316
▁lay	-2317
▁ste	-2318
ances	-2319
▁emer	-2320
▁areas	-2321
▁table	-2322
▁compet	-2323
▁disapp	-2324
▁growth	-2325
▁message	-2326
▁changing	-2327
▁evidence	-2328
▁innovation	-2329
▁revolution	-2330
acy	-2331
por	-2332
put	-2333
idge	-2334
▁His	-2335
▁pur	-2336
agine	-2337
▁Again	-2338
▁benef	-2339
▁brand	-2340
▁mount	-2341
▁chance	-2342
▁finger	-2343
▁issues	-2344
▁mathem	-2345
▁pieces	-2346
entially	-2347
▁dangerous	-2348
yond	-2349
▁Goo	-2350
▁boy	-2351
▁path	-2352
▁song	-2353
ughter	-2354
▁plant	-2355
▁center	-2356
▁street	-2357
▁biggest	-2358
▁context	-2359
▁teachers	-2360
▁developed	-2361
▁knowledge	-2362
com	-2363
akes	-2364
▁Did	-2365
▁log	-2366
▁bird	-2367
▁achie	-2368
▁magic	-2369
▁track	-2370
▁forest	-2371
▁return	-2372
▁subject	-2373
▁totally	-2374
▁character	-2375
ban	-2376
oph	-2377
▁clos	-2378
▁cook	-2379
▁door	-2380
▁based	-2381
▁check	-2382
▁slide	-2383
▁trick	-2384
▁Google	-2385
▁ability	-2386
▁further	-2387
▁patient	-2388
▁surface	-2389
▁recently	-2390
▁technolog	-2391
ma	-2392
iar	-2393
the	-2394
une	-2395
ades	-2396
itary	-2397
rible	-2398
veral	-2399
▁Does	-2400
▁baby	-2401
▁comb	-2402
▁diag	-2403
▁skin	-2404
▁above	-2405
▁apart	-2406
▁cause	-2407
▁cross	-2408
▁peace	-2409
▁shape	-2410
▁office	-2411
▁screen	-2412
▁current	-2413
▁network	-2414
fortunately	-2415
ox	-2416
sc	-2417
▁Q	-2418
▁Sw	-2419
▁Pro	-2420
▁fix	-2421
▁neg	-2422
▁nuc	-2423
▁pan	-2424
▁vac	-2425
ister	-2426
▁luck	-2427
▁rich	-2428
▁civil	-2429
▁clean	-2430
ruction	-2431
▁proper	-2432
▁Imagine	-2433
▁exciting	-2434
▁hundreds	-2435
ik	-2436
la	-2437
men	-2438
pid	-2439
eter	-2440
ival	-2441
ored	-2442
tend	-2443
cient	-2444
▁fant	-2445
▁stra	-2446
▁aware	-2447
▁Second	-2448
▁minute	-2449
▁remark	-2450
▁strate	-2451
▁excited	-2452
▁results	-2453
▁conscious	-2454
Why	-2455
bol	-2456
oub	-2457
▁ri	-2458
oring	-2459
▁corn	-2460
erence	-2461
▁North	-2462
▁medic	-2463
▁plants	-2464
▁hospital	-2465
▁Sometimes	-2466
▁transform	-2467
ask	-2468
medi	-2469
▁mob	-2470
oices	-2471
pping	-2472
▁safe	-2473
ishing	-2474
ration	-2475
▁basic	-2476
▁worry	-2477
itional	-2478
▁action	-2479
▁notice	-2480
▁surger	-2481
▁progress	-2482
▁computers	-2483
▁discovered	-2484
▁successful	-2485
▁development	-2486
fer	-2487
iod	-2488
oms	-2489
▁Ex	-2490
▁pa	-2491
aged	-2492
▁bom	-2493
▁son	-2494
▁ton	-2495
ously	-2496
owing	-2497
▁cart	-2498
▁prom	-2499
▁spir	-2500
▁wait	-2501
▁World	-2502
▁adult	-2503
▁birth	-2504
▁ended	-2505
▁glass	-2506
▁local	-2507
▁neigh	-2508
▁beyond	-2509
▁groups	-2510
▁robots	-2511
▁slight	-2512
▁vision	-2513
▁climate	-2514
▁journey	-2515
▁schools	-2516
▁complicated	-2517
▁electricity	-2518
wh	-2519
ze	-2520
lev	-2521
come	-2522
fort	-2523
like	-2524
▁bur	-2525
▁imm	-2526
▁syn	-2527
iling	-2528
istan	-2529
▁onto	-2530
▁camera	-2531
▁choose	-2532
▁target	-2533
▁village	-2534
▁positive	-2535
It	-2536
aur	-2537
ids	-2538
ran	-2539
▁Pl	-2540
▁See	-2541
▁div	-2542
▁gent	-2543
▁goal	-2544
▁push	-2545
▁avail	-2546
▁lived	-2547
▁sorts	-2548
▁carbon	-2549
▁secret	-2550
▁allowed	-2551
▁digital	-2552
▁objects	-2553
▁technologies	-2554
▁extraordinary	-2555
rad	-2556
▁ep	-2557
apan	-2558
ball	-2559
lebr	-2560
▁mis	-2561
asing	-2562
▁mist	-2563
▁redu	-2564
quence	-2565
▁Japan	-2566
▁alive	-2567
▁anyway	-2568
▁detail	-2569
▁fundam	-2570
▁introdu	-2571
▁passion	-2572
▁seconds	-2573
▁several	-2574
▁smaller	-2575
▁strange	-2576
▁towards	-2577
▁walking	-2578
▁function	-2579
▁distribut	-2580
We	-2581
pre	-2582
airs	-2583
lict	-2584
▁Act	-2585
▁War	-2586
▁bal	-2587
▁magn	-2588
▁nine	-2589
▁phen	-2590
▁tree	-2591
▁solve	-2592
▁intern	-2593
▁online	-2594
▁showed	-2595
▁teacher	-2596
▁projects	-2597
▁suddenly	-2598
▁whatever	-2599
▁generation	-2600
bit	-2601
ohn	-2602
▁14	-2603
▁Ad	-2604
rast	-2605
▁dro	-2606
▁tiny	-2607
▁wire	-2608
inated	-2609
isions	-2610
ressed	-2611
▁among	-2612
▁funny	-2613
▁simpl	-2614
▁actual	-2615
▁immedi	-2616
▁killed	-2617
▁taught	-2618
▁experien	-2619
▁involved	-2620
▁painting	-2621
▁available	-2622
mb	-2623
▁X	-2624
How	-2625
amb	-2626
ked	-2627
udd	-2628
uit	-2629
▁ec	-2630
ears	-2631
erve	-2632
▁rid	-2633
▁fasc	-2634
▁pack	-2635
▁catch	-2636
▁meant	-2637
▁solar	-2638
▁transl	-2639
▁college	-2640
▁security	-2641
▁software	-2642
▁scientific	-2643
ays	-2644
rab	-2645
ted	-2646
▁dy	-2647
abor	-2648
book	-2649
cise	-2650
rage	-2651
raid	-2652
rate	-2653
▁dam	-2654
▁fit	-2655
▁hit	-2656
▁sky	-2657
ained	-2658
antly	-2659
▁Many	-2660
▁Very	-2661
▁fill	-2662
▁star	-2663
▁Would	-2664
▁bunch	-2665
▁enorm	-2666
▁doctor	-2667
▁period	-2668
▁square	-2669
▁mention	-2670
▁respond	-2671
▁version	-2672
▁phenomen	-2673
anc	-2674
ann	-2675
edom	-2676
onst	-2677
▁dom	-2678
▁lad	-2679
▁pen	-2680
board	-2681
istics	-2682
▁drink	-2683
▁genes	-2684
▁oppos	-2685
▁waste	-2686
▁afraid	-2687
▁celebr	-2688
▁gentle	-2689
▁points	-2690
▁policy	-2691
▁princi	-2692
olutions	-2693
▁African	-2694
▁intellig	-2695
▁somewhere	-2696
lo	-2697
▁—	-2698
ief	-2699
ina	-2700
ips	-2701
joy	-2702
ops	-2703
▁11	-2704
▁Ab	-2705
▁Ge	-2706
rest	-2707
▁Cal	-2708
▁dad	-2709
▁incl	-2710
▁link	-2711
▁role	-2712
iation	-2713
▁blind	-2714
▁tells	-2715
▁Christ	-2716
▁accept	-2717
▁afford	-2718
▁memory	-2719
▁capital	-2720
▁nuclear	-2721
▁creative	-2722
▁mathemat	-2723
▁17	-2724
▁Mar	-2725
atory	-2726
ining	-2727
▁drug	-2728
▁jobs	-2729
▁legs	-2730
▁lose	-2731
▁meth	-2732
▁port	-2733
▁prim	-2734
▁yell	-2735
▁activ	-2736
▁faster	-2737
▁forget	-2738
▁general	-2739
▁reading	-2740
▁require	-2741
▁stopped	-2742
▁surgery	-2743
▁daughter	-2744
▁national	-2745
▁fantastic	-2746
▁resources	-2747
oes	-2748
rel	-2749
▁199	-2750
▁Per	-2751
▁kil	-2752
▁lea	-2753
▁lif	-2754
▁oxy	-2755
itten	-2756
ounds	-2757
verty	-2758
▁West	-2759
▁bank	-2760
▁deli	-2761
▁gala	-2762
▁page	-2763
▁cloud	-2764
▁cover	-2765
▁minds	-2766
▁multi	-2767
ception	-2768
osphere	-2769
▁saving	-2770
▁products	-2771
▁democracy	-2772
▁16	-2773
iger	-2774
ribe	-2775
▁Bra	-2776
▁swe	-2777
▁John	-2778
▁Take	-2779
▁card	-2780
▁mine	-2781
▁board	-2782
▁conse	-2783
▁dance	-2784
itation	-2785
▁temper	-2786
▁usually	-2787
▁waiting	-2788
▁machines	-2789
▁Everybody	-2790
▁remarkable	-2791
cr	-2792
▁13	-2793
▁Te	-2794
arks	-2795
cape	-2796
oper	-2797
ript	-2798
ster	-2799
▁hur	-2800
ctors	-2801
igher	-2802
▁Each	-2803
▁flow	-2804
▁kept	-2805
▁sick	-2806
uments	-2807
▁adapt	-2808
▁enjoy	-2809
▁final	-2810
▁lands	-2811
ossible	-2812
▁bought	-2813
▁larger	-2814
▁useful	-2815
▁poverty	-2816
▁decision	-2817
▁discover	-2818
▁potential	-2819
ify	-2820
met	-2821
oty	-2822
unk	-2823
▁Cl	-2824
amed	-2825
ches	-2826
iers	-2827
▁aid	-2828
▁nut	-2829
▁ran	-2830
▁whe	-2831
itude	-2832
oming	-2833
▁Brit	-2834
▁Good	-2835
▁capt	-2836
▁cris	-2837
cially	-2838
estern	-2839
others	-2840
▁Three	-2841
▁costs	-2842
▁separ	-2843
▁trees	-2844
▁bacter	-2845
▁brains	-2846
▁launch	-2847
▁weight	-2848
▁content	-2849
▁matters	-2850
▁invented	-2851
▁architecture	-2852
enn	-2853
imb	-2854
nces	-2855
ping	-2856
rect	-2857
rial	-2858
ured	-2859
ulate	-2860
useum	-2861
▁More	-2862
▁neur	-2863
▁puzz	-2864
▁shot	-2865
▁swim	-2866
ustain	-2867
▁encou	-2868
▁floor	-2869
▁graph	-2870
▁older	-2871
▁higher	-2872
▁models	-2873
▁remind	-2874
▁symbol	-2875
▁activity	-2876
▁familiar	-2877
▁institut	-2878
▁military	-2879
▁opposite	-2880
▁represent	-2881
▁developing	-2882
▁essentially	-2883
uly	-2884
▁80	-2885
▁TV	-2886
ffic	-2887
hyth	-2888
iven	-2889
oint	-2890
orts	-2891
▁Man	-2892
▁est	-2893
▁tre	-2894
attle	-2895
▁farm	-2896
▁uses	-2897
ission	-2898
▁airpl	-2899
▁cases	-2900
▁dynam	-2901
▁print	-2902
▁affect	-2903
▁beauty	-2904
▁spirit	-2905
▁threat	-2906
▁walked	-2907
▁physics	-2908
▁putting	-2909
▁respect	-2910
▁showing	-2911
▁millions	-2912
▁position	-2913
▁straight	-2914
▁expensive	-2915
▁particles	-2916
▁Everything	-2917
▁scientists	-2918
imp	-2919
▁et	-2920
cuss	-2921
fact	-2922
rugs	-2923
uses	-2924
▁Her	-2925
▁cat	-2926
▁led	-2927
▁sal	-2928
eless	-2929
▁base	-2930
▁forg	-2931
▁hair	-2932
▁site	-2933
▁term	-2934
inally	-2935
▁assum	-2936
▁block	-2937
▁lower	-2938
▁match	-2939
▁metap	-2940
▁throw	-2941
▁circle	-2942
▁compon	-2943
▁series	-2944
▁account	-2945
▁central	-2946
▁freedom	-2947
▁realize	-2948
▁student	-2949
▁enormous	-2950
▁neighbor	-2951
▁perspect	-2952
▁slightly	-2953
▁temperature	-2954
▁particularly	-2955
ait	-2956
ued	-2957
▁24	-2958
▁60	-2959
▁Tw	-2960
▁ut	-2961
ghan	-2962
ndom	-2963
ring	-2964
▁Nob	-2965
▁ann	-2966
▁deb	-2967
▁fle	-2968
▁gun	-2969
▁ine	-2970
ables	-2971
odies	-2972
orrow	-2973
▁hell	-2974
▁prep	-2975
▁purp	-2976
▁Great	-2977
▁Their	-2978
▁loved	-2979
▁motiv	-2980
▁manage	-2981
▁random	-2982
▁rights	-2983
▁source	-2984
▁quality	-2985
▁practice	-2986
▁terrible	-2987
▁buildings	-2988
▁connected	-2989
▁impossible	-2990
▁understanding	-2991
bb	-2992
dom	-2993
how	-2994
mic	-2995
rap	-2996
▁21	-2997
▁ir	-2998
▁oh	-2999
sect	-3000
▁eth	-3001
▁fuel	-3002
▁roll	-3003
▁concl	-3004
▁labor	-3005
▁moral	-3006
▁trial	-3007
▁types	-3008
▁weird	-3009
▁beings	-3010
▁concer	-3011
▁prison	-3012
▁unique	-3013
▁himself	-3014
▁Actually	-3015
▁consider	-3016
▁teaching	-3017
▁Americans	-3018
▁decisions	-3019
▁listening	-3020
▁recognize	-3021
▁eventually	-3022
▁immediately	-3023
▁conversation	-3024
cut	-3025
ios	-3026
nter	-3027
resh	-3028
wood	-3029
▁198	-3030
▁Car	-3031
▁Was	-3032
▁cry	-3033
▁mut	-3034
▁ple	-3035
▁Char	-3036
▁Will	-3037
▁burn	-3038
▁rece	-3039
▁vict	-3040
▁earth	-3041
▁effic	-3042
▁feels	-3043
▁instr	-3044
▁monke	-3045
▁total	-3046
▁weren	-3047
▁allows	-3048
▁easier	-3049
▁indeed	-3050
▁invent	-3051
▁clearly	-3052
▁finding	-3053
▁missing	-3054
▁trouble	-3055
▁Audience	-3056
▁collabor	-3057
▁conflict	-3058
▁watching	-3059
▁interview	-3060
▁materials	-3061
▁solutions	-3062
let	-3063
ray	-3064
▁Bl	-3065
▁Me	-3066
aign	-3067
icle	-3068
inct	-3069
▁fra	-3070
▁ign	-3071
aries	-3072
epend	-3073
▁From	-3074
▁Once	-3075
▁hang	-3076
▁rise	-3077
▁town	-3078
▁upon	-3079
▁Could	-3080
▁optim	-3081
▁price	-3082
▁quant	-3083
▁stars	-3084
▁Afghan	-3085
▁author	-3086
▁calcul	-3087
▁decide	-3088
pecially	-3089
▁biology	-3090
▁express	-3091
▁publish	-3092
▁standing	-3093
▁creativity	-3094
oid	-3095
▁DH	-3096
over	-3097
▁500	-3098
▁exh	-3099
▁bill	-3100
▁doub	-3101
▁tail	-3102
▁task	-3103
▁autom	-3104
▁earli	-3105
▁forms	-3106
▁influ	-3107
▁career	-3108
▁crisis	-3109
▁determ	-3110
▁except	-3111
▁flying	-3112
▁volunt	-3113
▁Instead	-3114
▁describ	-3115
▁univers	-3116
▁directly	-3117
▁increase	-3118
▁condition	-3119
▁treatment	-3120
IV	-3121
▁sad	-3122
▁sou	-3123
hythm	-3124
umber	-3125
▁cold	-3126
▁hall	-3127
▁hole	-3128
▁late	-3129
▁laug	-3130
▁ahead	-3131
▁below	-3132
▁displ	-3133
▁email	-3134
▁forth	-3135
▁lines	-3136
▁mouth	-3137
▁worst	-3138
imately	-3139
inating	-3140
▁altern	-3141
▁broken	-3142
▁desert	-3143
▁engage	-3144
▁harder	-3145
▁nation	-3146
▁wealth	-3147
▁genetic	-3148
▁creating	-3149
▁medicine	-3150
▁original	-3151
▁training	-3152
▁fundamental	-3153
ae	-3154
ech	-3155
nal	-3156
▁Pr	-3157
▁Tr	-3158
ctic	-3159
soci	-3160
▁300	-3161
▁HIV	-3162
▁ban	-3163
▁mal	-3164
▁ver	-3165
acity	-3166
▁Have	-3167
▁intu	-3168
▁note	-3169
▁phil	-3170
▁vacc	-3171
▁zero	-3172
▁lucky	-3173
▁occur	-3174
▁parad	-3175
▁smell	-3176
▁sorry	-3177
▁spect	-3178
ometers	-3179
▁Thanks	-3180
▁employ	-3181
▁lesson	-3182
▁search	-3183
▁demonst	-3184
▁doctors	-3185
▁shouldn	-3186
▁anywhere	-3187
▁becoming	-3188
▁critical	-3189
▁patterns	-3190
▁violence	-3191
▁perspective	-3192
go	-3193
▁i	-3194
egr	-3195
irt	-3196
ius	-3197
oom	-3198
owd	-3199
▁Su	-3200
ceed	-3201
ener	-3202
ises	-3203
isms	-3204
▁ang	-3205
▁doc	-3206
▁fro	-3207
▁hop	-3208
▁web	-3209
celer	-3210
rated	-3211
▁Arab	-3212
▁fram	-3213
▁stri	-3214
▁virt	-3215
ricult	-3216
▁Chris	-3217
▁drugs	-3218
▁finan	-3219
▁Anyway	-3220
▁cooper	-3221
▁detect	-3222
▁levels	-3223
▁phones	-3224
▁summer	-3225
▁terror	-3226
▁choices	-3227
▁failure	-3228
▁feature	-3229
▁meeting	-3230
▁mission	-3231
▁popular	-3232
▁typical	-3233
▁continue	-3234
Yes	-3235
eny	-3236
pes	-3237
▁1.	-3238
▁Ob	-3239
iced	-3240
izes	-3241
orge	-3242
▁fat	-3243
▁saf	-3244
itely	-3245
right	-3246
▁Only	-3247
▁beat	-3248
▁Other	-3249
▁agree	-3250
▁proud	-3251
▁range	-3252
▁strug	-3253
▁truly	-3254
▁famous	-3255
▁female	-3256
▁likely	-3257
▁method	-3258
▁degrees	-3259
▁explore	-3260
▁forever	-3261
▁bacteria	-3262
▁metaphor	-3263
▁mountain	-3264
▁particip	-3265
▁complexity	-3266
▁experiments	-3267
▁individuals	-3268
.,	-3269
mp	-3270
wor	-3271
zil	-3272
ancy	-3273
anda	-3274
back	-3275
isco	-3276
▁Rem	-3277
▁veh	-3278
arian	-3279
icity	-3280
ystem	-3281
▁Mars	-3282
▁vari	-3283
▁wild	-3284
▁rough	-3285
▁shock	-3286
▁tough	-3287
▁twice	-3288
▁Brazil	-3289
▁bodies	-3290
▁brings	-3291
▁closer	-3292
▁corner	-3293
▁honest	-3294
▁ancient	-3295
▁willing	-3296
▁campaign	-3297
▁chemical	-3298
▁signific	-3299
▁especially	-3300
▁throughout	-3301
▁consciousness	-3302
▁responsibility	-3303
50	-3304
ama	-3305
▁Dr	-3306
That	-3307
wise	-3308
▁Sch	-3309
▁dri	-3310
▁mix	-3311
antic	-3312
ement	-3313
▁Cong	-3314
▁hate	-3315
▁paid	-3316
▁rare	-3317
▁rule	-3318
▁tiss	-3319
▁dying	-3320
▁newsp	-3321
▁shoot	-3322
▁stuck	-3323
ructure	-3324
▁artist	-3325
▁destro	-3326
▁income	-3327
▁insect	-3328
▁mobile	-3329
▁region	-3330
▁report	-3331
▁skills	-3332
▁states	-3333
▁discuss	-3334
▁sustain	-3335
▁written	-3336
▁describe	-3337
▁finished	-3338
▁direction	-3339
▁conditions	-3340
▁statistics	-3341
▁traditional	-3342
ky	-3343
ira	-3344
now	-3345
ube	-3346
▁197	-3347
▁Web	-3348
▁tri	-3349
iding	-3350
osing	-3351
▁City	-3352
▁clin	-3353
▁cust	-3354
▁male	-3355
▁poem	-3356
▁weap	-3357
▁wood	-3358
▁calls	-3359
▁click	-3360
▁crime	-3361
▁prote	-3362
▁shoes	-3363
▁Indian	-3364
▁forces	-3365
▁supply	-3366
▁techni	-3367
▁yellow	-3368
fortable	-3369
▁Western	-3370
▁acceler	-3371
▁improve	-3372
▁service	-3373
▁survive	-3374
▁workers	-3375
▁profound	-3376
▁standard	-3377
▁production	-3378
▁surprising	-3379
▁understood	-3380
ax	-3381
oe	-3382
uss	-3383
▁Gu	-3384
▁PM	-3385
▁Sc	-3386
Yeah	-3387
ason	-3388
athy	-3389
cell	-3390
empt	-3391
irty	-3392
▁201	-3393
▁Bas	-3394
▁jud	-3395
▁sus	-3396
icles	-3397
▁cand	-3398
▁drop	-3399
▁webs	-3400
atives	-3401
▁Green	-3402
▁crowd	-3403
▁liked	-3404
▁telev	-3405
▁trade	-3406
▁Nobody	-3407
▁breath	-3408
▁bridge	-3409
▁eating	-3410
▁effort	-3411
▁oxygen	-3412
▁played	-3413
▁raised	-3414
▁answers	-3415
▁attract	-3416
▁colleag	-3417
▁healthy	-3418
▁infrast	-3419
▁married	-3420
▁massive	-3421
▁purpose	-3422
▁agricult	-3423
▁greatest	-3424
▁instance	-3425
▁pressure	-3426
▁surprise	-3427
▁diversity	-3428
cil	-3429
ims	-3430
pro	-3431
ulf	-3432
ute	-3433
▁70	-3434
avid	-3435
esis	-3436
hand	-3437
iber	-3438
load	-3439
rams	-3440
reci	-3441
▁Yet	-3442
▁dry	-3443
▁hyd	-3444
▁nor	-3445
▁sam	-3446
aging	-3447
iring	-3448
rench	-3449
▁edge	-3450
▁exer	-3451
▁gold	-3452
▁repe	-3453
▁tast	-3454
▁dinos	-3455
▁invis	-3456
▁urban	-3457
▁associ	-3458
▁commer	-3459
▁fairly	-3460
▁seemed	-3461
▁element	-3462
▁turning	-3463
▁accident	-3464
▁argument	-3465
▁produced	-3466
▁specific	-3467
▁background	-3468
▁connection	-3469
▁Afghanistan	-3470
▁differently	-3471
▁necessarily	-3472
eg	-3473
ami	-3474
cks	-3475
yle	-3476
▁90	-3477
cies	-3478
cles	-3479
engu	-3480
iles	-3481
ores	-3482
time	-3483
▁San	-3484
▁inj	-3485
▁pri	-3486
▁tom	-3487
ently	-3488
idden	-3489
ornia	-3490
rical	-3491
▁dram	-3492
▁hasn	-3493
▁jump	-3494
▁laws	-3495
▁none	-3496
▁scan	-3497
elling	-3498
remend	-3499
▁noise	-3500
▁shown	-3501
▁dimens	-3502
▁finish	-3503
▁master	-3504
▁museum	-3505
▁obsess	-3506
▁passed	-3507
▁speech	-3508
▁values	-3509
ologists	-3510
▁earlier	-3511
▁somehow	-3512
▁streets	-3513
▁volunte	-3514
▁wearing	-3515
▁airplane	-3516
▁cultural	-3517
▁elements	-3518
▁humanity	-3519
▁sequence	-3520
▁strategy	-3521
▁Something	-3522
▁contribut	-3523
▁phenomenon	-3524
▁performance	-3525
9.	-3526
fl	-3527
ana	-3528
inc	-3529
mon	-3530
▁1,	-3531
▁iP	-3532
adem	-3533
band	-3534
itiz	-3535
uild	-3536
vest	-3537
▁Big	-3538
▁etc	-3539
▁ord	-3540
▁pig	-3541
▁tum	-3542
inist	-3543
▁East	-3544
▁Turn	-3545
▁anal	-3546
▁coal	-3547
▁fort	-3548
▁myth	-3549
▁terr	-3550
icated	-3551
ipment	-3552
▁David	-3553
▁apply	-3554
▁bound	-3555
▁quiet	-3556
▁raise	-3557
▁truck	-3558
quences	-3559
▁Really	-3560
▁adults	-3561
▁helped	-3562
▁integr	-3563
▁meters	-3564
▁societ	-3565
▁stress	-3566
▁symmet	-3567
iversity	-3568
▁achieve	-3569
▁balance	-3570
▁correct	-3571
▁hearing	-3572
▁prototy	-3573
▁regular	-3574
▁tremend	-3575
ibilities	-3576
lications	-3577
▁capacity	-3578
▁entirely	-3579
▁families	-3580
▁identity	-3581
▁politics	-3582
▁equipment	-3583
▁gentlemen	-3584
▁increasing	-3585
▁leadership	-3586
▁communication	-3587
1.	-3588
2.	-3589
ees	-3590
▁CO	-3591
▁En	-3592
This	-3593
aced	-3594
ners	-3595
▁Har	-3596
▁hus	-3597
▁odd	-3598
▁tun	-3599
alley	-3600
atell	-3601
ength	-3602
itted	-3603
phone	-3604
romos	-3605
throp	-3606
works	-3607
▁Aust	-3608
▁Swed	-3609
▁harm	-3610
▁join	-3611
▁pock	-3612
▁vote	-3613
▁Calif	-3614
▁epide	-3615
▁faces	-3616
▁named	-3617
▁batter	-3618
▁begins	-3619
▁breast	-3620
▁demand	-3621
▁dreams	-3622
▁lights	-3623
▁police	-3624
▁safety	-3625
▁chromos	-3626
▁creates	-3627
▁driving	-3628
▁effects	-3629
▁options	-3630
▁prevent	-3631
▁negative	-3632
▁relative	-3633
▁classroom	-3634
▁financial	-3635
▁seriously	-3636
▁kilometers	-3637
▁television	-3638
▁communicate	-3639
▁responsible	-3640
na	-3641
yl	-3642
eds	-3643
exp	-3644
omy	-3645
oun	-3646
▁Gl	-3647
ding	-3648
enty	-3649
icon	-3650
imin	-3651
oles	-3652
onds	-3653
quit	-3654
ties	-3655
▁Des	-3656
▁Hum	-3657
▁alt	-3658
▁amb	-3659
▁ble	-3660
▁cow	-3661
▁cru	-3662
asion	-3663
order	-3664
prene	-3665
ufact	-3666
▁Four	-3667
▁defe	-3668
▁dial	-3669
▁kick	-3670
▁lack	-3671
▁mort	-3672
▁wide	-3673
▁Franc	-3674
▁eleph	-3675
▁shift	-3676
ologist	-3677
reprene	-3678
▁custom	-3679
▁physic	-3680
▁remain	-3681
▁switch	-3682
▁focused	-3683
▁noticed	-3684
▁studied	-3685
▁Everyone	-3686
▁controll	-3687
▁mentioned	-3688
▁perfectly	-3689
▁California	-3690
▁definition	-3691
▁structures	-3692
▁organization	-3693
▁infrastructure	-3694
Don	-3695
mas	-3696
pty	-3697
uct	-3698
aker	-3699
alyz	-3700
anes	-3701
ateg	-3702
aven	-3703
elie	-3704
▁Mil	-3705
▁alg	-3706
▁cro	-3707
ening	-3708
▁Kore	-3709
▁Last	-3710
▁Over	-3711
▁bomb	-3712
▁coff	-3713
▁date	-3714
▁heat	-3715
▁init	-3716
▁king	-3717
▁roof	-3718
▁broke	-3719
▁categ	-3720
▁climb	-3721
▁laugh	-3722
▁liber	-3723
▁lunch	-3724
▁maint	-3725
▁pengu	-3726
▁satis	-3727
▁appear	-3728
▁babies	-3729
▁caught	-3730
▁flight	-3731
▁letter	-3732
▁mental	-3733
▁mostly	-3734
▁reward	-3735
▁conserv	-3736
▁cutting	-3737
▁holding	-3738
▁markets	-3739
▁neurons	-3740
▁restaur	-3741
▁sharing	-3742
▁weather	-3743
▁website	-3744
▁fighting	-3745
▁possibly	-3746
▁soldiers	-3747
▁speaking	-3748
▁emotional	-3749
▁landscape	-3750
▁necessary	-3751
▁differences	-3752
▁governments	-3753
▁imagination	-3754
▁intelligence	-3755
▁unfortunately	-3756
ID	-3757
ett	-3758
uff	-3759
val	-3760
▁eg	-3761
exic	-3762
mark	-3763
ulpt	-3764
▁atm	-3765
▁den	-3766
▁reb	-3767
▁spl	-3768
▁vul	-3769
iable	-3770
ouses	-3771
rogen	-3772
▁Amaz	-3773
▁Bang	-3774
▁Come	-3775
▁Five	-3776
▁Rich	-3777
▁bees	-3778
▁clip	-3779
▁fold	-3780
▁lies	-3781
▁nerv	-3782
▁race	-3783
▁tape	-3784
enture	-3785
forest	-3786
▁Voice	-3787
▁accom	-3788
▁brill	-3789
▁cards	-3790
▁cheap	-3791
▁enter	-3792
▁gradu	-3793
▁leads	-3794
▁photo	-3795
▁expand	-3796
▁nearly	-3797
▁sculpt	-3798
▁window	-3799
atically	-3800
▁address	-3801
▁appreci	-3802
▁journal	-3803
▁plastic	-3804
▁quantum	-3805
▁replace	-3806
▁electron	-3807
▁independ	-3808
▁construct	-3809
▁effective	-3810
▁introduce	-3811
▁societies	-3812
▁constantly	-3813
▁engineering	-3814
▁neighborhood	-3815
SA	-3816
ef	-3817
my	-3818
▁$	-3819
But	-3820
cre	-3821
mar	-3822
urg	-3823
▁Co	-3824
aria	-3825
port	-3826
uing	-3827
▁196	-3828
▁aud	-3829
▁bud	-3830
▁rub	-3831
▁tax	-3832
▁unc	-3833
▁wis	-3834
eared	-3835
itter	-3836
lands	-3837
▁Russ	-3838
▁diam	-3839
▁drag	-3840
▁flat	-3841
▁hack	-3842
▁loss	-3843
▁meat	-3844
▁poet	-3845
▁shop	-3846
dimens	-3847
mother	-3848
▁argue	-3849
▁broad	-3850
▁citiz	-3851
▁giant	-3852
▁heads	-3853
▁offer	-3854
▁rapid	-3855
▁river	-3856
▁round	-3857
▁subst	-3858
▁Number	-3859
▁decade	-3860
▁dinner	-3861
▁explan	-3862
▁failed	-3863
▁fourth	-3864
▁satell	-3865
▁tissue	-3866
▁However	-3867
▁artists	-3868
▁brother	-3869
▁cameras	-3870
▁contact	-3871
▁destroy	-3872
▁greater	-3873
▁helping	-3874
▁husband	-3875
▁justice	-3876
▁moments	-3877
▁nervous	-3878
▁private	-3879
▁signals	-3880
▁studies	-3881
▁succeed	-3882
▁benefits	-3883
▁expected	-3884
▁manufact	-3885
▁sentence	-3886
▁Basically	-3887
▁scientist	-3888
▁therefore	-3889
▁commercial	-3890
▁construction	-3891
▁Unfortunately	-3892
▁environmental	-3893
▁relationships	-3894
▁transformation	-3895
7.	-3896
8.	-3897
Do	-3898
IDS	-3899
son	-3900
vit	-3901
win	-3902
zen	-3903
▁Mr	-3904
▁Pa	-3905
▁Qu	-3906
itor	-3907
pper	-3908
▁Mal	-3909
▁Red	-3910
▁Ste	-3911
▁dan	-3912
▁gap	-3913
▁joy	-3914
▁lie	-3915
▁pet	-3916
▁rot	-3917
▁Life	-3918
▁gift	-3919
▁opin	-3920
▁runs	-3921
▁soul	-3922
▁Mexic	-3923
▁corru	-3924
▁embra	-3925
▁fresh	-3926
▁moves	-3927
▁names	-3928
▁offic	-3929
▁walls	-3930
▁wheel	-3931
lection	-3932
▁French	-3933
▁commit	-3934
▁deeply	-3935
▁double	-3936
▁histor	-3937
▁philos	-3938
▁resist	-3939
▁spaces	-3940
ographic	-3941
▁attempt	-3942
▁drawing	-3943
▁evolved	-3944
▁reflect	-3945
▁trained	-3946
▁studying	-3947
▁following	-3948
▁languages	-3949
▁technical	-3950
▁transport	-3951
dimensional	-3952
▁challenges	-3953
▁entreprene	-3954
▁mathematics	-3955
4.	-3956
5.	-3957
amm	-3958
top	-3959
▁BF	-3960
▁Ke	-3961
ager	-3962
aren	-3963
oted	-3964
▁Con	-3965
▁Lad	-3966
▁Par	-3967
▁shr	-3968
▁ske	-3969
▁tor	-3970
apers	-3971
icate	-3972
neath	-3973
▁Also	-3974
▁anti	-3975
▁bear	-3976
▁fell	-3977
▁gras	-3978
▁hero	-3979
▁lift	-3980
urally	-3981
▁Niger	-3982
▁Women	-3983
▁birds	-3984
▁chair	-3985
▁equal	-3986
▁paint	-3987
▁party	-3988
▁trend	-3989
artment	-3990
▁Please	-3991
▁advant	-3992
▁battle	-3993
▁belief	-3994
▁causes	-3995
▁coffee	-3996
▁colors	-3997
▁desire	-3998
▁easily	-3999
▁hidden	-4000
▁illust	-4001
▁includ	-4002
▁oceans	-4003
▁pounds	-4004
▁puzzle	-4005
▁sexual	-4006
▁shapes	-4007
▁studio	-4008
▁thinks	-4009
▁transm	-4010
▁vulner	-4011
▁cartoon	-4012
▁counter	-4013
▁devices	-4014
▁factory	-4015
▁believed	-4016
▁exercise	-4017
▁religion	-4018
▁brilliant	-4019
▁creatures	-4020
▁conference	-4021
▁industrial	-4022
▁alternative	-4023
▁experiences	-4024
▁fascinating	-4025
▁opportunities	-4026
af	-4027
ij	-4028
anz	-4029
avy	-4030
gin	-4031
gth	-4032
rum	-4033
uls	-4034
ura	-4035
esth	-4036
ford	-4037
itan	-4038
ober	-4039
rael	-4040
urch	-4041
▁Ant	-4042
▁Bar	-4043
▁gar	-4044
▁hyp	-4045
▁smo	-4046
▁und	-4047
ondon	-4048
print	-4049
▁boys	-4050
▁core	-4051
▁hide	-4052
▁intr	-4053
▁narr	-4054
▁spin	-4055
▁suit	-4056
▁wear	-4057
athers	-4058
rength	-4059
▁chann	-4060
▁grass	-4061
▁grate	-4062
▁ideal	-4063
▁pages	-4064
▁sweet	-4065
▁London	-4066
▁academ	-4067
▁advert	-4068
▁charge	-4069
▁exists	-4070
▁fright	-4071
▁gotten	-4072
▁highly	-4073
▁inform	-4074
▁motion	-4075
▁sharks	-4076
▁sister	-4077
▁arrived	-4078
▁dynamic	-4079
▁insects	-4080
▁insight	-4081
▁organiz	-4082
▁worried	-4083
▁Remember	-4084
▁disaster	-4085
▁distance	-4086
▁multiple	-4087
▁strength	-4088
▁Francisco	-4089
▁invisible	-4090
▁organisms	-4091
▁suffering	-4092
▁atmosphere	-4093
▁ultimately	-4094
▁communities	-4095
▁competition	-4096
ux	-4097
ipl	-4098
off	-4099
vey	-4100
ency	-4101
gypt	-4102
oons	-4103
▁Get	-4104
▁Hey	-4105
▁Sim	-4106
▁org	-4107
anted	-4108
esome	-4109
house	-4110
ublic	-4111
vable	-4112
▁Bill	-4113
▁Face	-4114
▁Germ	-4115
▁Next	-4116
▁anat	-4117
▁club	-4118
▁gene	-4119
▁scen	-4120
▁ship	-4121
▁soph	-4122
▁tick	-4123
▁tons	-4124
idents	-4125
▁Egypt	-4126
▁bread	-4127
▁diagn	-4128
▁empty	-4129
▁fully	-4130
▁horse	-4131
▁plane	-4132
▁radio	-4133
▁scene	-4134
▁belong	-4135
▁budget	-4136
▁closed	-4137
▁degree	-4138
▁genome	-4139
▁incent	-4140
▁solved	-4141
▁winter	-4142
▁Austral	-4143
▁Finally	-4144
▁Nothing	-4145
▁leading	-4146
▁planets	-4147
▁National	-4148
▁epidemic	-4149
▁molecules	-4150
▁published	-4151
▁surprised	-4152
▁components	-4153
▁tremendous	-4154
▁agriculture	-4155
▁possibility	-4156
▁consequences	-4157
▁international	-4158
ta	-4159
aff	-4160
ils	-4161
ker	-4162
ste	-4163
▁Hi	-4164
▁II	-4165
▁Ne	-4166
▁Sm	-4167
aked	-4168
apse	-4169
cked	-4170
eral	-4171
iest	-4172
mber	-4173
onym	-4174
oses	-4175
otic	-4176
reet	-4177
▁Ben	-4178
▁bag	-4179
▁cla	-4180
▁fol	-4181
▁hey	-4182
▁mid	-4183
▁mig	-4184
▁unf	-4185
rough	-4186
round	-4187
thern	-4188
ulous	-4189
▁Keny	-4190
▁copy	-4191
▁grad	-4192
▁lady	-4193
▁milk	-4194
▁pray	-4195
▁puts	-4196
▁tall	-4197
▁trip	-4198
▁valu	-4199
▁wave	-4200
arency	-4201
urance	-4202
▁avoid	-4203
▁chain	-4204
▁chick	-4205
▁facts	-4206
▁faith	-4207
▁magaz	-4208
▁manip	-4209
▁metal	-4210
▁neuro	-4211
▁prior	-4212
▁saved	-4213
▁signs	-4214
▁teeth	-4215
▁toile	-4216
ivalent	-4217
ography	-4218
oration	-4219
▁George	-4220
▁debate	-4221
▁deeper	-4222
▁factor	-4223
▁leader	-4224
▁length	-4225
▁stupid	-4226
▁wisdom	-4227
ulations	-4228
▁concent	-4229
▁however	-4230
▁traffic	-4231
▁bringing	-4232
▁everyday	-4233
▁inspired	-4234
▁molecule	-4235
▁networks	-4236
▁normally	-4237
▁tomorrow	-4238
▁concerned	-4239
▁described	-4240
▁sophistic	-4241
▁importantly	-4242
▁possibilities	-4243
30	-4244
arm	-4245
lex	-4246
ley	-4247
lly	-4248
set	-4249
tle	-4250
▁Ma	-4251
▁Mo	-4252
ques	-4253
reed	-4254
road	-4255
uous	-4256
▁Dar	-4257
▁cha	-4258
▁del	-4259
▁dot	-4260
▁fab	-4261
▁ing	-4262
▁lic	-4263
▁que	-4264
▁rom	-4265
arden	-4266
based	-4267
ences	-4268
redit	-4269
riage	-4270
▁Mark	-4271
▁appl	-4272
▁gall	-4273
▁host	-4274
▁nose	-4275
▁rein	-4276
▁tour	-4277
cience	-4278
ifying	-4279
▁1,000	-4280
▁admit	-4281
▁brief	-4282
▁legal	-4283
▁mouse	-4284
▁risks	-4285
▁rural	-4286
▁users	-4287
osystem	-4288
▁Israel	-4289
▁Middle	-4290
▁Valley	-4291
▁aspect	-4292
▁bottle	-4293
▁bright	-4294
▁consid	-4295
▁damage	-4296
▁dollar	-4297
▁fields	-4298
▁galaxy	-4299
▁notion	-4300
▁scared	-4301
▁shared	-4302
▁slowly	-4303
▁versus	-4304
entional	-4305
▁covered	-4306
▁dealing	-4307
▁depends	-4308
▁letters	-4309
▁related	-4310
▁strateg	-4311
▁treated	-4312
▁grateful	-4313
▁carefully	-4314
▁wondering	-4315
▁biological	-4316
▁colleagues	-4317
▁definitely	-4318
▁importance	-4319
▁represents	-4320
▁underneath	-4321
▁generations	-4322
▁significant	-4323
DP	-4324
dy	-4325
Hey	-4326
pet	-4327
raq	-4328
urb	-4329
van	-4330
▁Ah	-4331
▁Mc	-4332
▁ax	-4333
ifth	-4334
vere	-4335
vity	-4336
xies	-4337
▁Int	-4338
▁Rep	-4339
▁Sun	-4340
▁mos	-4341
▁nan	-4342
▁pun	-4343
agers	-4344
aling	-4345
istry	-4346
itors	-4347
ropri	-4348
uries	-4349
water	-4350
▁ends	-4351
▁hung	-4352
▁loud	-4353
▁meas	-4354
▁pure	-4355
▁shut	-4356
▁snow	-4357
▁spot	-4358
▁stem	-4359
▁zoom	-4360
▁Child	-4361
▁Inter	-4362
▁basis	-4363
▁films	-4364
▁solid	-4365
▁stock	-4366
▁unexp	-4367
ication	-4368
osition	-4369
▁10,000	-4370
▁autism	-4371
▁height	-4372
▁monkey	-4373
▁opened	-4374
▁player	-4375
▁rocket	-4376
▁toward	-4377
ifically	-4378
▁decades	-4379
▁details	-4380
▁diagram	-4381
▁provide	-4382
▁designer	-4383
▁diseases	-4384
▁instruct	-4385
▁mistakes	-4386
▁planning	-4387
▁programs	-4388
▁resource	-4389
▁separate	-4390
▁valuable	-4391
▁Christmas	-4392
▁designers	-4393
▁ecosystem	-4394
▁principle	-4395
▁University	-4396
▁equivalent	-4397
▁expression	-4398
▁unexpected	-4399
▁grandmother	-4400
▁interaction	-4401
ds	-4402
ha	-4403
ara	-4404
car	-4405
rol	-4406
aurs	-4407
cend	-4408
cest	-4409
ened	-4410
fish	-4411
olve	-4412
▁150	-4413
▁Col	-4414
▁Dep	-4415
▁Jew	-4416
▁bra	-4417
▁bul	-4418
▁mel	-4419
▁pal	-4420
▁tit	-4421
▁unb	-4422
arter	-4423
aving	-4424
olate	-4425
olves	-4426
stein	-4427
▁Ange	-4428
▁Iran	-4429
▁Iraq	-4430
▁None	-4431
▁auth	-4432
▁ears	-4433
▁iron	-4434
▁myst	-4435
▁pair	-4436
▁park	-4437
▁shel	-4438
▁weak	-4439
atform	-4440
ipping	-4441
▁awful	-4442
▁compl	-4443
▁cycle	-4444
▁grade	-4445
▁habit	-4446
▁prost	-4447
▁skill	-4448
▁spoke	-4449
▁steps	-4450
▁taste	-4451
viously	-4452
▁Amazon	-4453
▁Should	-4454
▁active	-4455
▁heaven	-4456
▁microb	-4457
▁option	-4458
▁parall	-4459
▁photos	-4460
▁pollut	-4461
▁satisf	-4462
▁script	-4463
▁therap	-4464
▁artific	-4465
▁awesome	-4466
▁battery	-4467
▁benefit	-4468
▁careful	-4469
▁cooking	-4470
▁curious	-4471
▁deliver	-4472
▁killing	-4473
▁section	-4474
▁various	-4475
▁European	-4476
▁followed	-4477
▁swimming	-4478
▁continent	-4479
▁influence	-4480
▁invention	-4481
▁newspaper	-4482
▁instrument	-4483
▁university	-4484
▁distribution	-4485
oot	-4486
Okay	-4487
edia	-4488
resp	-4489
▁Art	-4490
▁Boy	-4491
▁Dan	-4492
▁GDP	-4493
▁Mon	-4494
▁Res	-4495
▁Rob	-4496
▁Tom	-4497
▁bon	-4498
▁spo	-4499
▁tag	-4500
▁ves	-4501
anced	-4502
ander	-4503
clear	-4504
force	-4505
iplom	-4506
usual	-4507
▁Comp	-4508
▁Cons	-4509
▁Girl	-4510
▁Mich	-4511
▁abst	-4512
▁bits	-4513
▁blow	-4514
▁bull	-4515
▁cogn	-4516
▁foss	-4517
▁load	-4518
▁rele	-4519
▁ring	-4520
father	-4521
icians	-4522
itchen	-4523
owered	-4524
porary	-4525
ushing	-4526
▁2,000	-4527
▁Canad	-4528
▁Never	-4529
▁chart	-4530
▁coast	-4531
▁dirty	-4532
▁error	-4533
▁helps	-4534
▁homes	-4535
▁horiz	-4536
▁humor	-4537
▁recon	-4538
▁shall	-4539
▁surge	-4540
▁Mexico	-4541
▁Sweden	-4542
▁ancest	-4543
▁circum	-4544
▁movies	-4545
▁season	-4546
▁sector	-4547
▁select	-4548
▁Charles	-4549
▁compare	-4550
▁contain	-4551
▁display	-4552
▁malaria	-4553
▁members	-4554
▁mosquit	-4555
▁silence	-4556
▁theater	-4557
▁Facebook	-4558
▁emotions	-4559
▁galaxies	-4560
▁platform	-4561
▁pleasure	-4562
▁reaction	-4563
▁received	-4564
▁struggle	-4565
▁trillion	-4566
▁advantage	-4567
▁designing	-4568
▁efficient	-4569
▁naturally	-4570
▁depression	-4571
▁restaurant	-4572
▁collaboration	-4573
Is	-4574
ls	-4575
icy	-4576
irm	-4577
osh	-4578
rog	-4579
▁2.	-4580
▁Fl	-4581
▁KB	-4582
▁SS	-4583
down	-4584
olds	-4585
omed	-4586
roll	-4587
▁194	-4588
▁dol	-4589
▁fac	-4590
▁mad	-4591
▁ner	-4592
▁san	-4593
erson	-4594
organ	-4595
sters	-4596
▁AIDS	-4597
▁Gree	-4598
▁disp	-4599
▁fake	-4600
▁gang	-4601
▁seat	-4602
▁teen	-4603
acters	-4604
ashion	-4605
ension	-4606
orders	-4607
ording	-4608
rhythm	-4609
terday	-4610
▁About	-4611
▁accur	-4612
▁aging	-4613
▁clock	-4614
▁exhib	-4615
▁honor	-4616
▁hotel	-4617
▁inner	-4618
▁layer	-4619
▁negot	-4620
▁north	-4621
▁novel	-4622
▁pitch	-4623
▁plate	-4624
▁scary	-4625
▁south	-4626
▁sugar	-4627
▁theme	-4628
▁tired	-4629
▁buying	-4630
▁compar	-4631
▁events	-4632
▁extend	-4633
▁leaves	-4634
▁losing	-4635
▁medium	-4636
▁member	-4637
▁phosph	-4638
▁reject	-4639
▁stayed	-4640
▁unless	-4641
▁vessel	-4642
chnology	-4643
▁British	-4644
▁highest	-4645
▁limited	-4646
▁managed	-4647
▁mistake	-4648
▁mothers	-4649
▁selling	-4650
▁sending	-4651
▁victims	-4652
▁warming	-4653
▁citizens	-4654
▁document	-4655
▁obsessed	-4656
▁property	-4657
▁services	-4658
▁celebrate	-4659
▁dinosaurs	-4660
▁disappear	-4661
▁discovery	-4662
▁essential	-4663
▁interface	-4664
▁practical	-4665
▁typically	-4666
▁artificial	-4667
▁characters	-4668
▁corruption	-4669
▁perception	-4670
▁sophisticated	-4671
0,	-4672
3.	-4673
6.	-4674
gn	-4675
uk	-4676
pen	-4677
ume	-4678
urt	-4679
▁Je	-4680
berg	-4681
cope	-4682
odes	-4683
orus	-4684
rade	-4685
semb	-4686
term	-4687
▁Pal	-4688
▁era	-4689
▁fed	-4690
▁mer	-4691
▁pin	-4692
▁row	-4693
etics	-4694
iency	-4695
inate	-4696
itute	-4697
lcome	-4698
▁Cent	-4699
▁King	-4700
▁Talk	-4701
▁Tell	-4702
▁band	-4703
▁butt	-4704
▁chap	-4705
▁elev	-4706
▁glam	-4707
▁mamm	-4708
▁mira	-4709
▁moon	-4710
▁pros	-4711
▁wake	-4712
apping	-4713
iosity	-4714
▁Times	-4715
▁bombs	-4716
▁boxes	-4717
▁crash	-4718
▁dolph	-4719
▁minim	-4720
▁shame	-4721
▁tumor	-4722
▁uncom	-4723
hington	-4724
▁School	-4725
▁Street	-4726
▁boring	-4727
▁fortun	-4728
▁garden	-4729
▁genius	-4730
▁houses	-4731
▁observ	-4732
▁picked	-4733
▁pocket	-4734
▁remote	-4735
▁stream	-4736
▁videos	-4737
▁Nigeria	-4738
▁Perhaps	-4739
▁Richard	-4740
▁Twitter	-4741
▁calling	-4742
▁chicken	-4743
▁empathy	-4744
▁evening	-4745
▁farmers	-4746
▁install	-4747
▁invited	-4748
▁painful	-4749
▁partner	-4750
▁radical	-4751
▁sensors	-4752
▁suppose	-4753
▁unbelie	-4754
▁unusual	-4755
▁visible	-4756
▁contract	-4757
▁creation	-4758
▁feedback	-4759
▁launched	-4760
▁maintain	-4761
▁partners	-4762
▁rational	-4763
▁chemistry	-4764
▁childhood	-4765
▁encourage	-4766
▁entertain	-4767
▁president	-4768
▁religions	-4769
▁religious	-4770
▁universal	-4771
▁Washington	-4772
▁considered	-4773
▁electrical	-4774
▁simplicity	-4775
▁grandfather	-4776
80	-4777
9,	-4778
].	-4779
kn	-4780
ok	-4781
Let	-4782
cal	-4783
igm	-4784
▁Ed	-4785
▁RS	-4786
▁Sa	-4787
cipl	-4788
gent	-4789
ingu	-4790
look	-4791
mers	-4792
olly	-4793
uary	-4794
▁Che	-4795
▁Los	-4796
▁Mus	-4797
▁Pre	-4798
▁ded	-4799
▁ten	-4800
▁tow	-4801
otten	-4802
stand	-4803
▁Asia	-4804
▁Play	-4805
▁boat	-4806
▁dogs	-4807
▁grid	-4808
▁held	-4809
▁lapt	-4810
▁libr	-4811
▁maps	-4812
▁neat	-4813
▁prev	-4814
▁recy	-4815
▁ride	-4816
▁stim	-4817
▁surf	-4818
▁tele	-4819
▁trib	-4820
▁wash	-4821
alyzed	-4822
itness	-4823
▁Frank	-4824
▁Italy	-4825
▁auton	-4826
▁bears	-4827
▁chimp	-4828
▁folks	-4829
▁gotta	-4830
▁heavy	-4831
▁honey	-4832
▁hyper	-4833
▁illeg	-4834
▁keeps	-4835
▁prime	-4836
▁sandw	-4837
▁synth	-4838
▁waves	-4839
entally	-4840
igation	-4841
iration	-4842
▁analog	-4843
▁driver	-4844
▁filled	-4845
▁muscle	-4846
▁organs	-4847
▁poetry	-4848
▁prefer	-4849
▁senses	-4850
▁spider	-4851
▁status	-4852
▁string	-4853
ropriate	-4854
▁100,000	-4855
▁Anybody	-4856
▁circuit	-4857
▁diction	-4858
▁emotion	-4859
▁experts	-4860
▁flowers	-4861
▁kitchen	-4862
▁operate	-4863
▁organic	-4864
▁vehicle	-4865
▁Japanese	-4866
▁abstract	-4867
▁apparent	-4868
▁carrying	-4869
▁cultures	-4870
▁feelings	-4871
▁magazine	-4872
▁messages	-4873
▁recorded	-4874
▁spectrum	-4875
▁spending	-4876
▁surround	-4877
▁ultimate	-4878
▁Obviously	-4879
▁backwards	-4880
▁cognitive	-4881
▁economics	-4882
▁mortality	-4883
▁statement	-4884
▁tradition	-4885
▁activities	-4886
▁associated	-4887
▁chromosome	-4888
▁foundation	-4889
▁investment	-4890
▁properties	-4891
▁consumption	-4892
▁explanation	-4893
▁sustainable	-4894
▁transparency	-4895
▁psychological	-4896
Be	-4897
uh	-4898
can	-4899
cra	-4900
fin	-4901
iot	-4902
lin	-4903
ocr	-4904
reg	-4905
▁Fe	-4906
Look	-4907
aled	-4908
appy	-4909
bble	-4910
burg	-4911
care	-4912
hern	-4913
ints	-4914
lymp	-4915
▁Cam	-4916
▁Joe	-4917
▁Nor	-4918
▁Pol	-4919
▁Sam	-4920
▁Sil	-4921
▁Six	-4922
▁bat	-4923
▁mir	-4924
▁sir	-4925
▁tal	-4926
▁uns	-4927
eline	-4928
icide	-4929
illed	-4930
▁Gold	-4931
▁Make	-4932
▁Paul	-4933
▁ants	-4934
▁bone	-4935
▁cave	-4936
▁diet	-4937
▁diss	-4938
▁evil	-4939
▁exch	-4940
▁gray	-4941
▁hurt	-4942
▁impl	-4943
▁joke	-4944
▁reci	-4945
▁reco	-4946
▁scar	-4947
▁shad	-4948
▁thin	-4949
▁user	-4950
astern	-4951
ensity	-4952
isters	-4953
▁Gener	-4954
▁Kenya	-4955
▁Since	-4956
▁breed	-4957
▁cents	-4958
▁chest	-4959
▁cloth	-4960
▁crack	-4961
▁flash	-4962
▁goals	-4963
▁grain	-4964
▁limit	-4965
▁motor	-4966
▁notes	-4967
▁shark	-4968
▁sides	-4969
▁stood	-4970
▁acting	-4971
▁gender	-4972
▁hypoth	-4973
▁portra	-4974
▁reform	-4975
▁storyt	-4976
▁toilet	-4977
▁Angeles	-4978
▁England	-4979
▁Germany	-4980
▁closely	-4981
▁dancing	-4982
▁figured	-4983
▁foreign	-4984
▁illegal	-4985
▁microsc	-4986
▁opinion	-4987
▁parking	-4988
▁primary	-4989
▁release	-4990
▁roughly	-4991
▁Somebody	-4992
▁answered	-4993
▁billions	-4994
▁marriage	-4995
▁parallel	-4996
▁survival	-4997
▁wondered	-4998
▁breathing	-4999
▁currently	-5000
▁intellect	-5001
▁operating	-5002
▁professor	-5003
▁appreciate	-5004
▁percentage	-5005
▁relatively	-5006
▁advertising	-5007
▁consequence	-5008
▁distributed	-5009
▁professional	-5010
He	-5011
bl	-5012
mm	-5013
ns	-5014
And	-5015
Who	-5016
ato	-5017
izz	-5018
kin	-5019
lam	-5020
oly	-5021
pox	-5022
urd	-5023
▁75	-5024
▁99	-5025
▁El	-5026
▁LG	-5027
▁NA	-5028
▁SW	-5029
illy	-5030
iver	-5031
ngue	-5032
rupt	-5033
wide	-5034
▁600	-5035
▁App	-5036
▁Bon	-5037
▁Isn	-5038
▁Jes	-5039
▁Ten	-5040
▁bow	-5041
▁iPh	-5042
▁rat	-5043
▁tox	-5044
▁van	-5045
crete	-5046
gress	-5047
place	-5048
using	-5049
▁Phil	-5050
▁Pole	-5051
▁Pres	-5052
▁Supp	-5053
▁Tony	-5054
▁arms	-5055
▁enem	-5056
▁gain	-5057
▁lens	-5058
▁liqu	-5059
▁mush	-5060
▁purs	-5061
▁reve	-5062
▁rout	-5063
▁soil	-5064
arctic	-5065
herent	-5066
▁5,000	-5067
▁Olymp	-5068
▁Third	-5069
▁Turns	-5070
▁aston	-5071
▁atoms	-5072
▁beach	-5073
▁chaos	-5074
▁coral	-5075
▁expon	-5076
▁flies	-5077
▁frust	-5078
▁grown	-5079
▁prove	-5080
▁smile	-5081
▁tests	-5082
▁thick	-5083
▁whist	-5084
forward	-5085
outhern	-5086
ulating	-5087
▁Almost	-5088
▁Darwin	-5089
▁Russia	-5090
▁assign	-5091
▁clever	-5092
▁contem	-5093
▁corpor	-5094
▁credit	-5095
▁critic	-5096
▁diplom	-5097
▁facing	-5098
▁formed	-5099
▁scenar	-5100
▁tongue	-5101
▁dropped	-5102
▁opening	-5103
▁persist	-5104
▁precise	-5105
▁raising	-5106
▁remains	-5107
▁sources	-5108
▁viruses	-5109
▁weapons	-5110
▁creature	-5111
▁magnetic	-5112
▁majority	-5113
▁memories	-5114
▁previous	-5115
▁stronger	-5116
▁symmetry	-5117
▁Antarctic	-5118
▁according	-5119
▁adventure	-5120
▁molecular	-5121
▁otherwise	-5122
▁pollution	-5123
▁prototype	-5124
▁satellite	-5125
▁spreading	-5126
▁conclusion	-5127
▁disappoint	-5128
▁fascinated	-5129
▁comfortable	-5130
▁cooperation	-5131
▁destruction	-5132
▁mathematical	-5133
/1	-5134
5,	-5135
7,	-5136
RI	-5137
ym	-5138
agn	-5139
ari	-5140
eal	-5141
esh	-5142
ibr	-5143
log	-5144
min	-5145
och	-5146
ota	-5147
tes	-5148
uce	-5149
ums	-5150
cast	-5151
pret	-5152
rict	-5153
tech	-5154
▁Oct	-5155
▁Put	-5156
▁Rom	-5157
▁ate	-5158
▁fal	-5159
▁hem	-5160
▁irr	-5161
craft	-5162
etime	-5163
gence	-5164
under	-5165
▁Coll	-5166
▁Hell	-5167
▁Sing	-5168
▁Step	-5169
▁bare	-5170
▁blog	-5171
▁decl	-5172
▁desp	-5173
▁frag	-5174
▁glue	-5175
▁hunt	-5176
▁lung	-5177
▁peak	-5178
▁pink	-5179
ession	-5180
though	-5181
▁Korea	-5182
▁added	-5183
▁claim	-5184
▁curve	-5185
▁depth	-5186
▁dress	-5187
▁fears	-5188
▁fixed	-5189
▁grows	-5190
▁inequ	-5191
▁likes	-5192
▁polio	-5193
▁quote	-5194
▁ridic	-5195
▁sight	-5196
▁stone	-5197
▁topic	-5198
▁whale	-5199
akistan	-5200
iminals	-5201
itarian	-5202
mission	-5203
ocolate	-5204
unclear	-5205
▁assist	-5206
▁attend	-5207
▁button	-5208
▁expert	-5209
▁explos	-5210
▁fellow	-5211
▁hungry	-5212
▁iPhone	-5213
▁ladies	-5214
▁limits	-5215
▁paying	-5216
lication	-5217
▁fashion	-5218
▁figures	-5219
▁lessons	-5220
▁privile	-5221
▁protein	-5222
▁rapidly	-5223
▁virtual	-5224
▁achieved	-5225
▁consumer	-5226
▁dramatic	-5227
▁elephant	-5228
▁equation	-5229
▁measured	-5230
▁northern	-5231
▁prepared	-5232
▁requires	-5233
▁thoughts	-5234
▁marketing	-5235
▁collection	-5236
▁collective	-5237
▁dimensions	-5238
▁discussion	-5239
▁management	-5240
▁phosphorus	-5241
▁principles	-5242
▁techniques	-5243
▁challenging	-5244
▁photographs	-5245
▁expectations	-5246
▁specifically	-5247
▁unbelievable	-5248
▁conversations	-5249
So	-5250
fr	-5251
rs	-5252
ads	-5253
era	-5254
ita	-5255
opy	-5256
spe	-5257
xim	-5258
▁23	-5259
abet	-5260
etch	-5261
iate	-5262
iday	-5263
lder	-5264
tery	-5265
what	-5266
whel	-5267
word	-5268
ysis	-5269
▁400	-5270
▁Cor	-5271
▁Ein	-5272
▁Ice	-5273
▁Jan	-5274
▁Mic	-5275
▁Mod	-5276
▁Nat	-5277
▁Sat	-5278
▁Sec	-5279
▁cos	-5280
▁hom	-5281
▁hun	-5282
▁lit	-5283
▁nav	-5284
▁pix	-5285
▁scr	-5286
▁toy	-5287
ached	-5288
adays	-5289
aters	-5290
cript	-5291
ended	-5292
gency	-5293
iture	-5294
ivers	-5295
nding	-5296
▁Arch	-5297
▁High	-5298
▁Stud	-5299
▁acts	-5300
▁bubb	-5301
▁dumb	-5302
▁flex	-5303
▁gest	-5304
▁item	-5305
▁jail	-5306
▁mile	-5307
▁prem	-5308
▁resc	-5309
▁sees	-5310
▁silk	-5311
▁vast	-5312
▁warm	-5313
▁wars	-5314
illing	-5315
levant	-5316
making	-5317
▁Human	-5318
▁Sorry	-5319
▁angry	-5320
▁bless	-5321
▁doubt	-5322
▁frank	-5323
▁holes	-5324
▁knock	-5325
▁marry	-5326
▁plays	-5327
▁pregn	-5328
▁seeds	-5329
▁serve	-5330
▁shell	-5331
▁sites	-5332
▁split	-5333
▁staff	-5334
▁steel	-5335
▁upper	-5336
▁weigh	-5337
▁yours	-5338
▁Before	-5339
▁agreed	-5340
▁anonym	-5341
▁assume	-5342
▁church	-5343
▁driven	-5344
▁drives	-5345
▁flower	-5346
▁infect	-5347
▁island	-5348
▁liquid	-5349
▁plenty	-5350
▁signal	-5351
▁trials	-5352
▁unlike	-5353
ollywood	-5354
▁Britain	-5355
▁breathe	-5356
▁extinct	-5357
▁forests	-5358
▁knowing	-5359
▁largely	-5360
▁license	-5361
▁monkeys	-5362
▁reverse	-5363
▁variety	-5364
▁witness	-5365
ification	-5366
▁Africans	-5367
▁Einstein	-5368
▁Pakistan	-5369
▁accurate	-5370
▁inherent	-5371
▁lifetime	-5372
▁mushroom	-5373
▁overwhel	-5374
▁paradigm	-5375
▁penguins	-5376
▁philosop	-5377
▁sandwich	-5378
▁theories	-5379
▁wireless	-5380
▁Institute	-5381
▁arguments	-5382
▁authority	-5383
▁component	-5384
▁engineers	-5385
▁increased	-5386
▁intuition	-5387
▁intuitive	-5388
▁radiation	-5389
▁efficiency	-5390
▁literature	-5391
▁mechanical	-5392
▁motivation	-5393
▁optimistic	-5394
▁situations	-5395
▁transition	-5396
▁experienced	-5397
▁intelligent	-5398
▁civilization	-5399
▁environments	-5400
▁evolutionary	-5401
▁institutions	-5402
▁intellectual	-5403
▁entrepreneurs	-5404
60	-5405
Ch	-5406
My	-5407
Can	-5408
ael	-5409
ago	-5410
ded	-5411
fit	-5412
ham	-5413
ica	-5414
key	-5415
mit	-5416
new	-5417
ola	-5418
oos	-5419
pan	-5420
▁3.	-5421
▁Ac	-5422
▁MT	-5423
▁Pe	-5424
▁id	-5425
▁ju	-5426
aiti	-5427
aret	-5428
eled	-5429
enry	-5430
hold	-5431
lete	-5432
obal	-5433
omas	-5434
osen	-5435
osis	-5436
rase	-5437
rian	-5438
umps	-5439
▁9/1	-5440
▁Atl	-5441
▁Dad	-5442
▁Day	-5443
▁Dem	-5444
▁Hel	-5445
▁Min	-5446
▁Nin	-5447
▁Rio	-5448
▁aer	-5449
▁inh	-5450
▁poo	-5451
▁tap	-5452
angle	-5453
chest	-5454
gling	-5455
iment	-5456
orith	-5457
point	-5458
while	-5459
▁Half	-5460
▁Same	-5461
▁arts	-5462
▁bicy	-5463
▁chip	-5464
▁desk	-5465
▁disc	-5466
▁dots	-5467
▁glad	-5468
▁grab	-5469
▁loop	-5470
▁mall	-5471
▁nurs	-5472
▁pill	-5473
▁plug	-5474
▁pour	-5475
▁reef	-5476
arrass	-5477
ashing	-5478
ortion	-5479
ulated	-5480
▁Haiti	-5481
▁Micro	-5482
▁Stage	-5483
▁appla	-5484
▁chose	-5485
▁fuels	-5486
▁march	-5487
▁recom	-5488
▁storm	-5489
▁utter	-5490
alities	-5491
ription	-5492
▁bubble	-5493
▁define	-5494
▁divide	-5495
▁forced	-5496
▁fossil	-5497
▁framew	-5498
▁hoping	-5499
▁joined	-5500
▁pollen	-5501
▁profit	-5502
▁reduce	-5503
▁relate	-5504
▁repeat	-5505
▁sample	-5506
▁slides	-5507
▁smooth	-5508
▁Michael	-5509
▁accompl	-5510
▁authent	-5511
▁command	-5512
▁corresp	-5513
▁falling	-5514
▁harvest	-5515
▁nations	-5516
▁offered	-5517
▁pretend	-5518
▁pulling	-5519
▁pushing	-5520
▁symbols	-5521
▁testing	-5522
▁violent	-5523
▁watched	-5524
▁academic	-5525
▁baseball	-5526
▁cartoons	-5527
▁compared	-5528
▁constant	-5529
▁darkness	-5530
▁drinking	-5531
▁features	-5532
▁football	-5533
▁hydrogen	-5534
▁smallpox	-5535
▁vaccines	-5536
▁destroyed	-5537
▁embarrass	-5538
▁employees	-5539
▁increases	-5540
▁insurance	-5541
▁mechanics	-5542
▁organized	-5543
▁presented	-5544
▁processes	-5545
▁technique	-5546
▁terrorism	-5547
▁yesterday	-5548
▁approaches	-5549
▁businesses	-5550
▁confidence	-5551
▁personally	-5552
▁processing	-5553
▁profession	-5554
▁strategies	-5555
▁appropriate	-5556
▁astonishing	-5557
▁connections	-5558
▁effectively	-5559
▁exploration	-5560
▁personality	-5561
▁conventional	-5562
▁implications	-5563
▁instructions	-5564
▁manufacturing	-5565
8,	-5566
PA	-5567
aj	-5568
hi	-5569
den	-5570
ipe	-5571
itz	-5572
ula	-5573
▁CE	-5574
▁JH	-5575
▁Ox	-5576
▁ru	-5577
▁ug	-5578
anta	-5579
ardo	-5580
aser	-5581
case	-5582
cred	-5583
four	-5584
hana	-5585
irds	-5586
ogen	-5587
rome	-5588
roph	-5589
▁Eth	-5590
▁Mah	-5591
▁Ser	-5592
▁Sus	-5593
▁ath	-5594
▁bes	-5595
▁bug	-5596
▁fan	-5597
▁flo	-5598
▁lat	-5599
▁pil	-5600
▁reh	-5601
▁sla	-5602
ceive	-5603
cknow	-5604
eters	-5605
isher	-5606
ortex	-5607
udden	-5608
▁Adam	-5609
▁Both	-5610
▁Give	-5611
▁Mart	-5612
▁Mary	-5613
▁Mill	-5614
▁Mont	-5615
▁NASA	-5616
▁Wall	-5617
▁bran	-5618
▁cute	-5619
▁dust	-5620
▁eggs	-5621
▁erad	-5622
▁ethn	-5623
▁flew	-5624
▁hook	-5625
▁rush	-5626
▁sets	-5627
▁sexy	-5628
▁vert	-5629
▁wine	-5630
imeter	-5631
mented	-5632
verted	-5633
▁3,000	-5634
▁Ghana	-5635
▁antic	-5636
▁blank	-5637
▁coord	-5638
▁cyber	-5639
▁digit	-5640
▁fewer	-5641
▁fifth	-5642
▁input	-5643
▁lying	-5644
▁reput	-5645
▁sales	-5646
▁shake	-5647
▁stops	-5648
▁talks	-5649
▁trash	-5650
▁veget	-5651
▁wings	-5652
▁yield	-5653
ishment	-5654
issions	-5655
▁Ladies	-5656
▁Sudden	-5657
▁advice	-5658
▁barrel	-5659
▁chosen	-5660
▁convin	-5661
▁immune	-5662
▁rhythm	-5663
▁scream	-5664
▁spoken	-5665
▁weapon	-5666
▁worker	-5667
▁Eastern	-5668
▁January	-5669
▁Project	-5670
▁airport	-5671
▁anthrop	-5672
▁attacks	-5673
▁ceiling	-5674
▁classes	-5675
▁leaving	-5676
▁neither	-5677
▁recover	-5678
▁soldier	-5679
▁touched	-5680
▁transpl	-5681
▁vaccine	-5682
▁welcome	-5683
▁Congress	-5684
▁administ	-5685
▁algorith	-5686
▁birthday	-5687
▁captured	-5688
▁download	-5689
▁exchange	-5690
▁graduate	-5691
▁illusion	-5692
▁infected	-5693
▁organism	-5694
▁recovery	-5695
▁transfer	-5696
▁vehicles	-5697
▁chocolate	-5698
▁curiosity	-5699
▁existence	-5700
▁forgotten	-5701
▁interpret	-5702
▁mountains	-5703
▁protection	-5704
▁rainforest	-5705
▁vulnerable	-5706
▁institution	-5707
▁interactive	-5708
▁presentation	-5709
▁uncomfortable	-5710
1,	-5711
20	-5712
100	-5713
asm	-5714
bow	-5715
dig	-5716
fly	-5717
hes	-5718
iac	-5719
iam	-5720
ino	-5721
omb	-5722
▁DP	-5723
▁FG	-5724
Talk	-5725
abil	-5726
amin	-5727
avor	-5728
ests	-5729
mend	-5730
ocin	-5731
onna	-5732
opia	-5733
oust	-5734
rier	-5735
rors	-5736
west	-5737
▁195	-5738
▁Air	-5739
▁Gra	-5740
▁Its	-5741
▁Pan	-5742
▁Tib	-5743
▁Wow	-5744
▁meg	-5745
▁pad	-5746
Where	-5747
agger	-5748
allow	-5749
eling	-5750
erent	-5751
igate	-5752
irgin	-5753
known	-5754
oston	-5755
oting	-5756
puter	-5757
▁2000	-5758
▁Bank	-5759
▁Bush	-5760
▁Fore	-5761
▁June	-5762
▁acqu	-5763
▁adop	-5764
▁beet	-5765
▁boom	-5766
▁busy	-5767
▁cere	-5768
▁cous	-5769
▁cure	-5770
▁excl	-5771
▁furn	-5772
▁hadn	-5773
▁lawy	-5774
▁mate	-5775
▁nest	-5776
▁nets	-5777
▁obst	-5778
▁pace	-5779
▁remo	-5780
▁toys	-5781
▁verb	-5782
acific	-5783
angers	-5784
ctions	-5785
iminal	-5786
phones	-5787
▁Islam	-5788
▁Teach	-5789
▁Trans	-5790
▁Watch	-5791
▁analy	-5792
▁daily	-5793
▁faced	-5794
▁falls	-5795
▁false	-5796
▁infin	-5797
▁polar	-5798
▁rates	-5799
▁resil	-5800
▁sheep	-5801
▁stere	-5802
▁sympt	-5803
connect	-5804
inction	-5805
ternoon	-5806
▁Anyone	-5807
▁Boston	-5808
▁Canada	-5809
▁Design	-5810
▁France	-5811
▁Health	-5812
▁Thomas	-5813
▁acknow	-5814
▁democr	-5815
▁deploy	-5816
▁desper	-5817
▁gather	-5818
▁handle	-5819
▁hearts	-5820
▁improv	-5821
▁inches	-5822
▁inevit	-5823
▁ingred	-5824
▁lifest	-5825
▁missed	-5826
▁myster	-5827
▁patent	-5828
▁phrase	-5829
▁severe	-5830
▁signed	-5831
▁thanks	-5832
▁thrown	-5833
▁volcan	-5834
volution	-5835
▁applied	-5836
▁bicycle	-5837
▁carried	-5838
▁channel	-5839
▁classic	-5840
▁clothes	-5841
▁defined	-5842
▁discipl	-5843
▁empower	-5844
▁fiction	-5845
▁fingers	-5846
▁frankly	-5847
▁illness	-5848
▁library	-5849
▁mystery	-5850
▁solving	-5851
▁station	-5852
▁wanting	-5853
abilities	-5854
▁Children	-5855
▁Secondly	-5856
▁Suddenly	-5857
▁brothers	-5858
▁circumst	-5859
▁combined	-5860
▁conclude	-5861
▁engaging	-5862
▁engineer	-5863
▁horrible	-5864
▁location	-5865
▁password	-5866
▁romantic	-5867
▁tracking	-5868
▁vertical	-5869
▁President	-5870
▁afternoon	-5871
▁customers	-5872
▁exploring	-5873
▁framework	-5874
▁generally	-5875
▁mechanism	-5876
▁narrative	-5877
▁protected	-5878
▁spiritual	-5879
▁translate	-5880
▁recognized	-5881
▁volunteers	-5882
▁disappeared	-5883
▁independent	-5884
▁instruments	-5885
▁underground	-5886
▁applications	-5887
▁organizations	-5888
dr	-5889
azz	-5890
emb	-5891
har	-5892
ipp	-5893
lim	-5894
nes	-5895
obs	-5896
ses	-5897
▁Cy	-5898
▁GP	-5899
▁RB	-5900
▁Ty	-5901
arsh	-5902
atin	-5903
eady	-5904
elly	-5905
eyed	-5906
ogue	-5907
pril	-5908
ruck	-5909
soft	-5910
udge	-5911
uits	-5912
zero	-5913
▁Eve	-5914
▁Fin	-5915
▁Jul	-5916
▁Nic	-5917
▁Out	-5918
▁Rad	-5919
▁aim	-5920
▁tip	-5921
akers	-5922
amine	-5923
eness	-5924
erved	-5925
erves	-5926
flies	-5927
iders	-5928
night	-5929
tocin	-5930
▁Budd	-5931
▁Open	-5932
▁Star	-5933
▁Time	-5934
▁bike	-5935
▁cott	-5936
▁guns	-5937
▁hire	-5938
▁hits	-5939
▁infl	-5940
▁isol	-5941
▁lect	-5942
▁pian	-5943
▁plot	-5944
▁plus	-5945
▁poly	-5946
▁pool	-5947
▁quit	-5948
▁tack	-5949
▁tent	-5950
▁till	-5951
anging	-5952
ietnam	-5953
olving	-5954
stream	-5955
▁April	-5956
▁Hello	-5957
▁Henry	-5958
▁Paris	-5959
▁Steve	-5960
▁Tibet	-5961
▁Union	-5962
▁angle	-5963
▁colon	-5964
▁dense	-5965
▁liver	-5966
▁memor	-5967
▁orbit	-5968
▁ought	-5969
▁owner	-5970
▁phase	-5971
▁plans	-5972
▁prize	-5973
▁punch	-5974
▁queen	-5975
▁refer	-5976
▁thumb	-5977
▁title	-5978
▁whose	-5979
▁wires	-5980
cellent	-5981
erences	-5982
iveness	-5983
through	-5984
▁Arctic	-5985
▁Indeed	-5986
▁Nature	-5987
▁Virgin	-5988
▁blocks	-5989
▁border	-5990
▁caused	-5991
▁chairs	-5992
▁clouds	-5993
▁crying	-5994
▁frozen	-5995
▁inject	-5996
▁linked	-5997
▁mirror	-5998
▁pulled	-5999
▁secure	-6000
▁spring	-6001
▁suffer	-6002
▁tested	-6003
▁volume	-6004
▁worlds	-6005
inations	-6006
▁October	-6007
▁Suppose	-6008
▁Without	-6009
▁actions	-6010
▁appears	-6011
▁article	-6012
▁capable	-6013
▁charity	-6014
▁conduct	-6015
▁consist	-6016
▁embrace	-6017
▁essence	-6018
▁extract	-6019
▁females	-6020
▁include	-6021
▁players	-6022
▁rebuild	-6023
▁savings	-6024
▁selfish	-6025
▁setting	-6026
▁winning	-6027
▁younger	-6028
▁affected	-6029
▁distinct	-6030
▁dynamics	-6031
▁internal	-6032
▁microbes	-6033
▁occasion	-6034
▁ordinary	-6035
▁presence	-6036
▁proteins	-6037
▁provides	-6038
▁released	-6039
▁somewhat	-6040
ologically	-6041
▁Microsoft	-6042
▁apartment	-6043
▁continued	-6044
▁hopefully	-6045
▁identical	-6046
▁including	-6047
▁measuring	-6048
▁paralyzed	-6049
▁producing	-6050
▁recommend	-6051
▁sculpture	-6052
▁selection	-6053
▁Antarctica	-6054
▁controvers	-6055
▁directions	-6056
▁inequality	-6057
▁psychology	-6058
▁computation	-6059
▁demonstrate	-6060
▁inspiration	-6061
▁transparent	-6062
▁contemporary	-6063
▁photographed	-6064
2,	-6065
AR	-6066
If	-6067
In	-6068
St	-6069
do	-6070
500	-6071
abb	-6072
aci	-6073
alt	-6074
ena	-6075
hol	-6076
iat	-6077
obo	-6078
ria	-6079
sum	-6080
uum	-6081
vas	-6082
▁45	-6083
▁Kh	-6084
▁Up	-6085
▁Us	-6086
bert	-6087
cont	-6088
icks	-6089
iety	-6090
iors	-6091
isph	-6092
lock	-6093
ulse	-6094
▁Cop	-6095
▁Fif	-6096
▁LED	-6097
▁Law	-6098
▁Net	-6099
▁Pat	-6100
▁anx	-6101
▁bee	-6102
▁cas	-6103
▁cub	-6104
▁dat	-6105
▁gut	-6106
▁hip	-6107
▁tea	-6108
▁wid	-6109
abled	-6110
aming	-6111
isten	-6112
lying	-6113
ounce	-6114
rency	-6115
umped	-6116
usive	-6117
▁Comm	-6118
▁Gand	-6119
▁Jack	-6120
▁Part	-6121
▁Stan	-6122
▁Stop	-6123
▁axis	-6124
▁conc	-6125
▁fert	-6126
▁gram	-6127
▁lamp	-6128
▁meme	-6129
▁mere	-6130
▁nuts	-6131
▁pump	-6132
▁stro	-6133
▁synd	-6134
▁tank	-6135
▁wrap	-6136
esthes	-6137
market	-6138
omical	-6139
soever	-6140
▁Bible	-6141
▁Build	-6142
▁Congo	-6143
▁Doesn	-6144
▁Scott	-6145
▁Seven	-6146
▁Super	-6147
▁Titan	-6148
▁bones	-6149
▁disag	-6150
▁eaten	-6151
▁embed	-6152
▁gonna	-6153
▁guide	-6154
▁holds	-6155
▁males	-6156
▁occup	-6157
▁opens	-6158
▁panel	-6159
▁proof	-6160
▁songs	-6161
▁sport	-6162
anthrop	-6163
ounding	-6164
▁Notice	-6165
▁Oxford	-6166
▁Things	-6167
▁farmer	-6168
▁hardly	-6169
▁laptop	-6170
▁locked	-6171
▁lovely	-6172
▁placed	-6173
▁proced	-6174
▁regret	-6175
▁rubber	-6176
▁stands	-6177
▁voices	-6178
▁TEDTalk	-6179
▁Vietnam	-6180
▁chapter	-6181
▁comfort	-6182
▁encoura	-6183
▁equally	-6184
▁existed	-6185
▁fishing	-6186
▁frequen	-6187
▁gravity	-6188
▁hitting	-6189
▁origami	-6190
▁poorest	-6191
▁promise	-6192
▁records	-6193
▁sisters	-6194
▁therapy	-6195
▁tonight	-6196
▁washing	-6197
▁Republic	-6198
▁clinical	-6199
▁complain	-6200
▁contrast	-6201
▁crossing	-6202
▁director	-6203
▁drawings	-6204
▁elevator	-6205
▁listened	-6206
▁meetings	-6207
▁morality	-6208
▁produces	-6209
▁proposed	-6210
▁shooting	-6211
▁sleeping	-6212
▁Australia	-6213
▁Hollywood	-6214
▁paintings	-6215
▁privilege	-6216
▁radically	-6217
▁worldwide	-6218
▁Technology	-6219
▁boundaries	-6220
▁categories	-6221
▁incentives	-6222
▁laboratory	-6223
▁originally	-6224
▁prediction	-6225
▁reputation	-6226
▁simulation	-6227
▁whatsoever	-6228
▁recognition	-6229
"?	-6230
Ah	-6231
ka	-6232
All	-6233
elf	-6234
eyn	-6235
gic	-6236
iel	-6237
nda	-6238
net	-6239
oli	-6240
▁US	-6241
▁na	-6242
cale	-6243
doll	-6244
ecut	-6245
foot	-6246
hour	-6247
iled	-6248
imic	-6249
keep	-6250
▁700	-6251
▁Bay	-6252
▁Feb	-6253
▁Has	-6254
▁Haw	-6255
▁Jim	-6256
▁Mac	-6257
▁Med	-6258
▁Met	-6259
▁Say	-6260
▁Try	-6261
▁adj	-6262
▁asp	-6263
▁cup	-6264
▁ham	-6265
▁lin	-6266
▁rit	-6267
▁sen	-6268
▁spr	-6269
▁wet	-6270
alian	-6271
ament	-6272
antom	-6273
arant	-6274
being	-6275
child	-6276
ching	-6277
cking	-6278
icing	-6279
iform	-6280
iracy	-6281
leton	-6282
lines	-6283
orous	-6284
orter	-6285
oxide	-6286
ribly	-6287
three	-6288
▁Back	-6289
▁Ethi	-6290
▁Fort	-6291
▁Jeff	-6292
▁Move	-6293
▁Port	-6294
▁Sept	-6295
▁atom	-6296
▁bath	-6297
▁clim	-6298
▁dign	-6299
▁firm	-6300
▁foie	-6301
▁fuck	-6302
▁horm	-6303
▁kiss	-6304
▁lake	-6305
▁limb	-6306
▁nutr	-6307
▁pupp	-6308
▁rely	-6309
▁rope	-6310
▁shar	-6311
▁shif	-6312
▁susp	-6313
▁tear	-6314
▁tune	-6315
▁ugly	-6316
▁vent	-6317
ceived	-6318
icious	-6319
inking	-6320
ounced	-6321
▁Eight	-6322
▁Grand	-6323
▁actor	-6324
▁alien	-6325
▁clust	-6326
▁colum	-6327
▁decre	-6328
▁estim	-6329
▁fault	-6330
▁flour	-6331
▁fluid	-6332
▁glaci	-6333
▁indic	-6334
▁kills	-6335
▁pairs	-6336
▁persu	-6337
▁plain	-6338
▁renew	-6339
▁reven	-6340
▁uncle	-6341
▁upset	-6342
▁views	-6343
▁walks	-6344
chestra	-6345
isphere	-6346
▁Jewish	-6347
▁astero	-6348
▁cheese	-6349
▁escape	-6350
▁extent	-6351
▁fabric	-6352
▁legacy	-6353
▁obstac	-6354
▁owners	-6355
▁papers	-6356
▁pixels	-6357
▁refuge	-6358
▁review	-6359
▁scales	-6360
▁silent	-6361
▁struck	-6362
▁talent	-6363
▁Pacific	-6364
▁advance	-6365
▁amongst	-6366
▁anatomy	-6367
▁autonom	-6368
▁burning	-6369
▁courage	-6370
▁crucial	-6371
▁deliber	-6372
▁dioxide	-6373
▁factors	-6374
▁finance	-6375
▁habitat	-6376
▁hanging	-6377
▁horizon	-6378
▁mindset	-6379
▁miracle	-6380
▁nowhere	-6381
▁outrage	-6382
▁paradox	-6383
▁reprodu	-6384
▁scratch	-6385
▁singing	-6386
▁suicide	-6387
▁windows	-6388
▁addition	-6389
▁appeared	-6390
▁attitude	-6391
▁breaking	-6392
▁concepts	-6393
▁convince	-6394
▁existing	-6395
▁friendly	-6396
▁keyboard	-6397
▁kindness	-6398
▁leverage	-6399
▁organize	-6400
▁policies	-6401
▁printing	-6402
▁repeated	-6403
▁sunlight	-6404
▁surfaces	-6405
▁syndrome	-6406
▁September	-6407
▁collected	-6408
▁computing	-6409
▁dedicated	-6410
▁furniture	-6411
▁gentleman	-6412
▁uncertain	-6413
▁apparently	-6414
▁controlled	-6415
▁electronic	-6416
▁healthcare	-6417
▁hemisphere	-6418
▁hypothesis	-6419
▁industries	-6420
▁introduced	-6421
▁combination	-6422
▁controlling	-6423
▁exponential	-6424
▁interacting	-6425
▁International	-6426
▁fundamentally	-6427
IT	-6428
bi	-6429
ek	-6430
wr	-6431
Are	-6432
two	-6433
uba	-6434
war	-6435
▁'9	-6436
▁AK	-6437
▁CC	-6438
▁Cr	-6439
▁Em	-6440
▁IM	-6441
▁NG	-6442
▁Ro	-6443
▁rh	-6444
agon	-6445
anze	-6446
arge	-6447
cean	-6448
cers	-6449
cons	-6450
fold	-6451
gers	-6452
grad	-6453
hatt	-6454
iggs	-6455
ille	-6456
oded	-6457
oral	-6458
play	-6459
quee	-6460
rons	-6461
ulin	-6462
vard	-6463
▁'60	-6464
▁10.	-6465
▁Abs	-6466
▁GPS	-6467
▁Mad	-6468
▁Nan	-6469
▁Spe	-6470
▁Way	-6471
▁ben	-6472
▁ens	-6473
▁hat	-6474
▁hol	-6475
▁ped	-6476
▁tab	-6477
▁tro	-6478
▁vit	-6479
acing	-6480
andem	-6481
andon	-6482
apore	-6483
archy	-6484
digit	-6485
icago	-6486
icket	-6487
ifice	-6488
itals	-6489
lades	-6490
maker	-6491
oline	-6492
ruary	-6493
▁Camp	-6494
▁Feyn	-6495
▁Ford	-6496
▁Mean	-6497
▁Nove	-6498
▁Wind	-6499
▁acid	-6500
▁bask	-6501
▁bond	-6502
▁cens	-6503
▁dawn	-6504
▁fool	-6505
▁lets	-6506
▁mood	-6507
▁neck	-6508
▁neut	-6509
▁rent	-6510
▁sacr	-6511
▁tens	-6512
▁ther	-6513
▁unit	-6514
abetes	-6515
anzees	-6516
dollar	-6517
hattan	-6518
▁Higgs	-6519
▁House	-6520
▁Latin	-6521
▁Mount	-6522
▁Obama	-6523
▁Under	-6524
▁badly	-6525
▁banks	-6526
▁begun	-6527
▁brown	-6528
▁burst	-6529
▁cliff	-6530
▁crops	-6531
▁cryst	-6532
▁delic	-6533
▁dozen	-6534
▁drove	-6535
▁edges	-6536
▁frequ	-6537
▁imper	-6538
▁maxim	-6539
▁memes	-6540
▁meter	-6541
▁paras	-6542
▁proto	-6543
▁roots	-6544
▁score	-6545
▁shirt	-6546
▁silly	-6547
▁smoke	-6548
▁stack	-6549
▁stret	-6550
▁surve	-6551
▁toxic	-6552
▁tribe	-6553
▁unpre	-6554
▁vital	-6555
▁wired	-6556
▁Arabic	-6557
▁Island	-6558
▁Ninety	-6559
▁Pretty	-6560
▁convey	-6561
▁correl	-6562
▁execut	-6563
▁expans	-6564
▁filter	-6565
▁fisher	-6566
▁forgot	-6567
▁ignore	-6568
▁intrig	-6569
▁loving	-6570
▁needle	-6571
▁neuros	-6572
▁pencil	-6573
▁perman	-6574
▁poster	-6575
▁pushed	-6576
▁rarely	-6577
▁ritual	-6578
▁sequen	-6579
▁sports	-6580
▁tribes	-6581
▁wishes	-6582
etically	-6583
▁Chicago	-6584
▁Feynman	-6585
▁Harvard	-6586
▁Science	-6587
▁Someone	-6588
▁abandon	-6589
▁anticip	-6590
▁balloon	-6591
▁bubbles	-6592
▁delight	-6593
▁deserve	-6594
▁designs	-6595
▁fastest	-6596
▁happier	-6597
▁imaging	-6598
▁logical	-6599
▁muscles	-6600
▁outcome	-6601
▁penguin	-6602
▁quarter	-6603
▁reached	-6604
▁regener	-6605
▁vessels	-6606
▁warning	-6607
▁February	-6608
▁November	-6609
▁advanced	-6610
▁altitude	-6611
▁concrete	-6612
▁confused	-6613
▁contains	-6614
▁generate	-6615
▁mobility	-6616
▁official	-6617
▁overcome	-6618
▁oxytocin	-6619
▁particle	-6620
▁scenario	-6621
▁shopping	-6622
▁Banglades	-6623
▁Manhattan	-6624
▁Singapore	-6625
▁ancestors	-6626
▁animation	-6627
▁centuries	-6628
▁consumers	-6629
▁convinced	-6630
▁criminals	-6631
▁depressed	-6632
▁determine	-6633
▁dimension	-6634
▁elephants	-6635
▁expanding	-6636
▁gradually	-6637
▁inspiring	-6638
▁replicate	-6639
▁responses	-6640
▁sentences	-6641
▁volunteer	-6642
▁Department	-6643
▁department	-6644
▁dictionary	-6645
▁historical	-6646
▁innovative	-6647
▁newspapers	-6648
▁philosophy	-6649
▁physically	-6650
▁resistance	-6651
▁underwater	-6652
▁application	-6653
▁frightening	-6654
▁participate	-6655
▁politicians	-6656
▁transformed	-6657
▁breakthrough	-6658
▁conservation	-6659
▁increasingly	-6660
▁successfully	-6661
▁demonstration	-6662
▁transportation	-6663
▁straightforward	-6664
BM	-6665
Os	-6666
ec	-6667
gl	-6668
ua	-6669
ald	-6670
aze	-6671
bra	-6672
cro	-6673
edy	-6674
gra	-6675
isy	-6676
org	-6677
raw	-6678
sey	-6679
uel	-6680
vin	-6681
▁26	-6682
▁DR	-6683
▁du	-6684
▁ho	-6685
▁je	-6686
Come	-6687
bors	-6688
emen	-6689
erry	-6690
fall	-6691
five	-6692
izza	-6693
mare	-6694
otes	-6695
quar	-6696
rypt	-6697
ship	-6698
uity	-6699
utch	-6700
▁250	-6701
▁800	-6702
▁Ber	-6703
▁Bob	-6704
▁Bro	-6705
▁Fre	-6706
▁Que	-6707
▁Ray	-6708
▁Tal	-6709
▁Unt	-6710
▁Wik	-6711
▁due	-6712
▁gay	-6713
▁nar	-6714
▁obl	-6715
▁pir	-6716
▁rig	-6717
▁shy	-6718
▁tie	-6719
▁twe	-6720
▁unh	-6721
actly	-6722
anges	-6723
asses	-6724
cohol	-6725
enced	-6726
icher	-6727
icted	-6728
iters	-6729
licit	-6730
oning	-6731
opath	-6732
orden	-6733
owers	-6734
tical	-6735
uctor	-6736
▁..."	-6737
▁Alex	-6738
▁Army	-6739
▁Milo	-6740
▁Mond	-6741
▁army	-6742
▁bats	-6743
▁biom	-6744
▁bite	-6745
▁brut	-6746
▁chim	-6747
▁clar	-6748
▁cock	-6749
▁damn	-6750
▁dies	-6751
▁east	-6752
▁gods	-6753
▁golf	-6754
▁irre	-6755
▁loan	-6756
▁myce	-6757
▁palm	-6758
▁rail	-6759
▁salt	-6760
▁sits	-6761
▁tone	-6762
▁trig	-6763
▁tube	-6764
▁wing	-6765
▁zone	-6766
icking	-6767
▁Clear	-6768
▁Count	-6769
▁Jesus	-6770
▁Rober	-6771
▁While	-6772
▁abund	-6773
▁algae	-6774
▁antib	-6775
▁brave	-6776
▁cares	-6777
▁court	-6778
▁drawn	-6779
▁flows	-6780
▁frame	-6781
▁freak	-6782
▁goods	-6783
▁knife	-6784
▁minor	-6785
▁miser	-6786
▁naked	-6787
▁piano	-6788
▁pleas	-6789
▁presc	-6790
▁rains	-6791
▁reson	-6792
▁sched	-6793
▁skull	-6794
▁stair	-6795
▁style	-6796
▁tends	-6797
▁traum	-6798
▁visit	-6799
▁youth	-6800
itution	-6801
olutely	-6802
ustrial	-6803
▁Museum	-6804
▁Within	-6805
▁agenda	-6806
▁arrest	-6807
▁astron	-6808
▁burden	-6809
▁buried	-6810
▁conven	-6811
▁deaths	-6812
▁devast	-6813
▁dragon	-6814
▁garage	-6815
▁heroes	-6816
▁interf	-6817
▁landed	-6818
▁layers	-6819
▁mainly	-6820
▁manual	-6821
▁orange	-6822
▁origin	-6823
▁panels	-6824
▁regard	-6825
▁repair	-6826
▁retire	-6827
▁shadow	-6828
▁sketch	-6829
▁stages	-6830
▁stones	-6831
▁strand	-6832
▁ticket	-6833
▁tricks	-6834
▁trucks	-6835
▁victim	-6836
▁whales	-6837
aneously	-6838
▁circles	-6839
▁comment	-6840
▁comprom	-6841
▁consult	-6842
▁consume	-6843
▁density	-6844
▁dignity	-6845
▁diverse	-6846
▁divided	-6847
▁enables	-6848
▁feeding	-6849
▁imagery	-6850
▁impress	-6851
▁leather	-6852
▁overall	-6853
▁painted	-6854
▁phantom	-6855
▁playful	-6856
▁prepare	-6857
▁printed	-6858
▁puzzles	-6859
▁regions	-6860
▁samples	-6861
▁targets	-6862
▁wheelch	-6863
▁Ethiopia	-6864
▁accepted	-6865
▁aircraft	-6866
▁although	-6867
▁attribut	-6868
▁catching	-6869
▁criminal	-6870
▁dinosaur	-6871
▁disorder	-6872
▁election	-6873
▁embedded	-6874
▁equality	-6875
▁facility	-6876
▁involves	-6877
▁lighting	-6878
▁mosquito	-6879
▁predator	-6880
▁reaching	-6881
▁required	-6882
▁returned	-6883
▁shoulder	-6884
▁smallest	-6885
▁southern	-6886
▁subjects	-6887
▁suffered	-6888
▁surgeons	-6889
▁symptoms	-6890
▁villages	-6891
▁accidents	-6892
▁anonymous	-6893
▁behaviors	-6894
▁calculate	-6895
▁elections	-6896
▁emissions	-6897
▁explained	-6898
▁generated	-6899
▁lifestyle	-6900
▁movements	-6901
▁neighbors	-6902
▁nightmare	-6903
▁objective	-6904
▁practices	-6905
▁reduction	-6906
▁reference	-6907
▁satisfied	-6908
▁signature	-6909
▁strangers	-6910
▁affordable	-6911
▁attractive	-6912
▁connecting	-6913
▁frustrated	-6914
▁inevitable	-6915
▁inherently	-6916
▁mathematic	-6917
▁microscope	-6918
▁passionate	-6919
▁ridiculous	-6920
▁discoveries	-6921
▁educational	-6922
▁electronics	-6923
▁populations	-6924
▁predictions	-6925
▁represented	-6926
▁uncertainty	-6927
▁experimental	-6928
▁independence	-6929
▁circumstances	-6930
▁technological	-6931
▁representation	-6932
70	-6933
Sh	-6934
au	-6935
▁:	-6936
Wow	-6937
agh	-6938
ape	-6939
asy	-6940
aws	-6941
box	-6942
bul	-6943
cap	-6944
cip	-6945
eps	-6946
hen	-6947
lyn	-6948
nel	-6949
oca	-6950
rif	-6951
see	-6952
▁0.	-6953
▁Ap	-6954
▁Hy	-6955
asks	-6956
aust	-6957
erek	-6958
eren	-6959
eros	-6960
olic	-6961
omal	-6962
oran	-6963
rets	-6964
well	-6965
▁Aut	-6966
▁Bab	-6967
▁Bus	-6968
▁Edu	-6969
▁Gen	-6970
▁Had	-6971
▁Hom	-6972
▁Lou	-6973
▁MIT	-6974
▁Men	-6975
▁Sad	-6976
▁Sur	-6977
▁Tor	-6978
▁Tur	-6979
▁fet	-6980
▁gig	-6981
▁god	-6982
▁ink	-6983
▁pip	-6984
▁pit	-6985
▁ski	-6986
▁tut	-6987
▁vag	-6988
▁voc	-6989
▁wed	-6990
▁wip	-6991
alled	-6992
andel	-6993
athan	-6994
earch	-6995
elson	-6996
gment	-6997
heart	-6998
mates	-6999
obile	-7000
orted	-7001
pring	-7002
scale	-7003
venth	-7004
▁Cour	-7005
▁Diff	-7006
▁Hope	-7007
▁Keep	-7008
▁Kids	-7009
▁Lots	-7010
▁Moon	-7011
▁Park	-7012
▁Phot	-7013
▁Sure	-7014
▁bias	-7015
▁cake	-7016
▁cham	-7017
▁clay	-7018
▁clot	-7019
▁clue	-7020
▁dism	-7021
▁duck	-7022
▁entr	-7023
▁flip	-7024
▁frog	-7025
▁hors	-7026
▁hybr	-7027
▁leap	-7028
▁meal	-7029
▁ment	-7030
▁quad	-7031
▁root	-7032
▁seas	-7033
▁seed	-7034
▁shit	-7035
▁subt	-7036
▁tatt	-7037
▁tied	-7038
▁whom	-7039
Americ	-7040
ablish	-7041
aching	-7042
astics	-7043
lessly	-7044
rained	-7045
struct	-7046
urable	-7047
viewer	-7048
▁Broad	-7049
▁Ocean	-7050
▁Peace	-7051
▁Space	-7052
▁Spain	-7053
▁abuse	-7054
▁accum	-7055
▁ambig	-7056
▁brush	-7057
▁champ	-7058
▁clubs	-7059
▁drill	-7060
▁enemy	-7061
▁excit	-7062
▁explo	-7063
▁ignor	-7064
▁imple	-7065
▁indig	-7066
▁intim	-7067
▁judge	-7068
▁laser	-7069
▁links	-7070
▁maker	-7071
▁pizza	-7072
▁plank	-7073
▁realm	-7074
▁recyc	-7075
▁relax	-7076
▁roads	-7077
▁safer	-7078
▁sauce	-7079
▁shots	-7080
▁skept	-7081
▁spons	-7082
▁spots	-7083
▁steal	-7084
▁teles	-7085
▁tempt	-7086
▁tight	-7087
▁tries	-7088
▁voted	-7089
embered	-7090
inguish	-7091
ogether	-7092
orgeous	-7093
uration	-7094
▁20,000	-7095
▁Center	-7096
▁Global	-7097
▁Govern	-7098
▁Martin	-7099
▁Nelson	-7100
▁Others	-7101
▁System	-7102
▁adjust	-7103
▁apolog	-7104
▁assemb	-7105
▁athlet	-7106
▁barely	-7107
▁behave	-7108
▁bother	-7109
▁brands	-7110
▁candid	-7111
▁capita	-7112
▁conver	-7113
▁cotton	-7114
▁deadly	-7115
▁defend	-7116
▁domain	-7117
▁domest	-7118
▁errors	-7119
▁fought	-7120
▁gained	-7121
▁halluc	-7122
▁invite	-7123
▁killer	-7124
▁latest	-7125
▁linear	-7126
▁pandem	-7127
▁perpet	-7128
▁remove	-7129
▁richer	-7130
▁rising	-7131
▁robust	-7132
▁sticks	-7133
▁stores	-7134
▁surely	-7135
▁tracks	-7136
▁traged	-7137
▁trains	-7138
cedented	-7139
▁Clearly	-7140
▁General	-7141
▁Indians	-7142
▁alcohol	-7143
▁anxiety	-7144
▁borders	-7145
▁centers	-7146
▁clients	-7147
▁condoms	-7148
▁contrad	-7149
▁electro	-7150
▁exhaust	-7151
▁farming	-7152
▁footage	-7153
▁fragile	-7154
▁glasses	-7155
▁guarant	-7156
▁hackers	-7157
▁iceberg	-7158
▁ignored	-7159
▁instant	-7160
▁intense	-7161
▁keeping	-7162
▁kidding	-7163
▁lottery	-7164
▁magical	-7165
▁musical	-7166
▁passing	-7167
▁refused	-7168
▁session	-7169
▁staying	-7170
▁Stanford	-7171
▁analysis	-7172
▁breeding	-7173
▁category	-7174
▁currency	-7175
▁deforest	-7176
▁diabetes	-7177
▁incident	-7178
▁relevant	-7179
▁stations	-7180
▁textbook	-7181
▁airplanes	-7182
▁classical	-7183
▁detection	-7184
▁emergency	-7185
▁expansion	-7186
▁footprint	-7187
▁precisely	-7188
▁predicted	-7189
▁providing	-7190
▁recording	-7191
▁sensitive	-7192
▁succeeded	-7193
▁telephone	-7194
▁transcend	-7195
▁Bangladesh	-7196
▁autonomous	-7197
▁collecting	-7198
▁commitment	-7199
▁engagement	-7200
▁excitement	-7201
▁exhibition	-7202
▁integrated	-7203
▁journalist	-7204
▁productive	-7205
▁protecting	-7206
▁reflection	-7207
▁remembered	-7208
▁transplant	-7209
▁Interviewer	-7210
▁beautifully	-7211
▁expressions	-7212
▁fortunately	-7213
▁manufacture	-7214
▁probability	-7215
▁proposition	-7216
▁supermarket	-7217
▁interactions	-7218
▁storytelling	-7219
▁entertainment	-7220
▁unprecedented	-7221
4,	-7222
6,	-7223
OL	-7224
da	-7225
ev	-7226
ih	-7227
mi	-7228
ov	-7229
ye	-7230
aid	-7231
alu	-7232
bed	-7233
hea	-7234
hot	-7235
ili	-7236
ini	-7237
isl	-7238
ixt	-7239
leg	-7240
mes	-7241
oir	-7242
oma	-7243
rag	-7244
rof	-7245
rus	-7246
sem	-7247
▁32	-7248
▁35	-7249
▁CD	-7250
▁ED	-7251
▁GG	-7252
▁Gr	-7253
▁Ha	-7254
▁Jo	-7255
▁La	-7256
▁Od	-7257
▁RL	-7258
▁SJ	-7259
▁Sy	-7260
▁Ug	-7261
▁py	-7262
▁ye	-7263
They	-7264
abin	-7265
arre	-7266
atts	-7267
ault	-7268
conf	-7269
erer	-7270
exas	-7271
gend	-7272
icop	-7273
iful	-7274
neys	-7275
onic	-7276
osal	-7277
otto	-7278
outs	-7279
phas	-7280
tail	-7281
urse	-7282
▁191	-7283
▁Cur	-7284
▁Dis	-7285
▁Gab	-7286
▁Ger	-7287
▁Lab	-7288
▁Mag	-7289
▁ain	-7290
▁bin	-7291
▁dun	-7292
▁hal	-7293
▁jug	-7294
▁lob	-7295
▁lun	-7296
▁obt	-7297
▁raw	-7298
▁sed	-7299
There	-7300
burgh	-7301
class	-7302
ffect	-7303
field	-7304
gener	-7305
inger	-7306
ivial	-7307
oster	-7308
osure	-7309
riger	-7310
▁Abed	-7311
▁Beij	-7312
▁Bell	-7313
▁Coke	-7314
▁Didn	-7315
▁Eric	-7316
▁Gene	-7317
▁Gulf	-7318
▁Home	-7319
▁Hong	-7320
▁Lear	-7321
▁Norm	-7322
▁Rome	-7323
▁Span	-7324
▁batt	-7325
▁buck	-7326
▁calm	-7327
▁cash	-7328
▁cosm	-7329
▁enth	-7330
▁flag	-7331
▁fulf	-7332
▁grat	-7333
▁icon	-7334
▁larv	-7335
▁mice	-7336
▁mode	-7337
▁mold	-7338
▁rede	-7339
▁sake	-7340
▁sett	-7341
▁sink	-7342
▁soup	-7343
▁toss	-7344
▁trop	-7345
▁tuna	-7346
▁vibr	-7347
▁whis	-7348
arents	-7349
encies	-7350
gments	-7351
ipedia	-7352
istory	-7353
izarre	-7354
omeday	-7355
▁Apple	-7356
▁Being	-7357
▁Charl	-7358
▁Court	-7359
▁Derek	-7360
▁James	-7361
▁March	-7362
▁State	-7363
▁Texas	-7364
▁White	-7365
▁anger	-7366
▁backy	-7367
▁blame	-7368
▁coinc	-7369
▁consp	-7370
▁craft	-7371
▁datab	-7372
▁flood	-7373
▁fract	-7374
▁grasp	-7375
▁immun	-7376
▁initi	-7377
▁items	-7378
▁jeans	-7379
▁membr	-7380
▁nerve	-7381
▁panic	-7382
▁rings	-7383
▁risky	-7384
▁schem	-7385
▁sheet	-7386
▁shore	-7387
▁sixth	-7388
▁sizes	-7389
▁squee	-7390
▁stunt	-7391
▁toler	-7392
▁tooth	-7393
▁wider	-7394
▁wrist	-7395
rations	-7396
section	-7397
vention	-7398
▁Friday	-7399
▁Little	-7400
▁Monday	-7401
▁Newton	-7402
▁Norden	-7403
▁Scient	-7404
▁Social	-7405
▁Twenty	-7406
▁acoust	-7407
▁binary	-7408
▁butter	-7409
▁client	-7410
▁excuse	-7411
▁formal	-7412
▁fusion	-7413
▁helium	-7414
▁insane	-7415
▁intact	-7416
▁legisl	-7417
▁marker	-7418
▁oldest	-7419
▁output	-7420
▁propag	-7421
▁prosth	-7422
▁proved	-7423
▁shower	-7424
▁speaks	-7425
▁static	-7426
▁theore	-7427
▁troops	-7428
▁upside	-7429
▁vacuum	-7430
▁waters	-7431
esthesia	-7432
▁Exactly	-7433
▁Iceland	-7434
▁Italian	-7435
▁Nations	-7436
▁Through	-7437
▁absence	-7438
▁affects	-7439
▁analogy	-7440
▁aspects	-7441
▁banking	-7442
▁buttons	-7443
▁capture	-7444
▁centrif	-7445
▁cheaper	-7446
▁concern	-7447
▁courses	-7448
▁cybercr	-7449
▁decline	-7450
▁dolphin	-7451
▁emerged	-7452
▁engaged	-7453
▁entered	-7454
▁enterpr	-7455
▁fathers	-7456
▁glamour	-7457
▁granted	-7458
▁inspire	-7459
▁mammals	-7460
▁methane	-7461
▁picking	-7462
▁pockets	-7463
▁printer	-7464
▁privacy	-7465
▁removed	-7466
▁unknown	-7467
▁visited	-7468
▁applause	-7469
▁channels	-7470
▁collapse	-7471
▁dialogue	-7472
▁diamonds	-7473
▁dolphins	-7474
▁emerging	-7475
▁entrance	-7476
▁gasoline	-7477
▁headline	-7478
▁informed	-7479
▁injuries	-7480
▁isolated	-7481
▁nowadays	-7482
▁occurred	-7483
▁pandemic	-7484
▁pointing	-7485
▁properly	-7486
▁refriger	-7487
▁traveled	-7488
▁unlikely	-7489
▁variable	-7490
▁awareness	-7491
▁deception	-7492
▁disorders	-7493
▁explosion	-7494
▁favorites	-7495
▁improving	-7496
▁interests	-7497
▁musicians	-7498
▁obstacles	-7499
▁orchestra	-7500
▁philosoph	-7501
▁protocell	-7502
▁separated	-7503
▁teenagers	-7504
▁traveling	-7505
▁variation	-7506
▁Revolution	-7507
▁accessible	-7508
▁afterwards	-7509
▁assumption	-7510
▁biologists	-7511
▁capability	-7512
▁correspond	-7513
▁determined	-7514
▁greenhouse	-7515
▁illustrate	-7516
▁proportion	-7517
▁resilience	-7518
▁wheelchair	-7519
▁yourselves	-7520
▁approaching	-7521
▁chimpanzees	-7522
▁constructed	-7523
▁cooperative	-7524
▁philanthrop	-7525
▁researchers	-7526
▁technically	-7527
▁translation	-7528
▁entrepreneur	-7529
▁automatically	-7530
▁deforestation	-7531
▁sustainability	-7532
PT	-7533
gu	-7534
jo	-7535
py	-7536
▁x	-7537
...	-7538
Did	-7539
bal	-7540
che	-7541
cod	-7542
equ	-7543
hum	-7544
kyo	-7545
rey	-7546
sex	-7547
udi	-7548
vis	-7549
▁27	-7550
▁KT	-7551
▁SM	-7552
▁SP	-7553
▁WK	-7554
▁nu	-7555
acts	-7556
ails	-7557
atar	-7558
atri	-7559
bing	-7560
core	-7561
cuse	-7562
fast	-7563
iece	-7564
lend	-7565
lies	-7566
life	-7567
list	-7568
lium	-7569
made	-7570
obos	-7571
olen	-7572
plus	-7573
teen	-7574
uded	-7575
▁'80	-7576
▁Fed	-7577
▁Ham	-7578
▁Him	-7579
▁Jer	-7580
▁Leg	-7581
▁Les	-7582
▁MRI	-7583
▁Mom	-7584
▁Off	-7585
▁Oft	-7586
▁Ros	-7587
▁Wal	-7588
▁cig	-7589
▁egg	-7590
▁gam	-7591
▁jam	-7592
▁lap	-7593
▁lon	-7594
▁oct	-7595
▁tub	-7596
Thank	-7597
anged	-7598
atoes	-7599
capes	-7600
eller	-7601
enous	-7602
essim	-7603
ested	-7604
ingly	-7605
inter	-7606
ipped	-7607
itate	-7608
izoph	-7609
ocate	-7610
ograp	-7611
ontal	-7612
otted	-7613
reens	-7614
stone	-7615
think	-7616
umble	-7617
uracy	-7618
▁1900	-7619
▁9/11	-7620
▁Blue	-7621
▁Conf	-7622
▁Cont	-7623
▁Long	-7624
▁Love	-7625
▁Sift	-7626
▁Sund	-7627
▁Wait	-7628
▁ages	-7629
▁beam	-7630
▁beer	-7631
▁bell	-7632
▁boss	-7633
▁bush	-7634
▁cast	-7635
▁cord	-7636
▁coun	-7637
▁cows	-7638
▁cree	-7639
▁dive	-7640
▁drum	-7641
▁eleg	-7642
▁elim	-7643
▁fits	-7644
▁hill	-7645
▁horr	-7646
▁jack	-7647
▁junk	-7648
▁laid	-7649
▁marg	-7650
▁melt	-7651
▁obso	-7652
▁ours	-7653
▁outs	-7654
▁rice	-7655
▁sale	-7656
▁soap	-7657
▁sole	-7658
▁stom	-7659
▁subs	-7660
▁west	-7661
acular	-7662
andela	-7663
arrhea	-7664
eopard	-7665
ivered	-7666
makers	-7667
mental	-7668
nocent	-7669
profit	-7670
raints	-7671
rowing	-7672
unting	-7673
usions	-7674
▁2010.	-7675
▁Dutch	-7676
▁Force	-7677
▁Indus	-7678
▁Peter	-7679
▁Radio	-7680
▁Small	-7681
▁Still	-7682
▁Tokyo	-7683
▁altru	-7684
▁audio	-7685
▁clips	-7686
▁conqu	-7687
▁depos	-7688
▁devil	-7689
▁diver	-7690
▁domin	-7691
▁joint	-7692
▁knees	-7693
▁logic	-7694
▁loose	-7695
▁mayor	-7696
▁mixed	-7697
▁rocks	-7698
▁rooms	-7699
▁slept	-7700
▁synch	-7701
▁teams	-7702
▁threw	-7703
▁troub	-7704
▁usual	-7705
▁wheat	-7706
▁worms	-7707
▁wound	-7708
looking	-7709
raction	-7710
▁50,000	-7711
▁Democr	-7712
▁Except	-7713
▁German	-7714
▁Nicole	-7715
▁Robert	-7716
▁Saturn	-7717
▁adding	-7718
▁apples	-7719
▁assets	-7720
▁basket	-7721
▁borrow	-7722
▁breaks	-7723
▁burned	-7724
▁candle	-7725
▁commod	-7726
▁config	-7727
▁contag	-7728
▁copied	-7729
▁cousin	-7730
▁emerge	-7731
▁evolve	-7732
▁funded	-7733
▁injury	-7734
▁insist	-7735
▁intent	-7736
▁kidney	-7737
▁lifted	-7738
▁neuron	-7739
▁nurses	-7740
▁occurs	-7741
▁pessim	-7742
▁poison	-7743
▁prices	-7744
▁recept	-7745
▁recess	-7746
▁rescue	-7747
▁sacred	-7748
▁served	-7749
▁settle	-7750
▁snakes	-7751
▁sphere	-7752
▁stable	-7753
▁stimul	-7754
▁stolen	-7755
▁thread	-7756
▁underp	-7757
▁writer	-7758
fficient	-7759
▁Mandela	-7760
▁Perfect	-7761
▁William	-7762
▁accused	-7763
▁amounts	-7764
▁barrier	-7765
▁beating	-7766
▁blowing	-7767
▁captain	-7768
▁charter	-7769
▁concert	-7770
▁cricket	-7771
▁ethical	-7772
▁harness	-7773
▁helpful	-7774
▁herself	-7775
▁impacts	-7776
▁intrins	-7777
▁officer	-7778
▁parties	-7779
▁passive	-7780
▁reduced	-7781
▁rewards	-7782
▁sensing	-7783
▁sensory	-7784
▁smarter	-7785
▁spreads	-7786
▁statist	-7787
▁surgeon	-7788
▁suspect	-7789
▁tragedy	-7790
▁trivial	-7791
▁venture	-7792
▁Business	-7793
▁Security	-7794
▁accuracy	-7795
▁actively	-7796
▁allowing	-7797
▁backyard	-7798
▁believes	-7799
▁cheating	-7800
▁climbing	-7801
▁controls	-7802
▁gorgeous	-7803
▁hardware	-7804
▁homeless	-7805
▁hopeless	-7806
▁identify	-7807
▁includes	-7808
▁mycelium	-7809
▁navigate	-7810
▁neurolog	-7811
▁obsolete	-7812
▁optimism	-7813
▁pregnant	-7814
▁presents	-7815
▁psychiat	-7816
▁rejected	-7817
▁remained	-7818
▁skeleton	-7819
▁substant	-7820
▁suggests	-7821
▁whenever	-7822
▁wherever	-7823
▁Otherwise	-7824
▁Wikipedia	-7825
▁abilities	-7826
▁cardboard	-7827
▁colleague	-7828
▁completed	-7829
▁conflicts	-7830
▁delivered	-7831
▁dependent	-7832
▁describes	-7833
▁documents	-7834
▁establish	-7835
▁expecting	-7836
▁frequency	-7837
▁hospitals	-7838
▁household	-7839
▁immediate	-7840
▁operation	-7841
▁permanent	-7842
▁physician	-7843
▁qualities	-7844
▁sacrifice	-7845
▁standards	-7846
▁substance	-7847
▁telescope	-7848
▁visualize	-7849
▁Absolutely	-7850
▁behavioral	-7851
▁comparison	-7852
▁difficulty	-7853
▁economists	-7854
▁indigenous	-7855
▁meaningful	-7856
▁mysterious	-7857
▁phenomenal	-7858
▁psychopath	-7859
▁resolution	-7860
▁satellites	-7861
▁chromosomes	-7862
▁demographic	-7863
▁distinguish	-7864
▁innovations	-7865
▁programming	-7866
▁conservative	-7867
▁dramatically	-7868
▁transforming	-7869
▁communicating	-7870
▁interestingly	-7871
▁vulnerability	-7872
EC	-7873
Ex	-7874
OK	-7875
bar	-7876
bre	-7877
eon	-7878
erg	-7879
ete	-7880
ias	-7881
oen	-7882
pos	-7883
pot	-7884
ras	-7885
ris	-7886
sun	-7887
▁33	-7888
▁55	-7889
▁AM	-7890
▁CP	-7891
▁MO	-7892
▁Ok	-7893
▁Ra	-7894
▁Sl	-7895
▁ah	-7896
▁oy	-7897
Here	-7898
apor	-7899
aran	-7900
asty	-7901
bage	-7902
bits	-7903
born	-7904
ccer	-7905
edge	-7906
erey	-7907
fess	-7908
half	-7909
heim	-7910
iens	-7911
illa	-7912
inem	-7913
mill	-7914
norm	-7915
omin	-7916
opes	-7917
pass	-7918
pled	-7919
plet	-7920
quis	-7921
rant	-7922
roid	-7923
star	-7924
zing	-7925
▁10,	-7926
▁10-	-7927
▁120	-7928
▁Add	-7929
▁Age	-7930
▁Ask	-7931
▁Den	-7932
▁Far	-7933
▁Gal	-7934
▁Ken	-7935
▁Old	-7936
▁Pop	-7937
▁Tes	-7938
▁Tim	-7939
▁Tra	-7940
▁aug	-7941
▁dil	-7942
▁dow	-7943
▁gro	-7944
▁lex	-7945
▁upd	-7946
anzee	-7947
arest	-7948
atrix	-7949
clock	-7950
ellow	-7951
esign	-7952
going	-7953
irect	-7954
istor	-7955
ondur	-7956
otive	-7957
plete	-7958
riend	-7959
uther	-7960
▁1990	-7961
▁Carl	-7962
▁Dece	-7963
▁Fire	-7964
▁Leon	-7965
▁Prot	-7966
▁Real	-7967
▁Tues	-7968
▁Whoa	-7969
▁adds	-7970
▁biod	-7971
▁bold	-7972
▁bump	-7973
▁bust	-7974
▁cert	-7975
▁crew	-7976
▁deck	-7977
▁earn	-7978
▁fate	-7979
▁hier	-7980
▁inch	-7981
▁knee	-7982
▁labs	-7983
▁logo	-7984
▁mild	-7985
▁mini	-7986
▁neoc	-7987
▁nurt	-7988
▁pale	-7989
▁pose	-7990
▁sons	-7991
▁suck	-7992
▁sulf	-7993
▁tale	-7994
▁tang	-7995
▁tort	-7996
▁unst	-7997
▁urge	-7998
▁wins	-7999
atever	-8000
bridge	-8001
driven	-8002
erving	-8003
iences	-8004
inging	-8005
itable	-8006
master	-8007
ousing	-8008
rients	-8009
romagn	-8010
thirds	-8011
unning	-8012
▁2000.	-8013
▁4,000	-8014
▁Asian	-8015
▁Barry	-8016
▁Buddh	-8017
▁Fifty	-8018
▁Langu	-8019
▁Power	-8020
▁Santa	-8021
▁Susie	-8022
▁agent	-8023
▁align	-8024
▁anten	-8025
▁apple	-8026
▁armed	-8027
▁array	-8028
▁bucks	-8029
▁candy	-8030
▁choos	-8031
▁cream	-8032
▁cruel	-8033
▁defic	-8034
▁elder	-8035
▁exped	-8036
▁fancy	-8037
▁fence	-8038
▁fires	-8039
▁inert	-8040
▁jelly	-8041
▁laund	-8042
▁lions	-8043
▁metab	-8044
▁motto	-8045
▁nucle	-8046
▁numer	-8047
▁nurse	-8048
▁overl	-8049
▁pants	-8050
▁pills	-8051
▁ratio	-8052
▁schol	-8053
▁sharp	-8054
▁tears	-8055
▁tower	-8056
▁units	-8057
▁veter	-8058
▁winds	-8059
▁zeros	-8060
attered	-8061
inarily	-8062
▁Around	-8063
▁Eighty	-8064
▁Hondur	-8065
▁Korean	-8066
▁Palest	-8067
▁advent	-8068
▁appeal	-8069
▁beetle	-8070
▁canopy	-8071
▁caring	-8072
▁casual	-8073
▁dating	-8074
▁degrad	-8075
▁denial	-8076
▁emphas	-8077
▁estate	-8078
▁fertil	-8079
▁grains	-8080
▁headed	-8081
▁hiding	-8082
▁horses	-8083
▁hybrid	-8084
▁larvae	-8085
▁marked	-8086
▁orders	-8087
▁orient	-8088
▁prepar	-8089
▁refuse	-8090
▁senior	-8091
▁shrimp	-8092
▁soccer	-8093
▁spinal	-8094
▁surviv	-8095
▁tackle	-8096
▁trends	-8097
▁tumors	-8098
▁wooden	-8099
izophren	-8100
ventions	-8101
▁Develop	-8102
▁Islands	-8103
▁Silicon	-8104
▁Spanish	-8105
▁Tuesday	-8106
▁adapted	-8107
▁aggress	-8108
▁beneath	-8109
▁bizarre	-8110
▁clinics	-8111
▁collaps	-8112
▁combine	-8113
▁defense	-8114
▁despair	-8115
▁disturb	-8116
▁drivers	-8117
▁efforts	-8118
▁engines	-8119
▁follows	-8120
▁fortune	-8121
▁hardest	-8122
▁helicop	-8123
▁hopeful	-8124
▁immense	-8125
▁initial	-8126
▁lecture	-8127
▁letting	-8128
▁melting	-8129
▁millenn	-8130
▁museums	-8131
▁mustard	-8132
▁offices	-8133
▁reaches	-8134
▁returns	-8135
▁romance	-8136
▁screens	-8137
▁serving	-8138
▁someday	-8139
▁stretch	-8140
▁swallow	-8141
▁synthes	-8142
▁unhappy	-8143
▁uniform	-8144
▁utterly	-8145
▁writers	-8146
connected	-8147
ographics	-8148
▁Consider	-8149
▁December	-8150
▁Monterey	-8151
▁Research	-8152
▁Together	-8153
▁Whatever	-8154
▁adaptive	-8155
▁attached	-8156
▁bathroom	-8157
▁boundary	-8158
▁calories	-8159
▁clapping	-8160
▁clothing	-8161
▁counting	-8162
▁deciding	-8163
▁diarrhea	-8164
▁educated	-8165
▁entering	-8166
▁estimate	-8167
▁fabulous	-8168
▁floating	-8169
▁focusing	-8170
▁fraction	-8171
▁globally	-8172
▁informal	-8173
▁innocent	-8174
▁interior	-8175
▁laughing	-8176
▁magician	-8177
▁momentum	-8178
▁overhead	-8179
▁perceive	-8180
▁portrait	-8181
▁prospect	-8182
▁reminded	-8183
▁restrict	-8184
▁sexually	-8185
▁shortcut	-8186
▁spinning	-8187
▁terribly	-8188
▁treating	-8189
▁underest	-8190
▁Cambridge	-8191
▁abundance	-8192
▁announced	-8193
▁attacking	-8194
▁attracted	-8195
▁breakfast	-8196
▁confident	-8197
▁delicious	-8198
▁economies	-8199
▁empowered	-8200
▁encounter	-8201
▁equations	-8202
▁expertise	-8203
▁glamorous	-8204
▁incentive	-8205
▁investors	-8206
▁miserable	-8207
▁nutrients	-8208
▁physicist	-8209
▁portraits	-8210
▁primitive	-8211
▁reactions	-8212
▁terrified	-8213
▁Australian	-8214
▁Industrial	-8215
▁anatomical	-8216
▁capitalism	-8217
▁classrooms	-8218
▁conspiracy	-8219
▁determines	-8220
▁disability	-8221
▁expectancy	-8222
▁extinction	-8223
▁governance	-8224
▁impression	-8225
▁interviews	-8226
▁irrational	-8227
▁manipulate	-8228
▁permission	-8229
▁punishment	-8230
▁symmetries	-8231
▁underlying	-8232
▁achievement	-8233
▁acknowledge	-8234
▁electromagn	-8235
▁genetically	-8236
▁preparation	-8237
▁accomplished	-8238
▁alternatives	-8239
▁capabilities	-8240
▁connectivity	-8241
▁disappointed	-8242
▁architectural	-8243
-1	-8244
EM	-8245
Go	-8246
ja	-8247
tz	-8248
200	-8249
apy	-8250
cko	-8251
eda	-8252
lar	-8253
mal	-8254
nth	-8255
oln	-8256
rip	-8257
sor	-8258
upp	-8259
usi	-8260
utt	-8261
▁2,	-8262
▁22	-8263
▁28	-8264
▁2:	-8265
▁42	-8266
▁65	-8267
▁BJ	-8268
▁Bi	-8269
▁EM	-8270
▁Id	-8271
▁MM	-8272
▁Rw	-8273
▁TB	-8274
▁YR	-8275
▁["	-8276
Tube	-8277
ache	-8278
aded	-8279
agen	-8280
ania	-8281
bees	-8282
free	-8283
gled	-8284
gles	-8285
iban	-8286
ifer	-8287
ilem	-8288
ione	-8289
ires	-8290
irts	-8291
itar	-8292
itis	-8293
itts	-8294
kind	-8295
lean	-8296
lers	-8297
offs	-8298
oves	-8299
rary	-8300
rich	-8301
ront	-8302
rust	-8303
sens	-8304
take	-8305
udes	-8306
uled	-8307
ulum	-8308
umes	-8309
umin	-8310
walk	-8311
zens	-8312
▁'70	-8313
▁193	-8314
▁202	-8315
▁24-	-8316
▁Ann	-8317
▁Ast	-8318
▁Bel	-8319
▁Det	-8320
▁Ext	-8321
▁Fem	-8322
▁Jon	-8323
▁Lin	-8324
▁RSW	-8325
▁Sah	-8326
▁Sea	-8327
▁Sir	-8328
▁Tas	-8329
▁Ven	-8330
▁Vol	-8331
▁awk	-8332
▁ech	-8333
▁gal	-8334
▁gee	-8335
▁gor	-8336
▁hub	-8337
▁nit	-8338
▁ooh	-8339
▁sav	-8340
▁unp	-8341
▁wra	-8342
▁yog	-8343
▁zoo	-8344
adget	-8345
aired	-8346
atial	-8347
brush	-8348
ccoli	-8349
chool	-8350
comes	-8351
enger	-8352
fense	-8353
human	-8354
ibera	-8355
icial	-8356
icked	-8357
ictor	-8358
ifest	-8359
inism	-8360
inton	-8361
isons	-8362
itzer	-8363
level	-8364
lfare	-8365
month	-8366
oenix	-8367
press	-8368
quake	-8369
ramid	-8370
rator	-8371
riers	-8372
secut	-8373
speed	-8374
verts	-8375
▁1950	-8376
▁1980	-8377
▁Aren	-8378
▁Camb	-8379
▁Educ	-8380
▁Gore	-8381
▁Huge	-8382
▁Jews	-8383
▁Lake	-8384
▁Less	-8385
▁Linc	-8386
▁Luck	-8387
▁Mass	-8388
▁Mike	-8389
▁Odys	-8390
▁Poll	-8391
▁Rand	-8392
▁Sold	-8393
▁aunt	-8394
▁bags	-8395
▁bang	-8396
▁bars	-8397
▁beef	-8398
▁blew	-8399
▁cats	-8400
▁cope	-8401
▁crap	-8402
▁danc	-8403
▁dear	-8404
▁debt	-8405
▁demo	-8406
▁depr	-8407
▁dict	-8408
▁disk	-8409
▁dung	-8410
▁gate	-8411
▁hats	-8412
▁lawn	-8413
▁leak	-8414
▁lump	-8415
▁mand	-8416
▁mask	-8417
▁odds	-8418
▁orph	-8419
▁outd	-8420
▁pile	-8421
▁seek	-8422
▁sham	-8423
▁shoe	-8424
▁tact	-8425
▁ties	-8426
▁torn	-8427
▁trap	-8428
▁vary	-8429
▁ware	-8430
▁wise	-8431
aneous	-8432
atical	-8433
inding	-8434
ometer	-8435
ougher	-8436
perity	-8437
semble	-8438
uation	-8439
ulsion	-8440
vation	-8441
▁2007.	-8442
▁Brown	-8443
▁Elect	-8444
▁Gabby	-8445
▁Greek	-8446
▁Leban	-8447
▁Often	-8448
▁Start	-8449
▁Until	-8450
▁Water	-8451
▁alert	-8452
▁annoy	-8453
▁aside	-8454
▁balls	-8455
▁blink	-8456
▁bulbs	-8457
▁cable	-8458
▁chord	-8459
▁chunk	-8460
▁crank	-8461
▁crows	-8462
▁dilem	-8463
▁doors	-8464
▁dough	-8465
▁downt	-8466
▁drift	-8467
▁dunes	-8468
▁entry	-8469
▁feeds	-8470
▁fiber	-8471
▁finds	-8472
▁globe	-8473
▁incom	-8474
▁lanes	-8475
▁legit	-8476
▁lists	-8477
▁loves	-8478
▁mimic	-8479
▁mines	-8480
▁nasty	-8481
▁noisy	-8482
▁parks	-8483
▁pause	-8484
▁perip	-8485
▁reass	-8486
▁recru	-8487
▁redef	-8488
▁salad	-8489
▁shine	-8490
▁shout	-8491
▁snake	-8492
▁spont	-8493
▁surre	-8494
▁texts	-8495
▁ultra	-8496
▁unint	-8497
faction	-8498
illance	-8499
ocation	-8500
onsense	-8501
unction	-8502
▁30,000	-8503
▁Amanda	-8504
▁Cancer	-8505
▁During	-8506
▁Howard	-8507
▁Muslim	-8508
▁Sunday	-8509
▁Tasman	-8510
▁Thirty	-8511
▁Uganda	-8512
▁admire	-8513
▁astrol	-8514
▁calend	-8515
▁clinic	-8516
▁colony	-8517
▁cortex	-8518
▁counts	-8519
▁covers	-8520
▁crimes	-8521
▁criter	-8522
▁cycles	-8523
▁endang	-8524
▁ending	-8525
▁ethnic	-8526
▁extern	-8527
▁facial	-8528
▁filmed	-8529
▁gravit	-8530
▁intend	-8531
▁lately	-8532
▁metric	-8533
▁modest	-8534
▁motors	-8535
▁multip	-8536
▁negoti	-8537
▁proven	-8538
▁relief	-8539
▁replic	-8540
▁reserv	-8541
▁retina	-8542
▁rivers	-8543
▁shrink	-8544
▁silver	-8545
▁spades	-8546
▁spends	-8547
▁subway	-8548
▁summit	-8549
▁tattoo	-8550
▁traits	-8551
▁waited	-8552
▁wasted	-8553
▁weighs	-8554
aggering	-8555
otherapy	-8556
▁Alright	-8557
▁Beijing	-8558
▁Clinton	-8559
▁Lincoln	-8560
▁Luckily	-8561
▁Olympic	-8562
▁Phoenix	-8563
▁Whereas	-8564
▁Windows	-8565
▁YouTube	-8566
▁arrange	-8567
▁awkward	-8568
▁bedroom	-8569
▁belongs	-8570
▁besides	-8571
▁briefly	-8572
▁charges	-8573
▁colored	-8574
▁compete	-8575
▁consent	-8576
▁dancers	-8577
▁despite	-8578
▁diamond	-8579
▁distant	-8580
▁doubled	-8581
▁eastern	-8582
▁emerges	-8583
▁forgive	-8584
▁forming	-8585
▁funding	-8586
▁garbage	-8587
▁gesture	-8588
▁graphic	-8589
▁happily	-8590
▁highway	-8591
▁hunting	-8592
▁insulin	-8593
▁locally	-8594
▁manager	-8595
▁opposed	-8596
▁package	-8597
▁reinfor	-8598
▁reserve	-8599
▁retreat	-8600
▁seeking	-8601
▁shelter	-8602
▁shining	-8603
▁shocked	-8604
▁strings	-8605
▁suspend	-8606
▁vitamin	-8607
▁wealthy	-8608
▁wedding	-8609
▁western	-8610
▁Atlantic	-8611
▁Computer	-8612
▁Language	-8613
▁Students	-8614
▁Virginia	-8615
▁Whenever	-8616
▁accounts	-8617
▁activist	-8618
▁agencies	-8619
▁artistic	-8620
▁colorful	-8621
▁confront	-8622
▁defining	-8623
▁delivery	-8624
▁deployed	-8625
▁detector	-8626
▁distract	-8627
▁enjoying	-8628
▁explicit	-8629
▁flexible	-8630
▁graphics	-8631
▁homework	-8632
▁intimacy	-8633
▁minister	-8634
▁offering	-8635
▁openness	-8636
▁opinions	-8637
▁peaceful	-8638
▁preserve	-8639
▁promised	-8640
▁randomly	-8641
▁shipping	-8642
▁stranger	-8643
▁Christian	-8644
▁Meanwhile	-8645
▁bombsight	-8646
▁chemicals	-8647
▁committed	-8648
▁diagnosed	-8649
▁excellent	-8650
▁functions	-8651
▁highlight	-8652
▁ignorance	-8653
▁negotiate	-8654
▁overnight	-8655
▁primarily	-8656
▁procedure	-8657
▁realistic	-8658
▁statistic	-8659
▁suggested	-8660
▁workforce	-8661
▁algorithms	-8662
▁chimpanzee	-8663
▁compelling	-8664
▁democratic	-8665
▁earthquake	-8666
▁ecological	-8667
▁elementary	-8668
▁engineered	-8669
▁generating	-8670
▁identified	-8671
▁ingredient	-8672
▁meditation	-8673
▁performing	-8674
▁sequencing	-8675
▁simplistic	-8676
▁staggering	-8677
▁struggling	-8678
▁terrifying	-8679
▁traditions	-8680
▁translator	-8681
▁marketplace	-8682
▁overwhelmed	-8683
▁replacement	-8684
▁schizophren	-8685
▁spectacular	-8686
▁wonderfully	-8687
▁agricultural	-8688
▁biodiversity	-8689
▁surprisingly	-8690
▁collaborative	-8691
▁institutional	-8692
▁neighborhoods	-8693
▁transformative	-8694
▁characteristics	-8695
▁extraordinarily	-8696
.'	-8697
AS	-8698
CA	-8699
DA	-8700
ET	-8701
VD	-8702
wa	-8703
Now	-8704
Sah	-8705
She	-8706
aby	-8707
ava	-8708
bye	-8709
ecd	-8710
hai	-8711
hed	-8712
hop	-8713
isc	-8714
iti	-8715
law	-8716
mod	-8717
oop	-8718
ora	-8719
pat	-8720
pit	-8721
rid	-8722
sec	-8723
uan	-8724
ups	-8725
via	-8726
wan	-8727
▁$1	-8728
▁36	-8729
▁4:	-8730
▁72	-8731
▁Bu	-8732
▁HG	-8733
▁SB	-8734
▁SR	-8735
▁Sk	-8736
▁ic	-8737
amps	-8738
anol	-8739
apot	-8740
arat	-8741
aver	-8742
bola	-8743
cher	-8744
expl	-8745
greg	-8746
hors	-8747
ilty	-8748
inci	-8749
ique	-8750
irlf	-8751
know	-8752
leep	-8753
lind	-8754
oked	-8755
onia	-8756
ptic	-8757
rist	-8758
rous	-8759
sell	-8760
seus	-8761
soon	-8762
tent	-8763
uble	-8764
▁15-	-8765
▁Aug	-8766
▁Bat	-8767
▁Bet	-8768
▁DVD	-8769
▁Dub	-8770
▁Emb	-8771
▁End	-8772
▁Fur	-8773
▁Gam	-8774
▁Mur	-8775
▁Sar	-8776
▁Str	-8777
▁Sup	-8778
▁Tel	-8779
▁Use	-8780
▁aqu	-8781
▁dys	-8782
▁fib	-8783
▁hug	-8784
▁hut	-8785
▁inn	-8786
▁jaw	-8787
▁jun	-8788
▁owe	-8789
▁rac	-8790
▁sin	-8791
▁tur	-8792
▁ven	-8793
▁via	-8794
▁vib	-8795
Would	-8796
amboo	-8797
ashed	-8798
cerpt	-8799
elled	-8800
iance	-8801
ician	-8802
itage	-8803
peare	-8804
raham	-8805
rence	-8806
seven	-8807
ubble	-8808
urger	-8809
ville	-8810
▁1960	-8811
▁Data	-8812
▁Dead	-8813
▁Dick	-8814
▁Hans	-8815
▁Help	-8816
▁Hosp	-8817
▁Ivan	-8818
▁Jane	-8819
▁Josh	-8820
▁Kong	-8821
▁Math	-8822
▁Matt	-8823
▁Miss	-8824
▁Nice	-8825
▁Stux	-8826
▁True	-8827
▁Type	-8828
▁Walk	-8829
▁Zero	-8830
▁ange	-8831
▁brid	-8832
▁bulb	-8833
▁caps	-8834
▁clap	-8835
▁coat	-8836
▁cube	-8837
▁dish	-8838
▁enzy	-8839
▁epip	-8840
▁gaps	-8841
▁herd	-8842
▁lone	-8843
▁mail	-8844
▁mesh	-8845
▁pays	-8846
▁peer	-8847
▁peop	-8848
▁pigs	-8849
▁piss	-8850
▁pole	-8851
▁pref	-8852
▁solo	-8853
▁surg	-8854
▁toes	-8855
▁tsun	-8856
▁unse	-8857
▁util	-8858
▁woke	-8859
▁worm	-8860
Please	-8861
anghai	-8862
assemb	-8863
culiar	-8864
elieve	-8865
enance	-8866
friend	-8867
ilated	-8868
iotics	-8869
itudes	-8870
normal	-8871
overed	-8872
rating	-8873
stairs	-8874
teries	-8875
uously	-8876
▁Carol	-8877
▁Coast	-8878
▁Const	-8879
▁Ebola	-8880
▁Forty	-8881
▁Later	-8882
▁Liber	-8883
▁Nobel	-8884
▁Paulo	-8885
▁Saudi	-8886
▁Short	-8887
▁Somal	-8888
▁Tesla	-8889
▁Yemen	-8890
▁acres	-8891
▁adopt	-8892
▁anecd	-8893
▁artif	-8894
▁award	-8895
▁blend	-8896
▁blown	-8897
▁bonus	-8898
▁bored	-8899
▁camel	-8900
▁caves	-8901
▁cheat	-8902
▁coach	-8903
▁cried	-8904
▁delay	-8905
▁elbow	-8906
▁evalu	-8907
▁fruit	-8908
▁genom	-8909
▁girlf	-8910
▁grave	-8911
▁gross	-8912
▁hired	-8913
▁hydro	-8914
▁index	-8915
▁inher	-8916
▁lingu	-8917
▁manus	-8918
▁morph	-8919
▁naive	-8920
▁nodes	-8921
▁opera	-8922
▁outer	-8923
▁owned	-8924
▁pharm	-8925
▁physi	-8926
▁pilot	-8927
▁pride	-8928
▁pulls	-8929
▁pulse	-8930
▁raped	-8931
▁sells	-8932
▁slums	-8933
▁spray	-8934
▁stays	-8935
▁sucks	-8936
▁tails	-8937
▁tasks	-8938
▁twist	-8939
Saharan	-8940
alyzing	-8941
ascular	-8942
iterate	-8943
related	-8944
▁Econom	-8945
▁Greeks	-8946
▁Having	-8947
▁Kibera	-8948
▁Office	-8949
▁Public	-8950
▁Rwanda	-8951
▁Secret	-8952
▁Shakes	-8953
▁Simple	-8954
▁Victor	-8955
▁Yorker	-8956
▁annual	-8957
▁argued	-8958
▁assure	-8959
▁bamboo	-8960
▁beaten	-8961
▁biases	-8962
▁chimps	-8963
▁column	-8964
▁comedy	-8965
▁crowds	-8966
▁curric	-8967
▁decent	-8968
▁differ	-8969
▁divers	-8970
▁dozens	-8971
▁drinks	-8972
▁emails	-8973
▁ensure	-8974
▁expose	-8975
▁famine	-8976
▁freeze	-8977
▁gadget	-8978
▁geomet	-8979
▁hunger	-8980
▁jumped	-8981
▁lasted	-8982
▁legend	-8983
▁livest	-8984
▁mining	-8985
▁mouths	-8986
▁native	-8987
▁nicely	-8988
▁pirate	-8989
▁purely	-8990
▁pursue	-8991
▁recipe	-8992
▁render	-8993
▁reveal	-8994
▁revers	-8995
▁scores	-8996
▁subtle	-8997
▁survey	-8998
▁tables	-8999
▁temple	-9000
▁tempor	-9001
▁thresh	-9002
▁timing	-9003
▁tragic	-9004
▁underw	-9005
▁valves	-9006
▁winner	-9007
ceptions	-9008
etheless	-9009
izations	-9010
▁Abraham	-9011
▁Central	-9012
▁Certain	-9013
▁Charlie	-9014
▁History	-9015
▁Seattle	-9016
▁Stephen	-9017
▁Supreme	-9018
▁Taliban	-9019
▁artwork	-9020
▁beliefs	-9021
▁bottles	-9022
▁chances	-9023
▁charged	-9024
▁cigaret	-9025
▁commons	-9026
▁desktop	-9027
▁destiny	-9028
▁educate	-9029
▁elegant	-9030
▁enemies	-9031
▁enthusi	-9032
▁excerpt	-9033
▁exposed	-9034
▁farther	-9035
▁flowing	-9036
▁founded	-9037
▁generic	-9038
▁glacier	-9039
▁hormone	-9040
▁labeled	-9041
▁lawyers	-9042
▁liberal	-9043
▁literal	-9044
▁mapping	-9045
▁minimum	-9046
▁neutral	-9047
▁payload	-9048
▁peoples	-9049
▁portion	-9050
▁powered	-9051
▁priorit	-9052
▁pyramid	-9053
▁readers	-9054
▁receive	-9055
▁reports	-9056
▁robotic	-9057
▁rolling	-9058
▁satisfy	-9059
▁slavery	-9060
▁smiling	-9061
▁smoking	-9062
▁speaker	-9063
▁squeeze	-9064
▁strands	-9065
▁thirdly	-9066
▁thunder	-9067
▁tougher	-9068
▁tsunami	-9069
▁utility	-9070
▁visions	-9071
▁welfare	-9072
▁Interest	-9073
▁Minister	-9074
▁Olympics	-9075
▁Shanghai	-9076
▁asteroid	-9077
▁athletes	-9078
▁branches	-9079
▁criteria	-9080
▁customer	-9081
▁database	-9082
▁decrease	-9083
▁diagnost	-9084
▁diameter	-9085
▁disagree	-9086
▁downtown	-9087
▁dropping	-9088
▁exploded	-9089
▁extended	-9090
▁generous	-9091
▁genetics	-9092
▁happiest	-9093
▁imagined	-9094
▁intended	-9095
▁investig	-9096
▁magnific	-9097
▁managers	-9098
▁minority	-9099
▁peculiar	-9100
▁plastics	-9101
▁provided	-9102
▁purposes	-9103
▁redesign	-9104
▁refugees	-9105
▁reported	-9106
▁reserves	-9107
▁shifting	-9108
▁simplest	-9109
▁speakers	-9110
▁stereoty	-9111
▁stopping	-9112
▁striking	-9113
▁targeted	-9114
▁terrific	-9115
▁throwing	-9116
▁triangle	-9117
▁visually	-9118
▁weakness	-9119
▁Brazilian	-9120
▁Greenland	-9121
▁achieving	-9122
▁apologize	-9123
▁batteries	-9124
▁believing	-9125
▁continues	-9126
▁corporate	-9127
▁depending	-9128
▁embracing	-9129
▁estimated	-9130
▁exclusive	-9131
▁factories	-9132
▁fortunate	-9133
▁geography	-9134
▁graduated	-9135
▁guarantee	-9136
▁implanted	-9137
▁initially	-9138
▁instantly	-9139
▁interrupt	-9140
▁jellyfish	-9141
▁locations	-9142
▁planetary	-9143
▁preparing	-9144
▁realizing	-9145
▁recovered	-9146
▁remaining	-9147
▁skeptical	-9148
▁surgeries	-9149
▁aggressive	-9150
▁approached	-9151
▁architects	-9152
▁automotive	-9153
▁connectome	-9154
▁ecosystems	-9155
▁endangered	-9156
▁enterprise	-9157
▁girlfriend	-9158
▁helicopter	-9159
▁influenced	-9160
▁manuscript	-9161
▁organizing	-9162
▁prevention	-9163
▁profoundly	-9164
▁propaganda	-9165
▁prosperity	-9166
▁prototypes	-9167
▁responding	-9168
▁surrounded	-9169
▁translated	-9170
▁unintended	-9171
▁variations	-9172
▁Shakespeare	-9173
▁celebration	-9174
▁coincidence	-9175
▁competitive	-9176
▁constraints	-9177
▁encouraging	-9178
▁foundations	-9179
▁observation	-9180
▁practically	-9181
▁problematic	-9182
▁reconstruct	-9183
▁theoretical	-9184
▁variability	-9185
▁authenticity	-9186
▁calculations	-9187
▁contribution	-9188
▁deliberately	-9189
▁dictionaries	-9190
▁explanations	-9191
▁introduction	-9192
▁overwhelming	-9193
▁philanthropy	-9194
▁productivity	-9195
▁surveillance	-9196
▁transmission	-9197
▁controversial	-9198
▁gravitational	-9199
▁participation	-9200
▁characteristic	-9201
▁communications	-9202
▁hallucinations	-9203
3,	-9204
BA	-9205
HC	-9206
IS	-9207
LS	-9208
MA	-9209
Re	-9210
],	-9211
ba	-9212
fu	-9213
▁.	-9214
Get	-9215
ali	-9216
bid	-9217
cat	-9218
dle	-9219
eem	-9220
ima	-9221
itu	-9222
neg	-9223
ogy	-9224
orr	-9225
osc	-9226
zra	-9227
▁37	-9228
▁85	-9229
▁95	-9230
▁CA	-9231
▁ES	-9232
▁Er	-9233
▁Ev	-9234
▁Fa	-9235
▁IV	-9236
▁Wi	-9237
▁hi	-9238
▁ov	-9239
▁uh	-9240
Stop	-9241
agos	-9242
aint	-9243
alty	-9244
card	-9245
cord	-9246
emon	-9247
ette	-9248
fare	-9249
hill	-9250
igma	-9251
imed	-9252
intu	-9253
irms	-9254
isha	-9255
izab	-9256
kend	-9257
kers	-9258
mony	-9259
oman	-9260
opic	-9261
orse	-9262
oser	-9263
oven	-9264
pace	-9265
pack	-9266
phia	-9267
race	-9268
scar	-9269
step	-9270
ucky	-9271
viol	-9272
wind	-9273
yles	-9274
▁1.2	-9275
▁15,	-9276
▁15.	-9277
▁16.	-9278
▁Cra	-9279
▁Ear	-9280
▁Emp	-9281
▁FGM	-9282
▁Got	-9283
▁LHC	-9284
▁Lib	-9285
▁Moz	-9286
▁Sal	-9287
▁Sky	-9288
▁Squ	-9289
▁Tai	-9290
▁Tar	-9291
▁Ter	-9292
▁Tre	-9293
▁Ult	-9294
▁ash	-9295
▁cad	-9296
▁cod	-9297
▁der	-9298
▁dop	-9299
▁fer	-9300
▁gym	-9301
▁lou	-9302
▁mum	-9303
▁mur	-9304
▁nin	-9305
▁sew	-9306
▁tin	-9307
▁ubi	-9308
▁wax	-9309
▁wre	-9310
aceut	-9311
adium	-9312
arten	-9313
athed	-9314
atics	-9315
bling	-9316
cence	-9317
ciety	-9318
conds	-9319
elect	-9320
enter	-9321
epher	-9322
eries	-9323
erior	-9324
esity	-9325
eting	-9326
fight	-9327
grand	-9328
icals	-9329
ierra	-9330
inent	-9331
inery	-9332
olera	-9333
onder	-9334
orage	-9335
osaur	-9336
oshop	-9337
osity	-9338
phony	-9339
ports	-9340
power	-9341
proof	-9342
raine	-9343
roach	-9344
shirt	-9345
theon	-9346
worth	-9347
▁1970	-9348
▁Benj	-9349
▁Bion	-9350
▁Coun	-9351
▁Free	-9352
▁Fund	-9353
▁Jose	-9354
▁July	-9355
▁Kick	-9356
▁Land	-9357
▁Nick	-9358
▁Oper	-9359
▁Pent	-9360
▁Post	-9361
▁Rick	-9362
▁Rock	-9363
▁Sand	-9364
▁Show	-9365
▁Such	-9366
▁Tanz	-9367
▁alph	-9368
▁ampl	-9369
▁asks	-9370
▁bron	-9371
▁budd	-9372
▁chew	-9373
▁dare	-9374
▁dent	-9375
▁dose	-9376
▁ende	-9377
▁fans	-9378
▁genu	-9379
▁heck	-9380
▁hint	-9381
▁iPod	-9382
▁indo	-9383
▁jazz	-9384
▁keys	-9385
▁leaf	-9386
▁lean	-9387
▁mast	-9388
▁murd	-9389
▁nerd	-9390
▁numb	-9391
▁offe	-9392
▁pear	-9393
▁publ	-9394
▁rape	-9395
▁rode	-9396
▁seam	-9397
▁sequ	-9398
▁slip	-9399
▁summ	-9400
▁symp	-9401
▁tech	-9402
▁thro	-9403
▁voca	-9404
▁wage	-9405
▁wore	-9406
active	-9407
bulary	-9408
called	-9409
coming	-9410
ection	-9411
employ	-9412
engine	-9413
estion	-9414
gevity	-9415
iously	-9416
minute	-9417
person	-9418
uction	-9419
uminum	-9420
weight	-9421
▁2008.	-9422
▁2009,	-9423
▁6,000	-9424
▁Alice	-9425
▁Black	-9426
▁Chile	-9427
▁Creat	-9428
▁Happy	-9429
▁Hawai	-9430
▁Louis	-9431
▁Milky	-9432
▁Pitts	-9433
▁Queen	-9434
▁Ready	-9435
▁River	-9436
▁Swiss	-9437
▁Trade	-9438
▁Young	-9439
▁absor	-9440
▁advis	-9441
▁aesth	-9442
▁alarm	-9443
▁backs	-9444
▁blast	-9445
▁boats	-9446
▁chalk	-9447
▁chase	-9448
▁cheer	-9449
▁chron	-9450
▁comic	-9451
▁conce	-9452
▁crude	-9453
▁deals	-9454
▁decor	-9455
▁discr	-9456
▁donor	-9457
▁draws	-9458
▁drone	-9459
▁escal	-9460
▁fairy	-9461
▁favel	-9462
▁fever	-9463
▁fluct	-9464
▁folds	-9465
▁foods	-9466
▁funds	-9467
▁grabb	-9468
▁guard	-9469
▁harsh	-9470
▁hurts	-9471
▁illum	-9472
▁inhib	-9473
▁jokes	-9474
▁lobby	-9475
▁lungs	-9476
▁marks	-9477
▁marsh	-9478
▁minus	-9479
▁myths	-9480
▁norms	-9481
▁obese	-9482
▁penis	-9483
▁picks	-9484
▁pione	-9485
▁poems	-9486
▁probe	-9487
▁punct	-9488
▁recur	-9489
▁relie	-9490
▁rises	-9491
▁route	-9492
▁shops	-9493
▁shuff	-9494
▁slime	-9495
▁spill	-9496
▁swing	-9497
▁tubes	-9498
▁viral	-9499
▁warri	-9500
▁yeast	-9501
▁zones	-9502
Because	-9503
athered	-9504
century	-9505
growing	-9506
imeters	-9507
itating	-9508
itivity	-9509
izabeth	-9510
keepers	-9511
ometown	-9512
ressing	-9513
ughters	-9514
ulators	-9515
ulatory	-9516
▁Argent	-9517
▁Cambod	-9518
▁Church	-9519
▁Doctor	-9520
▁Excuse	-9521
▁Golden	-9522
▁Listen	-9523
▁Luther	-9524
▁Master	-9525
▁Rather	-9526
▁Sierra	-9527
▁Taiwan	-9528
▁actors	-9529
▁allies	-9530
▁assess	-9531
▁attach	-9532
▁ballet	-9533
▁beside	-9534
▁bitter	-9535
▁combat	-9536
▁compli	-9537
▁condom	-9538
▁consol	-9539
▁cylind	-9540
▁dancer	-9541
▁defeat	-9542
▁digits	-9543
▁diving	-9544
▁elabor	-9545
▁evapor	-9546
▁excess	-9547
▁guilty	-9548
▁guitar	-9549
▁habits	-9550
▁hollow	-9551
▁immers	-9552
▁lawyer	-9553
▁lowest	-9554
▁marath	-9555
▁marine	-9556
▁masses	-9557
▁mature	-9558
▁merely	-9559
▁nerves	-9560
▁orphan	-9561
▁passes	-9562
▁pedest	-9563
▁planes	-9564
▁plates	-9565
▁posted	-9566
▁recall	-9567
▁regime	-9568
▁scroll	-9569
▁sensor	-9570
▁serves	-9571
▁shaped	-9572
▁stairs	-9573
▁steady	-9574
▁storms	-9575
▁stroke	-9576
▁subsid	-9577
▁tagged	-9578
▁ultras	-9579
▁vagina	-9580
▁valley	-9581
▁wallet	-9582
▁washed	-9583
▁wheels	-9584
American	-9585
ergarten	-9586
quarters	-9587
standing	-9588
▁200,000	-9589
▁Believe	-9590
▁Connect	-9591
▁Council	-9592
▁Defense	-9593
▁Hundred	-9594
▁Islamic	-9595
▁Profess	-9596
▁Society	-9597
▁Stuxnet	-9598
▁Teacher	-9599
▁arguing	-9600
▁barrels	-9601
▁cardiac	-9602
▁closest	-9603
▁cluster	-9604
▁congest	-9605
▁crystal	-9606
▁decides	-9607
▁default	-9608
▁descend	-9609
▁elderly	-9610
▁elected	-9611
▁formula	-9612
▁funeral	-9613
▁gallery	-9614
▁greatly	-9615
▁handful	-9616
▁harmony	-9617
▁honesty	-9618
▁hunters	-9619
▁implant	-9620
▁islands	-9621
▁jumping	-9622
▁kingdom	-9623
▁laughed	-9624
▁logging	-9625
▁longest	-9626
▁masterp	-9627
▁metabol	-9628
▁millise	-9629
▁mindful	-9630
▁minimal	-9631
▁monsoon	-9632
▁periods	-9633
▁posters	-9634
▁pouring	-9635
▁princip	-9636
▁profile	-9637
▁rescued	-9638
▁rethink	-9639
▁rockets	-9640
▁seventh	-9641
▁shelves	-9642
▁shepher	-9643
▁shorter	-9644
▁silicon	-9645
▁simpler	-9646
▁spiders	-9647
▁sponsor	-9648
▁squared	-9649
▁staring	-9650
▁stomach	-9651
▁tissues	-9652
▁ubiquit	-9653
▁useless	-9654
▁weekend	-9655
sensitive	-9656
▁Egyptian	-9657
▁Honduras	-9658
▁Leonardo	-9659
▁Northern	-9660
▁Nowadays	-9661
▁Odysseus	-9662
▁Southern	-9663
▁Tanzania	-9664
▁acoustic	-9665
▁articles	-9666
▁astrolab	-9667
▁autistic	-9668
▁autonomy	-9669
▁baseline	-9670
▁broccoli	-9671
▁cellular	-9672
▁choosing	-9673
▁circular	-9674
▁commonly	-9675
▁consumed	-9676
▁contrary	-9677
▁covering	-9678
▁daylight	-9679
▁detailed	-9680
▁division	-9681
▁domestic	-9682
▁dopamine	-9683
▁earliest	-9684
▁explains	-9685
▁feminist	-9686
▁fertiliz	-9687
▁flourish	-9688
▁frontier	-9689
▁goodness	-9690
▁infinite	-9691
▁innovate	-9692
▁instinct	-9693
▁intimate	-9694
▁inventor	-9695
▁manifest	-9696
▁membrane	-9697
▁notebook	-9698
▁obtained	-9699
▁operator	-9700
▁overlook	-9701
▁potatoes	-9702
▁priority	-9703
▁proposal	-9704
▁province	-9705
▁reinvent	-9706
▁reliable	-9707
▁replaced	-9708
▁resolved	-9709
▁scanning	-9710
▁suitcase	-9711
▁supplies	-9712
▁survived	-9713
▁tendency	-9714
▁touching	-9715
▁transmit	-9716
▁tropical	-9717
▁versions	-9718
▁youngest	-9719
ographical	-9720
ustainable	-9721
▁Hopefully	-9722
▁Photoshop	-9723
▁Tasmanian	-9724
▁Therefore	-9725
▁afterward	-9726
▁audiences	-9727
▁authentic	-9728
▁blueprint	-9729
▁broadcast	-9730
▁conductor	-9731
▁convicted	-9732
▁cooperate	-9733
▁daughters	-9734
▁disasters	-9735
▁extension	-9736
▁generates	-9737
▁healthier	-9738
▁hierarchy	-9739
▁judgments	-9740
▁lightning	-9741
▁neocortex	-9742
▁nutrition	-9743
▁phenomena	-9744
▁photograp	-9745
▁positions	-9746
▁predators	-9747
▁realities	-9748
▁regularly	-9749
▁renewable	-9750
▁sensation	-9751
▁shoulders	-9752
▁supported	-9753
▁threshold	-9754
▁virtually	-9755
▁Christians	-9756
▁Ultimately	-9757
▁additional	-9758
▁anesthesia	-9759
▁apartments	-9760
▁commission	-9761
▁continents	-9762
▁continuing	-9763
▁curriculum	-9764
▁discipline	-9765
▁enormously	-9766
▁expedition	-9767
▁foreground	-9768
▁frequently	-9769
▁frightened	-9770
▁horizontal	-9771
▁journalism	-9772
▁landscapes	-9773
▁mainstream	-9774
▁millimeter	-9775
▁outrageous	-9776
▁practicing	-9777
▁professors	-9778
▁reasonably	-9779
▁smartphone	-9780
▁structural	-9781
▁suggesting	-9782
▁supporting	-9783
▁vocabulary	-9784
▁Fortunately	-9785
▁Governments	-9786
▁accelerated	-9787
▁authorities	-9788
▁concentrate	-9789
▁description	-9790
▁devastating	-9791
▁discovering	-9792
▁dragonflies	-9793
▁embarrassed	-9794
▁ingredients	-9795
▁magnificent	-9796
▁maintenance	-9797
▁predictable	-9798
▁projections	-9799
▁restaurants	-9800
▁surrounding	-9801
▁transmitted	-9802
▁anthropology	-9803
▁concentrated	-9804
▁constructive	-9805
▁continuously	-9806
▁demographics	-9807
▁embarrassing	-9808
▁experiencing	-9809
▁installation	-9810
▁intervention	-9811
▁kindergarten	-9812
▁observations	-9813
▁prescription	-9814
▁satisfaction	-9815
▁temperatures	-9816
▁universities	-9817
▁globalization	-9818
▁significantly	-9819
▁visualization	-9820
▁administration	-9821
▁interpretation	-9822
▁mathematicians	-9823
"]	-9824
Am	-9825
As	-9826
ER	-9827
Ma	-9828
NG	-9829
eu	-9830
hh	-9831
mn	-9832
Man	-9833
Mom	-9834
Not	-9835
asa	-9836
boy	-9837
dis	-9838
ida	-9839
iov	-9840
jan	-9841
lad	-9842
nat	-9843
nik	-9844
obe	-9845
olf	-9846
rem	-9847
rot	-9848
sea	-9849
ths	-9850
uty	-9851
whe	-9852
zes	-9853
▁1:	-9854
▁29	-9855
▁31	-9856
▁44	-9857
▁AT	-9858
▁Aw	-9859
▁Bo	-9860
▁CL	-9861
▁Di	-9862
▁Gw	-9863
▁Ir	-9864
▁Ku	-9865
▁Lu	-9866
▁Mi	-9867
▁Mu	-9868
▁NM	-9869
▁PC	-9870
▁PI	-9871
▁Po	-9872
▁SO	-9873
▁TM	-9874
▁Um	-9875
▁eu	-9876
▁gy	-9877
▁od	-9878
Wait	-9879
ador	-9880
aeda	-9881
agra	-9882
ague	-9883
airo	-9884
amas	-9885
amib	-9886
aped	-9887
ares	-9888
aska	-9889
bery	-9890
bird	-9891
city	-9892
clop	-9893
dest	-9894
etti	-9895
ewis	-9896
fing	-9897
food	-9898
imag	-9899
imit	-9900
laus	-9901
live	-9902
luid	-9903
lves	-9904
moor	-9905
moud	-9906
ogan	-9907
olas	-9908
ollo	-9909
olph	-9910
oned	-9911
oody	-9912
oris	-9913
orms	-9914
osex	-9915
otal	-9916
part	-9917
pers	-9918
rame	-9919
thur	-9920
uros	-9921
wall	-9922
ylac	-9923
▁'90	-9924
▁1.5	-9925
▁12-	-9926
▁14-	-9927
▁ALS	-9928
▁Amy	-9929
▁Ban	-9930
▁Hol	-9931
▁Hot	-9932
▁Lar	-9933
▁Mer	-9934
▁Mor	-9935
▁Occ	-9936
▁Opp	-9937
▁Pen	-9938
▁Pot	-9939
▁RNA	-9940
▁Run	-9941
▁Syl	-9942
▁TBP	-9943
▁Tun	-9944
▁Wor	-9945
▁ads	-9946
▁bea	-9947
▁bio	-9948
▁caf	-9949
▁cum	-9950
▁ego	-9951
▁ger	-9952
▁jet	-9953
▁jew	-9954
▁jih	-9955
▁laz	-9956
▁les	-9957
▁lux	-9958
▁nom	-9959
▁obe	-9960
▁orb	-9961
▁vel	-9962
▁vot	-9963
,000.	-9964
Every	-9965
allas	-9966
ambia	-9967
apped	-9968
bably	-9969
ctive	-9970
cular	-9971
eding	-9972
ellig	-9973
ensus	-9974
erers	-9975
garet	-9976
grade	-9977
heads	-9978
herom	-9979
ibles	-9980
ifies	-9981
kings	-9982
matic	-9983
ocide	-9984
owder	-9985
produ	-9986
rains	-9987
rates	-9988
renal	-9989
ropol	-9990
shore	-9991
sized	-9992
state	-9993
umbai	-9994
world	-9995
▁1930	-9996
▁Band	-9997
▁Bern	-9998
▁Cold	-9999
▁Diet	-10000
▁Down	-10001
▁Ever	-10002
▁Ezra	-10003
▁Gall	-10004
▁Hand	-10005
▁Hold	-10006
▁Kind	-10007
▁Lama	-10008
▁Mach	-10009
▁Mall	-10010
▁Nine	-10011
▁Penn	-10012
▁Sony	-10013
▁Were	-10014
▁alar	-10015
▁appe	-10016
▁bind	-10017
▁biof	-10018
▁bowl	-10019
▁brow	-10020
▁buzz	-10021
▁carc	-10022
▁coin	-10023
▁craw	-10024
▁deaf	-10025
▁dirt	-10026
▁dome	-10027
▁ease	-10028
▁epis	-10029
▁extr	-10030
▁file	-10031
▁flap	-10032
▁impr	-10033
▁iter	-10034
▁lion	-10035
▁lock	-10036
▁mant	-10037
▁menu	-10038
▁node	-10039
▁oven	-10040
▁peel	-10041
▁pest	-10042
▁puls	-10043
▁qual	-10044
▁rabb	-10045
▁rank	-10046
▁rose	-10047
▁sabb	-10048
▁seal	-10049
▁snap	-10050
▁tags	-10051
▁thou	-10052
▁tilt	-10053
▁warn	-10054
▁womb	-10055
action	-10056
alysis	-10057
ancing	-10058
boards	-10059
cyclop	-10060
estone	-10061
health	-10062
heimer	-10063
houses	-10064
iances	-10065
icient	-10066
ieties	-10067
imitri	-10068
itated	-10069
lement	-10070
omatic	-10071
rators	-10072
uccess	-10073
vasive	-10074
▁1,100	-10075
▁1,500	-10076
▁2005.	-10077
▁8,000	-10078
▁Allow	-10079
▁Beaut	-10080
▁Brian	-10081
▁Brook	-10082
▁Check	-10083
▁Civil	-10084
▁Color	-10085
▁Dubai	-10086
▁Event	-10087
▁Gates	-10088
▁Glass	-10089
▁Guess	-10090
▁Harry	-10091
▁Heart	-10092
▁Inuit	-10093
▁Jesse	-10094
▁Keith	-10095
▁Kevin	-10096
▁Laden	-10097
▁Light	-10098
▁McDon	-10099
▁Polit	-10100
▁Prize	-10101
▁Quite	-10102
▁Raise	-10103
▁Stone	-10104
▁Teles	-10105
▁acids	-10106
▁afflu	-10107
▁aspir	-10108
▁asset	-10109
▁blade	-10110
▁bonds	-10111
▁cabin	-10112
▁camps	-10113
▁cared	-10114
▁couch	-10115
▁crust	-10116
▁curse	-10117
▁divid	-10118
▁drums	-10119
▁drunk	-10120
▁embry	-10121
▁epiph	-10122
▁etern	-10123
▁exerc	-10124
▁farms	-10125
▁fatal	-10126
▁flesh	-10127
▁fraud	-10128
▁gecko	-10129
▁goats	-10130
▁goose	-10131
▁grabs	-10132
▁grace	-10133
▁grape	-10134
▁hated	-10135
▁incor	-10136
▁inexp	-10137
▁landm	-10138
▁limbs	-10139
▁lined	-10140
▁macro	-10141
▁maneu	-10142
▁meals	-10143
▁miner	-10144
▁oblig	-10145
▁penet	-10146
▁pumps	-10147
▁purch	-10148
▁reefs	-10149
▁remix	-10150
▁rhino	-10151
▁riots	-10152
▁roofs	-10153
▁ruins	-10154
▁scare	-10155
▁scars	-10156
▁ships	-10157
▁spark	-10158
▁spell	-10159
▁straw	-10160
▁strip	-10161
▁tense	-10162
▁tiles	-10163
▁valid	-10164
▁verge	-10165
▁vocal	-10166
▁wells	-10167
banisha	-10168
essions	-10169
iminate	-10170
reement	-10171
ruption	-10172
theless	-10173
▁Alaska	-10174
▁Arabia	-10175
▁August	-10176
▁Colomb	-10177
▁Columb	-10178
▁Dallas	-10179
▁Daniel	-10180
▁Forget	-10181
▁Gandhi	-10182
▁Humans	-10183
▁Julian	-10184
▁Modern	-10185
▁Mostly	-10186
▁Mumbai	-10187
▁Player	-10188
▁Spider	-10189
▁Sylvia	-10190
▁Yellow	-10191
▁absurd	-10192
▁addict	-10193
▁aerial	-10194
▁aliens	-10195
▁amazed	-10196
▁arrive	-10197
▁catast	-10198
▁cattle	-10199
▁cement	-10200
▁copies	-10201
▁copper	-10202
▁corals	-10203
▁crocod	-10204
▁curves	-10205
▁earned	-10206
▁empath	-10207
▁enable	-10208
▁equity	-10209
▁exquis	-10210
▁finest	-10211
▁firmly	-10212
▁flavor	-10213
▁golden	-10214
▁grades	-10215
▁guards	-10216
▁hammer	-10217
▁hugely	-10218
▁hurric	-10219
▁insult	-10220
▁labels	-10221
▁licens	-10222
▁louder	-10223
▁mammal	-10224
▁murder	-10225
▁mutual	-10226
▁packed	-10227
▁pigeon	-10228
▁pillar	-10229
▁polite	-10230
▁prayer	-10231
▁preval	-10232
▁racing	-10233
▁rating	-10234
▁ration	-10235
▁reflex	-10236
▁retain	-10237
▁scarce	-10238
▁scenes	-10239
▁selves	-10240
▁server	-10241
▁simult	-10242
▁slower	-10243
▁smells	-10244
▁stabil	-10245
▁strike	-10246
▁summar	-10247
▁teapot	-10248
▁trauma	-10249
▁treaty	-10250
▁triple	-10251
▁uncons	-10252
▁virgin	-10253
▁virtue	-10254
▁widely	-10255
andering	-10256
antastic	-10257
changing	-10258
children	-10259
computer	-10260
ffective	-10261
interest	-10262
iversary	-10263
osterone	-10264
▁Compare	-10265
▁Dimitri	-10266
▁Fathers	-10267
▁Growing	-10268
▁Johnson	-10269
▁Mahmoud	-10270
▁Neither	-10271
▁Redwood	-10272
▁Russian	-10273
▁Switzer	-10274
▁Usually	-10275
▁Whether	-10276
▁affairs	-10277
▁analyze	-10278
▁aquatic	-10279
▁cancers	-10280
▁carries	-10281
▁causing	-10282
▁chamber	-10283
▁chasing	-10284
▁cholera	-10285
▁citizen	-10286
▁compact	-10287
▁confirm	-10288
▁conform	-10289
▁corrupt	-10290
▁counsel	-10291
▁crossed	-10292
▁demands	-10293
▁dismiss	-10294
▁dreamed	-10295
▁ecology	-10296
▁enabled	-10297
▁enforce	-10298
▁enjoyed	-10299
▁enzymes	-10300
▁ethanol	-10301
▁examine	-10302
▁failing	-10303
▁federal	-10304
▁flights	-10305
▁gallons	-10306
▁genuine	-10307
▁halfway	-10308
▁harmful	-10309
▁hostile	-10310
▁housing	-10311
▁impulse	-10312
▁indoors	-10313
▁injured	-10314
▁laptops	-10315
▁magnets	-10316
▁mankind	-10317
▁mastery	-10318
▁nearest	-10319
▁obesity	-10320
▁observe	-10321
▁ordered	-10322
▁passage	-10323
▁pointed	-10324
▁propose	-10325
▁pursuit	-10326
▁quietly	-10327
▁regrets	-10328
▁rehabil	-10329
▁reminds	-10330
▁request	-10331
▁revenue	-10332
▁sadness	-10333
▁sailing	-10334
▁squares	-10335
▁stepped	-10336
▁storage	-10337
▁strikes	-10338
▁submers	-10339
▁texting	-10340
▁travels	-10341
▁victory	-10342
▁volcano	-10343
▁whisper	-10344
▁whistle	-10345
▁worship	-10346
conscious	-10347
criptions	-10348
mentation	-10349
▁Although	-10350
▁Benjamin	-10351
▁Canadian	-10352
▁Carolina	-10353
▁Margaret	-10354
▁Normally	-10355
▁Pantheon	-10356
▁accompan	-10357
▁advocate	-10358
▁aluminum	-10359
▁ambition	-10360
▁ancestor	-10361
▁arrested	-10362
▁arteries	-10363
▁attacked	-10364
▁blessing	-10365
▁colonies	-10366
▁comments	-10367
▁connects	-10368
▁consists	-10369
▁coverage	-10370
▁democrat	-10371
▁diagrams	-10372
▁displays	-10373
▁endeavor	-10374
▁evolving	-10375
▁explored	-10376
▁forecast	-10377
▁friction	-10378
▁gathered	-10379
▁gestures	-10380
▁historic	-10381
▁impaired	-10382
▁improved	-10383
▁insights	-10384
▁interven	-10385
▁invasion	-10386
▁invested	-10387
▁laughter	-10388
▁nitrogen	-10389
▁nonsense	-10390
▁operated	-10391
▁outcomes	-10392
▁pleasant	-10393
▁precious	-10394
▁pressing	-10395
▁primates	-10396
▁reminder	-10397
▁robotics	-10398
▁selected	-10399
▁sensible	-10400
▁surgical	-10401
▁teenager	-10402
▁thrilled	-10403
▁unemploy	-10404
▁unstable	-10405
▁Architect	-10406
▁Broadmoor	-10407
▁Certainly	-10408
▁Different	-10409
▁Education	-10410
▁Excellent	-10411
▁Professor	-10412
▁Secretary	-10413
▁acknowled	-10414
▁addiction	-10415
▁affecting	-10416
▁ambiguous	-10417
▁biosphere	-10418
▁candidate	-10419
▁cockroach	-10420
▁confusion	-10421
▁constitut	-10422
▁diagnosis	-10423
▁diplomacy	-10424
▁displaced	-10425
▁elaborate	-10426
▁emergence	-10427
▁exception	-10428
▁galleries	-10429
▁generator	-10430
▁headlines	-10431
▁imitation	-10432
▁improvise	-10433
▁investing	-10434
▁livestock	-10435
▁longevity	-10436
▁massively	-10437
▁meanwhile	-10438
▁mosquitos	-10439
▁mythology	-10440
▁obsession	-10441
▁occurring	-10442
▁ownership	-10443
▁partially	-10444
▁passwords	-10445
▁recession	-10446
▁reflected	-10447
▁resistant	-10448
▁responded	-10449
▁scenarios	-10450
▁sequences	-10451
▁southwest	-10452
▁stability	-10453
▁strategic	-10454
▁supercond	-10455
▁surprises	-10456
▁survivors	-10457
▁temporary	-10458
▁whistling	-10459
▁Compassion	-10460
▁Conference	-10461
▁Eventually	-10462
▁Panbanisha	-10463
▁Pittsburgh	-10464
▁Scientists	-10465
▁accelerate	-10466
▁assignment	-10467
▁automobile	-10468
▁challenged	-10469
▁contagious	-10470
▁contribute	-10471
▁convenient	-10472
▁disappears	-10473
▁eliminated	-10474
▁explaining	-10475
▁functional	-10476
▁impressive	-10477
▁irrelevant	-10478
▁mechanisms	-10479
▁medication	-10480
▁microphone	-10481
▁perfection	-10482
▁persuasion	-10483
▁pharmaceut	-10484
▁physicians	-10485
▁predicting	-10486
▁regenerate	-10487
▁remarkably	-10488
▁retirement	-10489
▁sabbatical	-10490
▁sculptures	-10491
▁terrorists	-10492
▁transistor	-10493
▁treatments	-10494
▁ubiquitous	-10495
▁ultrasound	-10496
▁vegetables	-10497
▁Republicans	-10498
▁Switzerland	-10499
▁anniversary	-10500
▁antibiotics	-10501
▁consciously	-10502
▁controversy	-10503
▁corresponds	-10504
▁definitions	-10505
▁desperately	-10506
▁destination	-10507
▁documentary	-10508
▁eradication	-10509
▁existential	-10510
▁instruction	-10511
▁journalists	-10512
▁legislation	-10513
▁maintaining	-10514
▁medications	-10515
▁nonetheless	-10516
▁photography	-10517
▁potentially	-10518
▁statistical	-10519
▁storyteller	-10520
▁suggestions	-10521
▁accelerating	-10522
▁collectively	-10523
▁coordination	-10524
▁humanitarian	-10525
▁illustration	-10526
▁manipulating	-10527
▁measurements	-10528
▁occasionally	-10529
▁testosterone	-10530
▁tremendously	-10531
▁concentration	-10532
▁contradiction	-10533
▁participating	-10534
▁revolutionary	-10535
▁schizophrenia	-10536
▁interconnected	-10537
▁systematically	-10538
▁electromagnetic	-10539
47	-10540
Al	-10541
Ar	-10542
Le	-10543
Un	-10544
gi	-10545
ju	-10546
po	-10547
sm	-10548
va	-10549
For	-10550
God	-10551
ahn	-10552
ajm	-10553
aks	-10554
alg	-10555
awi	-10556
awn	-10557
bie	-10558
cam	-10559
cel	-10560
cup	-10561
dam	-10562
dog	-10563
ege	-10564
enz	-10565
err	-10566
ffe	-10567
ibi	-10568
iju	-10569
isa	-10570
iza	-10571
jud	-10572
lla	-10573
mot	-10574
mun	-10575
nac	-10576
nut	-10577
obi	-10578
oic	-10579
ona	-10580
pay	-10581
psy	-10582
ros	-10583
uns	-10584
uti	-10585
vir	-10586
wid	-10587
zzy	-10588
▁4.	-10589
▁48	-10590
▁AI	-10591
▁AR	-10592
▁Ca	-10593
▁Es	-10594
▁IT	-10595
▁JL	-10596
▁Kn	-10597
▁MR	-10598
▁PH	-10599
▁PR	-10600
▁RO	-10601
▁Sn	-10602
▁TS	-10603
▁VC	-10604
▁ba	-10605
▁ow	-10606
▁ox	-10607
AIDS	-10608
EMPT	-10609
When	-10610
acks	-10611
ader	-10612
alay	-10613
anch	-10614
anna	-10615
anny	-10616
aybe	-10617
coal	-10618
cost	-10619
etor	-10620
fire	-10621
gage	-10622
hips	-10623
ickr	-10624
ifle	-10625
mies	-10626
ocks	-10627
ooks	-10628
oske	-10629
otle	-10630
ousy	-10631
phem	-10632
rack	-10633
rock	-10634
ruce	-10635
size	-10636
them	-10637
utes	-10638
weed	-10639
ylon	-10640
ynth	-10641
▁'50	-10642
▁1.3	-10643
▁12,	-10644
▁13.	-10645
▁130	-10646
▁160	-10647
▁192	-10648
▁20,	-10649
▁20-	-10650
▁450	-10651
▁900	-10652
▁Alz	-10653
▁Ara	-10654
▁Ass	-10655
▁Bol	-10656
▁Bud	-10657
▁Bur	-10658
▁CEO	-10659
▁Cap	-10660
▁Cat	-10661
▁Cir	-10662
▁DAR	-10663
▁Del	-10664
▁Dor	-10665
▁EDI	-10666
▁Ins	-10667
▁Ire	-10668
▁Jud	-10669
▁Jup	-10670
▁Kar	-10671
▁Kat	-10672
▁Map	-10673
▁Mel	-10674
▁Oxy	-10675
▁Rel	-10676
▁Ric	-10677
▁Sub	-10678
▁Sum	-10679
▁Tem	-10680
▁Tit	-10681
▁USA	-10682
▁Ver	-10683
▁Wil	-10684
▁Zip	-10685
▁aph	-10686
▁boo	-10687
▁civ	-10688
▁cuc	-10689
▁eag	-10690
▁eld	-10691
▁fog	-10692
▁hob	-10693
▁nap	-10694
▁paj	-10695
▁rap	-10696
▁rug	-10697
▁tid	-10698
▁umb	-10699
▁unw	-10700
▁ups	-10701
anyon	-10702
aware	-10703
close	-10704
culus	-10705
duate	-10706
geant	-10707
graph	-10708
idesp	-10709
impse	-10710
inema	-10711
inine	-10712
iogen	-10713
itler	-10714
meter	-10715
ocity	-10716
oding	-10717
orida	-10718
outhe	-10719
pless	-10720
rised	-10721
rooms	-10722
stage	-10723
uddin	-10724
uding	-10725
venty	-10726
wheel	-10727
width	-10728
▁2005	-10729
▁Anim	-10730
▁Call	-10731
▁Cape	-10732
▁Cuba	-10733
▁Cult	-10734
▁Diam	-10735
▁Doug	-10736
▁Fall	-10737
▁Hard	-10738
▁Homo	-10739
▁Lead	-10740
▁Lego	-10741
▁Muti	-10742
▁Najm	-10743
▁Need	-10744
▁News	-10745
▁Nike	-10746
▁Pass	-10747
▁Peru	-10748
▁Pros	-10749
▁Read	-10750
▁Self	-10751
▁Text	-10752
▁Trad	-10753
▁Went	-10754
▁Work	-10755
▁Zimb	-10756
▁actu	-10757
▁aged	-10758
▁amen	-10759
▁apes	-10760
▁bass	-10761
▁beds	-10762
▁beep	-10763
▁bend	-10764
▁bury	-10765
▁cafe	-10766
▁cane	-10767
▁cass	-10768
▁caus	-10769
▁chat	-10770
▁coma	-10771
▁dens	-10772
▁dood	-10773
▁drew	-10774
▁eats	-10775
▁envy	-10776
▁feas	-10777
▁goat	-10778
▁grim	-10779
▁grip	-10780
▁hamb	-10781
▁heav	-10782
▁hipp	-10783
▁hump	-10784
▁kitt	-10785
▁lazy	-10786
▁lith	-10787
▁medi	-10788
▁pier	-10789
▁pity	-10790
▁pond	-10791
▁porn	-10792
▁preh	-10793
▁prey	-10794
▁pron	-10795
▁radi	-10796
▁ramp	-10797
▁sang	-10798
▁scal	-10799
▁semi	-10800
▁shed	-10801
▁slum	-10802
▁ster	-10803
▁sush	-10804
▁swam	-10805
▁turb	-10806
▁twin	-10807
▁vice	-10808
Listen	-10809
anting	-10810
aratus	-10811
asions	-10812
ervice	-10813
igrade	-10814
ijuana	-10815
inator	-10816
intend	-10817
lights	-10818
obiles	-10819
oscope	-10820
ounded	-10821
owning	-10822
ptions	-10823
redict	-10824
school	-10825
ulates	-10826
ustice	-10827
velope	-10828
▁1980.	-10829
▁2004.	-10830
▁2007,	-10831
▁2008,	-10832
▁Arist	-10833
▁Beach	-10834
▁Beeth	-10835
▁Claus	-10836
▁Close	-10837
▁Cloud	-10838
▁Cyrus	-10839
▁Death	-10840
▁Found	-10841
▁Gando	-10842
▁Guard	-10843
▁Hence	-10844
▁Koran	-10845
▁Large	-10846
▁Lewis	-10847
▁Moses	-10848
▁Namib	-10849
▁Nolly	-10850
▁Roman	-10851
▁Smith	-10852
▁Solar	-10853
▁TEMPT	-10854
▁Tunis	-10855
▁acute	-10856
▁adequ	-10857
▁alike	-10858
▁ambit	-10859
▁belly	-10860
▁boots	-10861
▁brows	-10862
▁bumps	-10863
▁chief	-10864
▁clash	-10865
▁cobra	-10866
▁crush	-10867
▁cumul	-10868
▁dealt	-10869
▁divor	-10870
▁downs	-10871
▁draft	-10872
▁dread	-10873
▁drops	-10874
▁dwell	-10875
▁eager	-10876
▁elite	-10877
▁embod	-10878
▁eyebr	-10879
▁facil	-10880
▁fired	-10881
▁firms	-10882
▁frogs	-10883
▁fuzzy	-10884
▁gears	-10885
▁heter	-10886
▁hitch	-10887
▁ingen	-10888
▁irony	-10889
▁jewel	-10890
▁jihad	-10891
▁juice	-10892
▁lemon	-10893
▁lever	-10894
▁lifes	-10895
▁messy	-10896
▁monit	-10897
▁octop	-10898
▁patch	-10899
▁radar	-10900
▁recre	-10901
▁repet	-10902
▁rever	-10903
▁seals	-10904
▁seats	-10905
▁sheer	-10906
▁spagh	-10907
▁sperm	-10908
▁spine	-10909
▁stake	-10910
▁strat	-10911
▁subur	-10912
▁suits	-10913
▁sweat	-10914
▁taxes	-10915
▁trace	-10916
▁twins	-10917
▁vivid	-10918
▁volts	-10919
▁wavel	-10920
▁wiped	-10921
▁wreck	-10922
▁wrink	-10923
ativity	-10924
blowing	-10925
closure	-10926
ilation	-10927
imental	-10928
iscover	-10929
itative	-10930
ivation	-10931
liament	-10932
million	-10933
ocative	-10934
osaurus	-10935
osexual	-10936
ountain	-10937
parents	-10938
quently	-10939
roverts	-10940
ructive	-10941
umbling	-10942
▁15,000	-10943
▁Apollo	-10944
▁Arthur	-10945
▁Berlin	-10946
▁Beyond	-10947
▁Bonobo	-10948
▁Canyon	-10949
▁Cooper	-10950
▁County	-10951
▁Finger	-10952
▁Flickr	-10953
▁Greece	-10954
▁Hadron	-10955
▁Hawaii	-10956
▁Inside	-10957
▁Joseph	-10958
▁Joshua	-10959
▁Mother	-10960
▁Philip	-10961
▁Samuel	-10962
▁Simply	-10963
▁Spring	-10964
▁Square	-10965
▁Steven	-10966
▁Turkey	-10967
▁Unlike	-10968
▁accent	-10969
▁adoles	-10970
▁agency	-10971
▁agents	-10972
▁angles	-10973
▁antide	-10974
▁archae	-10975
▁attent	-10976
▁autobi	-10977
▁banned	-10978
▁behold	-10979
▁bloody	-10980
▁brutal	-10981
▁bullet	-10982
▁camels	-10983
▁campus	-10984
▁carpet	-10985
▁census	-10986
▁checks	-10987
▁claims	-10988
▁compre	-10989
▁cooked	-10990
▁cosmic	-10991
▁county	-10992
▁creepy	-10993
▁depart	-10994
▁depths	-10995
▁disput	-10996
▁divine	-10997
▁drones	-10998
▁empire	-10999
▁entrop	-11000
▁erotic	-11001
▁exceed	-11002
▁exoske	-11003
▁fibers	-11004
▁firing	-11005
▁folded	-11006
▁forger	-11007
▁former	-11008
▁foster	-11009
▁freely	-11010
▁galvan	-11011
▁hooked	-11012
▁hotter	-11013
▁incons	-11014
▁indiff	-11015
▁laying	-11016
▁lining	-11017
▁lonely	-11018
▁magnet	-11019
▁mating	-11020
▁mentor	-11021
▁mixing	-11022
▁nearby	-11023
▁neural	-11024
▁northe	-11025
▁offend	-11026
▁orgasm	-11027
▁oyster	-11028
▁parach	-11029
▁partly	-11030
▁pherom	-11031
▁potato	-11032
▁powers	-11033
▁prizes	-11034
▁reader	-11035
▁ripped	-11036
▁rotate	-11037
▁serial	-11038
▁shaman	-11039
▁sheets	-11040
▁shifts	-11041
▁shoots	-11042
▁slogan	-11043
▁sovere	-11044
▁spores	-11045
▁tasted	-11046
▁tender	-11047
▁thirds	-11048
▁tomato	-11049
▁tricky	-11050
▁tunnel	-11051
▁unfair	-11052
▁unseen	-11053
▁update	-11054
▁urgent	-11055
▁verify	-11056
ependent	-11057
ortunity	-11058
positive	-11059
ragmatic	-11060
▁Atlanta	-11061
▁College	-11062
▁Denmark	-11063
▁Finland	-11064
▁Florida	-11065
▁Freedom	-11066
▁Germans	-11067
▁Himalay	-11068
▁Jupiter	-11069
▁Lebanon	-11070
▁Seventy	-11071
▁Several	-11072
▁Similar	-11073
▁Somalia	-11074
▁adrenal	-11075
▁ashamed	-11076
▁authors	-11077
▁ballast	-11078
▁battles	-11079
▁beetles	-11080
▁boiling	-11081
▁bonobos	-11082
▁breasts	-11083
▁bridges	-11084
▁broader	-11085
▁cafeter	-11086
▁claimed	-11087
▁clarify	-11088
▁closing	-11089
▁columns	-11090
▁concuss	-11091
▁counted	-11092
▁cousins	-11093
▁deficit	-11094
▁deserts	-11095
▁desires	-11096
▁discrim	-11097
▁dispers	-11098
▁disrupt	-11099
▁donated	-11100
▁dressed	-11101
▁earning	-11102
▁encrypt	-11103
▁exagger	-11104
▁exhibit	-11105
▁expands	-11106
▁exploit	-11107
▁filling	-11108
▁fossils	-11109
▁freaked	-11110
▁glimpse	-11111
▁grammar	-11112
▁hacking	-11113
▁holiday	-11114
▁involve	-11115
▁joining	-11116
▁knocked	-11117
▁landing	-11118
▁laundry	-11119
▁markers	-11120
▁matched	-11121
▁maximum	-11122
▁methods	-11123
▁needing	-11124
▁origins	-11125
▁planned	-11126
▁planted	-11127
▁popping	-11128
▁posture	-11129
▁premise	-11130
▁promote	-11131
▁reactor	-11132
▁refugee	-11133
▁routine	-11134
▁seasons	-11135
▁secular	-11136
▁shadows	-11137
▁shaping	-11138
▁shatter	-11139
▁shortly	-11140
▁soluble	-11141
▁spatial	-11142
▁spirits	-11143
▁stadium	-11144
▁strokes	-11145
▁teaches	-11146
▁texture	-11147
▁threats	-11148
▁toilets	-11149
▁traject	-11150
▁trigger	-11151
▁trusted	-11152
▁upright	-11153
▁warfare	-11154
▁watches	-11155
idespread	-11156
intuitive	-11157
ropolitan	-11158
▁Anything	-11159
▁Brooklyn	-11160
▁Cambodia	-11161
▁Collider	-11162
▁Founding	-11163
▁Hospital	-11164
▁Hundreds	-11165
▁Learning	-11166
▁Probably	-11167
▁accommod	-11168
▁airports	-11169
▁altruism	-11170
▁approved	-11171
▁assemble	-11172
▁barriers	-11173
▁calculus	-11174
▁calendar	-11175
▁ceremony	-11176
▁certific	-11177
▁charcoal	-11178
▁circuits	-11179
▁climbers	-11180
▁concerns	-11181
▁confined	-11182
▁congress	-11183
▁disabled	-11184
▁discrete	-11185
▁district	-11186
▁dominant	-11187
▁donation	-11188
▁downhill	-11189
▁employer	-11190
▁envelope	-11191
▁envision	-11192
▁external	-11193
▁fairness	-11194
▁frequent	-11195
▁hometown	-11196
▁honestly	-11197
▁humility	-11198
▁indicate	-11199
▁indirect	-11200
▁marathon	-11201
▁marginal	-11202
▁meantime	-11203
▁miracles	-11204
▁misunder	-11205
▁monsters	-11206
▁numerous	-11207
▁observed	-11208
▁offshore	-11209
▁paradise	-11210
▁parasite	-11211
▁passions	-11212
▁policing	-11213
▁princess	-11214
▁prosecut	-11215
▁receptor	-11216
▁recycled	-11217
▁sanitary	-11218
▁schedule	-11219
▁scholars	-11220
▁seasonal	-11221
▁secondly	-11222
▁sections	-11223
▁shepherd	-11224
▁shocking	-11225
▁speeding	-11226
▁stressed	-11227
▁strongly	-11228
▁symbolic	-11229
▁synchron	-11230
▁systemic	-11231
▁tangible	-11232
▁troubled	-11233
▁underway	-11234
atulations	-11235
organizing	-11236
redictable	-11237
▁Alzheimer	-11238
▁Aristotle	-11239
▁Beethoven	-11240
▁Elizabeth	-11241
▁Jefferson	-11242
▁Najmuddin	-11243
▁Nollywood	-11244
▁Siftables	-11245
▁Telescope	-11246
▁abandoned	-11247
▁algorithm	-11248
▁ambitious	-11249
▁apparatus	-11250
▁artifacts	-11251
▁assistant	-11252
▁asteroids	-11253
▁billboard	-11254
▁blindness	-11255
▁collision	-11256
▁comprised	-11257
▁contained	-11258
▁contracts	-11259
▁converted	-11260
▁copyright	-11261
▁correctly	-11262
▁dominated	-11263
▁exhausted	-11264
▁finishing	-11265
▁flowering	-11266
▁formation	-11267
▁gratitude	-11268
▁honeybees	-11269
▁impressed	-11270
▁inherited	-11271
▁injustice	-11272
▁installed	-11273
▁intensity	-11274
▁intensive	-11275
▁machinery	-11276
▁magnitude	-11277
▁marijuana	-11278
▁microbial	-11279
▁migration	-11280
▁motivated	-11281
▁mysteries	-11282
▁perceived	-11283
▁pregnancy	-11284
▁prevented	-11285
▁prisoners	-11286
▁producers	-11287
▁promoting	-11288
▁receiving	-11289
▁recycling	-11290
▁scheduled	-11291
▁spaghetti	-11292
▁strangely	-11293
▁suspended	-11294
▁synthesis	-11295
▁synthetic	-11296
▁textbooks	-11297
▁varieties	-11298
▁vibrating	-11299
▁warehouse	-11300
▁Generation	-11301
▁Geographic	-11302
▁accumulate	-11303
▁anticipate	-11304
▁assistance	-11305
▁attributes	-11306
▁calculator	-11307
▁celebrated	-11308
▁centrifuge	-11309
▁compromise	-11310
▁conceptual	-11311
▁congestion	-11312
▁generosity	-11313
▁geographic	-11314
▁indication	-11315
▁infectious	-11316
▁intriguing	-11317
▁inventions	-11318
▁invitation	-11319
▁irrigation	-11320
▁metabolism	-11321
▁narratives	-11322
▁operations	-11323
▁physicists	-11324
▁projection	-11325
▁prosthetic	-11326
▁protective	-11327
▁regulation	-11328
▁sufficient	-11329
▁suggestion	-11330
▁suspicious	-11331
▁temptation	-11332
▁threatened	-11333
▁wavelength	-11334
▁accompanied	-11335
▁antidepress	-11336
▁assignments	-11337
▁calculating	-11338
▁corporation	-11339
▁countryside	-11340
▁established	-11341
▁ethnosphere	-11342
▁expectation	-11343
▁functioning	-11344
▁implication	-11345
▁improvement	-11346
▁incremental	-11347
▁integration	-11348
▁limitations	-11349
▁microscopic	-11350
▁pessimistic	-11351
▁politically	-11352
▁revolutions	-11353
▁transferred	-11354
▁unconscious	-11355
▁acceleration	-11356
▁communicates	-11357
▁consistently	-11358
▁demonstrated	-11359
▁disappearing	-11360
▁economically	-11361
▁intersection	-11362
▁interviewing	-11363
▁invisibility	-11364
▁neurological	-11365
▁neuroscience	-11366
▁participants	-11367
▁philosophers	-11368
▁computational	-11369
▁configuration	-11370
▁conservatives	-11371
▁corresponding	-11372
▁disappointing	-11373
▁exponentially	-11374
▁grandchildren	-11375
▁interventions	-11376
▁intrinsically	-11377
▁investigation	-11378
▁professionals	-11379
▁spontaneously	-11380
▁substantially	-11381
▁underestimate	-11382
▁unpredictable	-11383
▁unsustainable	-11384
▁cybercriminals	-11385
▁organizational	-11386
▁rehabilitation	-11387
,'	-11388
Af	-11389
BC	-11390
BI	-11391
Cl	-11392
EA	-11393
Fi	-11394
bu	-11395
gh	-11396
tw	-11397
vi	-11398
yg	-11399
ão	-11400
800	-11401
:30	-11402
ARS	-11403
Dad	-11404
ECD	-11405
ada	-11406
adv	-11407
aza	-11408
bel	-11409
bly	-11410
des	-11411
enh	-11412
fat	-11413
fig	-11414
iba	-11415
ibl	-11416
ila	-11417
isp	-11418
iva	-11419
lah	-11420
olo	-11421
ols	-11422
osn	-11423
pol	-11424
ppy	-11425
rie	-11426
run	-11427
tte	-11428
una	-11429
why	-11430
▁$5	-11431
▁38	-11432
▁4,	-11433
▁5.	-11434
▁54	-11435
▁57	-11436
▁68	-11437
▁7,	-11438
▁86	-11439
▁97	-11440
▁AS	-11441
▁Av	-11442
▁BC	-11443
▁Da	-11444
▁Ec	-11445
▁ID	-11446
▁IQ	-11447
▁Ow	-11448
▁RG	-11449
▁Si	-11450
▁Tz	-11451
▁Vi	-11452
▁Wr	-11453
▁eB	-11454
▁ft	-11455
John	-11456
Life	-11457
Make	-11458
Tell	-11459
abwe	-11460
adel	-11461
adow	-11462
aine	-11463
alai	-11464
alem	-11465
amel	-11466
anas	-11467
asha	-11468
ashy	-11469
assy	-11470
away	-11471
bean	-11472
bone	-11473
bust	-11474
chem	-11475
cium	-11476
coll	-11477
deaf	-11478
ello	-11479
ench	-11480
eram	-11481
eted	-11482
etts	-11483
held	-11484
icky	-11485
ifes	-11486
ifts	-11487
iley	-11488
isan	-11489
llen	-11490
long	-11491
oore	-11492
ords	-11493
orns	-11494
orph	-11495
owan	-11496
page	-11497
pert	-11498
pres	-11499
rane	-11500
rans	-11501
repl	-11502
riet	-11503
roit	-11504
rony	-11505
rosc	-11506
rove	-11507
shit	-11508
stop	-11509
tain	-11510
ucks	-11511
ults	-11512
unks	-11513
viet	-11514
▁11.	-11515
▁12.	-11516
▁140	-11517
▁185	-11518
▁190	-11519
▁20.	-11520
▁21.	-11521
▁99.	-11522
▁Aid	-11523
▁Bad	-11524
▁Bre	-11525
▁Cre	-11526
▁Dam	-11527
▁Gar	-11528
▁IBM	-11529
▁Ide	-11530
▁Jam	-11531
▁LOL	-11532
▁Mas	-11533
▁Mat	-11534
▁Mau	-11535
▁Max	-11536
▁McC	-11537
▁Mik	-11538
▁NGO	-11539
▁Oil	-11540
▁Ooh	-11541
▁Pia	-11542
▁RNG	-11543
▁Rub	-11544
▁Sao	-11545
▁Sen	-11546
▁Sho	-11547
▁Sud	-11548
▁Ted	-11549
▁Toy	-11550
▁Tri	-11551
▁Woo	-11552
▁ace	-11553
▁apt	-11554
▁bid	-11555
▁coc	-11556
▁dar	-11557
▁dod	-11558
▁enh	-11559
▁huh	-11560
▁piv	-11561
▁pou	-11562
▁ray	-11563
▁rum	-11564
▁som	-11565
▁woo	-11566
▁zip	-11567
Great	-11568
Maybe	-11569
acher	-11570
achus	-11571
adata	-11572
ahili	-11573
ambig	-11574
amous	-11575
atson	-11576
bergs	-11577
ceral	-11578
cuses	-11579
dives	-11580
ennes	-11581
eping	-11582
ernic	-11583
essed	-11584
ettes	-11585
frame	-11586
front	-11587
gered	-11588
green	-11589
icism	-11590
ieces	-11591
inian	-11592
inson	-11593
iolet	-11594
itory	-11595
lexic	-11596
liers	-11597
nacle	-11598
ocaly	-11599
oking	-11600
oodoo	-11601
oping	-11602
raged	-11603
ragon	-11604
ribes	-11605
roots	-11606
style	-11607
thood	-11608
uming	-11609
unity	-11610
▁$100	-11611
▁Auth	-11612
▁Bali	-11613
▁Best	-11614
▁Brah	-11615
▁Bron	-11616
▁CEOs	-11617
▁Cart	-11618
▁Cass	-11619
▁Dist	-11620
▁Expl	-11621
▁Fear	-11622
▁Find	-11623
▁Gwen	-11624
▁Hack	-11625
▁Hall	-11626
▁Hill	-11627
▁Holl	-11628
▁Jenn	-11629
▁Jour	-11630
▁Libr	-11631
▁Lord	-11632
▁Mind	-11633
▁Much	-11634
▁Must	-11635
▁NGOs	-11636
▁Nano	-11637
▁OECD	-11638
▁Orig	-11639
▁Palm	-11640
▁Rift	-11641
▁Romo	-11642
▁SARS	-11643
▁SOPA	-11644
▁Socr	-11645
▁Stat	-11646
▁Stay	-11647
▁TEDx	-11648
▁Tour	-11649
▁Virt	-11650
▁Whit	-11651
▁apps	-11652
▁belt	-11653
▁bent	-11654
▁blah	-11655
▁bore	-11656
▁carp	-11657
▁chef	-11658
▁chin	-11659
▁chop	-11660
▁cred	-11661
▁deny	-11662
▁duty	-11663
▁enab	-11664
▁fade	-11665
▁fist	-11666
▁flaw	-11667
▁fled	-11668
▁folk	-11669
▁font	-11670
▁gamb	-11671
▁gira	-11672
▁godd	-11673
▁hike	-11674
▁hust	-11675
▁iPad	-11676
▁indu	-11677
▁jeal	-11678
▁kilo	-11679
▁lamb	-11680
▁lips	-11681
▁lobe	-11682
▁masc	-11683
▁mixt	-11684
▁mour	-11685
▁nick	-11686
▁nost	-11687
▁obey	-11688
▁offs	-11689
▁perf	-11690
▁perm	-11691
▁rats	-11692
▁rude	-11693
▁rupe	-11694
▁sank	-11695
▁slot	-11696
▁sock	-11697
▁span	-11698
▁succ	-11699
▁syll	-11700
▁tect	-11701
▁tips	-11702
▁trek	-11703
▁unve	-11704
Really	-11705
alling	-11706
apshot	-11707
awater	-11708
charge	-11709
cipher	-11710
diving	-11711
ermaid	-11712
esteem	-11713
icides	-11714
igator	-11715
imagin	-11716
imicry	-11717
incere	-11718
inical	-11719
itoris	-11720
lahoma	-11721
letons	-11722
onesia	-11723
riages	-11724
shaped	-11725
tering	-11726
uclear	-11727
ulance	-11728
umbled	-11729
umines	-11730
▁1999.	-11731
▁2009.	-11732
▁2020.	-11733
▁Adapt	-11734
▁Along	-11735
▁Billy	-11736
▁Bruce	-11737
▁Dalai	-11738
▁Exper	-11739
▁Furby	-11740
▁Glenn	-11741
▁Hands	-11742
▁Innov	-11743
▁Julie	-11744
▁Larry	-11745
▁Leone	-11746
▁Lifes	-11747
▁Liter	-11748
▁Marco	-11749
▁Media	-11750
▁Medic	-11751
▁Metap	-11752
▁Money	-11753
▁Moore	-11754
▁Plato	-11755
▁Sadly	-11756
▁Sarah	-11757
▁Stand	-11758
▁Susan	-11759
▁Using	-11760
▁Wired	-11761
▁arous	-11762
▁arrow	-11763
▁artic	-11764
▁banjo	-11765
▁bikes	-11766
▁bites	-11767
▁brick	-11768
▁buddy	-11769
▁burnt	-11770
▁buses	-11771
▁chips	-11772
▁crabs	-11773
▁croch	-11774
▁cubic	-11775
▁dials	-11776
▁dogma	-11777
▁dried	-11778
▁fatty	-11779
▁frost	-11780
▁gains	-11781
▁glory	-11782
▁grant	-11783
▁groom	-11784
▁guilt	-11785
▁hears	-11786
▁hills	-11787
▁icons	-11788
▁idiot	-11789
▁immig	-11790
▁impat	-11791
▁incub	-11792
▁insec	-11793
▁label	-11794
▁lakes	-11795
▁lasts	-11796
▁lifel	-11797
▁loses	-11798
▁mater	-11799
▁meets	-11800
▁mobil	-11801
▁oppon	-11802
▁param	-11803
▁paste	-11804
▁peers	-11805
▁poles	-11806
▁reper	-11807
▁revel	-11808
▁rhyth	-11809
▁ridge	-11810
▁roles	-11811
▁sadly	-11812
▁sanct	-11813
▁scoop	-11814
▁scrib	-11815
▁sends	-11816
▁setup	-11817
▁shave	-11818
▁shred	-11819
▁slice	-11820
▁spare	-11821
▁spear	-11822
▁squir	-11823
▁stare	-11824
▁sushi	-11825
▁tales	-11826
▁teens	-11827
▁token	-11828
▁towel	-11829
▁traff	-11830
▁trait	-11831
▁tunas	-11832
▁tuned	-11833
▁tutor	-11834
▁unity	-11835
▁usage	-11836
▁veins	-11837
▁waist	-11838
atories	-11839
centure	-11840
eliness	-11841
healthy	-11842
itorium	-11843
natural	-11844
onymous	-11845
parency	-11846
raising	-11847
rection	-11848
terland	-11849
umental	-11850
version	-11851
working	-11852
ylacine	-11853
▁Archie	-11854
▁Buddha	-11855
▁Cities	-11856
▁Consum	-11857
▁Corpor	-11858
▁Either	-11859
▁Energy	-11860
▁Forest	-11861
▁Fourth	-11862
▁Hitler	-11863
▁Hubble	-11864
▁Incred	-11865
▁Invest	-11866
▁Jersey	-11867
▁Justin	-11868
▁Malawi	-11869
▁Marcus	-11870
▁Moving	-11871
▁Nathan	-11872
▁Nether	-11873
▁Norway	-11874
▁Portug	-11875
▁Sahara	-11876
▁Soviet	-11877
▁Tennes	-11878
▁Watson	-11879
▁Wouldn	-11880
▁Wright	-11881
▁acquis	-11882
▁agrees	-11883
▁asleep	-11884
▁backed	-11885
▁backup	-11886
▁balcon	-11887
▁behalf	-11888
▁benign	-11889
▁blamed	-11890
▁bronze	-11891
▁builds	-11892
▁cables	-11893
▁charts	-11894
▁clicks	-11895
▁comics	-11896
▁costly	-11897
▁cowboy	-11898
▁dances	-11899
▁defect	-11900
▁dishes	-11901
▁dispar	-11902
▁dispos	-11903
▁dissip	-11904
▁donate	-11905
▁drying	-11906
▁editor	-11907
▁eighth	-11908
▁enrich	-11909
▁enters	-11910
▁ethics	-11911
▁fallen	-11912
▁fooled	-11913
▁fruits	-11914
▁glands	-11915
▁graphs	-11916
▁handed	-11917
▁harbor	-11918
▁heroic	-11919
▁horror	-11920
▁inspir	-11921
▁intest	-11922
▁intric	-11923
▁jacket	-11924
▁joints	-11925
▁kicked	-11926
▁lenses	-11927
▁losses	-11928
▁malign	-11929
▁mantra	-11930
▁marshm	-11931
▁microp	-11932
▁misery	-11933
▁mutant	-11934
▁naming	-11935
▁nights	-11936
▁offers	-11937
▁outfit	-11938
▁pissed	-11939
▁popped	-11940
▁preced	-11941
▁priest	-11942
▁puppet	-11943
▁purple	-11944
▁radius	-11945
▁raises	-11946
▁recycl	-11947
▁regist	-11948
▁resemb	-11949
▁retail	-11950
▁rhetor	-11951
▁riding	-11952
▁rubble	-11953
▁safely	-11954
▁salary	-11955
▁shield	-11956
▁slices	-11957
▁spills	-11958
▁spiral	-11959
▁starve	-11960
▁stored	-11961
▁strict	-11962
▁themes	-11963
▁timber	-11964
▁titles	-11965
▁traces	-11966
▁tribal	-11967
▁unable	-11968
▁unfold	-11969
▁upgrad	-11970
▁upload	-11971
▁varied	-11972
▁viable	-11973
▁violin	-11974
▁wished	-11975
▁worthy	-11976
▁writes	-11977
adelphia	-11978
conflict	-11979
elligent	-11980
gregated	-11981
orescent	-11982
outheast	-11983
▁Amazing	-11984
▁Detroit	-11985
▁Fifteen	-11986
▁Getting	-11987
▁Hawking	-11988
▁Journal	-11989
▁Library	-11990
▁Looking	-11991
▁Mexican	-11992
▁Parents	-11993
▁Passion	-11994
▁Success	-11995
▁Swahili	-11996
▁Swedish	-11997
▁Welcome	-11998
▁antenna	-11999
▁applies	-12000
▁assumed	-12001
▁athlete	-12002
▁augment	-12003
▁budgets	-12004
▁calcium	-12005
▁careers	-12006
▁catches	-12007
▁categor	-12008
▁cheated	-12009
▁circumc	-12010
▁compreh	-12011
▁convert	-12012
▁cracked	-12013
▁creator	-12014
▁crowded	-12015
▁damaged	-12016
▁demoral	-12017
▁dilemma	-12018
▁enhance	-12019
▁entropy	-12020
▁evolves	-12021
▁focuses	-12022
▁frontal	-12023
▁grabbed	-12024
▁hallway	-12025
▁heading	-12026
▁healing	-12027
▁heavens	-12028
▁heights	-12029
▁inertia	-12030
▁invaded	-12031
▁jewelry	-12032
▁lighter	-12033
▁mandate	-12034
▁mineral	-12035
▁mixture	-12036
▁monarch	-12037
▁monitor	-12038
▁mounted	-12039
▁needles	-12040
▁ongoing	-12041
▁onstage	-12042
▁optical	-12043
▁overlap	-12044
▁painter	-12045
▁partial	-12046
▁patents	-12047
▁primate	-12048
▁proving	-12049
▁recipro	-12050
▁recruit	-12051
▁reduces	-12052
▁reforms	-12053
▁rehears	-12054
▁replied	-12055
▁resolve	-12056
▁reveals	-12057
▁revenge	-12058
▁richest	-12059
▁ringing	-12060
▁rituals	-12061
▁scaling	-12062
▁seafood	-12063
▁secrets	-12064
▁shaking	-12065
▁shifted	-12066
▁shuffle	-12067
▁slowing	-12068
▁sounded	-12069
▁sulfide	-12070
▁surfing	-12071
▁surplus	-12072
▁synapse	-12073
▁terrain	-12074
▁tipping	-12075
▁torture	-12076
▁trading	-12077
▁wrapped	-12078
▁yelling	-12079
achusetts	-12080
efficient	-12081
iogenesis	-12082
▁100,000.	-12083
▁Building	-12084
▁Colombia	-12085
▁Columbia	-12086
▁Copernic	-12087
▁Maldives	-12088
▁McDonald	-12089
▁Mountain	-12090
▁Oklahoma	-12091
▁Pentagon	-12092
▁Soldiers	-12093
▁TEDsters	-12094
▁Zimbabwe	-12095
▁adoption	-12096
▁alphabet	-12097
▁announce	-12098
▁assembly	-12099
▁attempts	-12100
▁aviation	-12101
▁behaving	-12102
▁bubbling	-12103
▁checking	-12104
▁cleaning	-12105
▁clitoris	-12106
▁composed	-12107
▁crashing	-12108
▁cucumber	-12109
▁deadline	-12110
▁decipher	-12111
▁degraded	-12112
▁doubling	-12113
▁epiphany	-12114
▁evaluate	-12115
▁expanded	-12116
▁exposure	-12117
▁failures	-12118
▁figuring	-12119
▁forehead	-12120
▁genocide	-12121
▁geometry	-12122
▁glaciers	-12123
▁governor	-12124
▁handsome	-12125
▁heritage	-12126
▁hormones	-12127
▁interrog	-12128
▁intersex	-12129
▁lectures	-12130
▁managing	-12131
▁maneuver	-12132
▁memorial	-12133
▁mentally	-12134
▁modeling	-12135
▁monitors	-12136
▁multiply	-12137
▁mustache	-12138
▁mutation	-12139
▁patience	-12140
▁peripher	-12141
▁pinnacle	-12142
▁plankton	-12143
▁puncture	-12144
▁reacting	-12145
▁reducing	-12146
▁relation	-12147
▁relieved	-12148
▁resident	-12149
▁resonate	-12150
▁rotating	-12151
▁rotation	-12152
▁sessions	-12153
▁severely	-12154
▁shortage	-12155
▁sidewalk	-12156
▁simulate	-12157
▁snapshot	-12158
▁stumbled	-12159
▁stunning	-12160
▁superher	-12161
▁supports	-12162
▁switches	-12163
▁symphony	-12164
▁thinkers	-12165
▁unimagin	-12166
▁velocity	-12167
▁visiting	-12168
▁whistled	-12169
▁windmill	-12170
cyclopedia	-12171
▁Accenture	-12172
▁Beautiful	-12173
▁Companies	-12174
▁Democrats	-12175
▁Fantastic	-12176
▁Himalayas	-12177
▁Tennessee	-12178
▁academics	-12179
▁amazingly	-12180
▁ambulance	-12181
▁associate	-12182
▁astrolabe	-12183
▁attentive	-12184
▁attitudes	-12185
▁automated	-12186
▁bandwidth	-12187
▁biologist	-12188
▁butterfly	-12189
▁centrifug	-12190
▁cigarette	-12191
▁container	-12192
▁criticism	-12193
▁crocodile	-12194
▁desperate	-12195
▁discussed	-12196
▁distorted	-12197
▁donations	-12198
▁ecologist	-12199
▁elsewhere	-12200
▁emphasize	-12201
▁executive	-12202
▁explorers	-12203
▁extracted	-12204
▁filmmaker	-12205
▁fishermen	-12206
▁hamburger	-12207
▁imagining	-12208
▁imperfect	-12209
▁indicates	-12210
▁indicator	-12211
▁inflation	-12212
▁integrity	-12213
▁intention	-12214
▁intervene	-12215
▁launching	-12216
▁limestone	-12217
▁magazines	-12218
▁marriages	-12219
▁metaphors	-12220
▁millennia	-12221
▁mushrooms	-12222
▁mutations	-12223
▁occasions	-12224
▁offspring	-12225
▁packaging	-12226
▁paralysis	-12227
▁performed	-12228
▁performer	-12229
▁pragmatic	-12230
▁pressures	-12231
▁principal	-12232
▁promising	-12233
▁proposing	-12234
▁reinforce	-12235
▁residents	-12236
▁resilient	-12237
▁screening	-12238
▁sexuality	-12239
▁shortcuts	-12240
▁staircase	-12241
▁struggled	-12242
▁therapies	-12243
▁underwear	-12244
▁vegetable	-12245
▁viewpoint	-12246
▁volcanoes	-12247
▁voluntary	-12248
▁workplace	-12249
▁worldview	-12250
otechnology	-12251
▁Foundation	-12252
▁Lesterland	-12253
▁accounting	-12254
▁advantages	-12255
▁appearance	-12256
▁attraction	-12257
▁auditorium	-12258
▁basketball	-12259
▁beneficial	-12260
▁candidates	-12261
▁cartoonist	-12262
▁casualties	-12263
▁cellphones	-12264
▁centigrade	-12265
▁compressed	-12266
▁conception	-12267
▁consistent	-12268
▁containers	-12269
▁continuous	-12270
▁contradict	-12271
▁describing	-12272
▁destroying	-12273
▁disconnect	-12274
▁empowering	-12275
▁encouraged	-12276
▁eradicated	-12277
▁expressive	-12278
▁friendship	-12279
▁grassroots	-12280
▁illiterate	-12281
▁infinitely	-12282
▁initiative	-12283
▁interfaces	-12284
▁measurable	-12285
▁multiverse	-12286
▁navigation	-12287
▁overweight	-12288
▁paintbrush	-12289
▁pedestrian	-12290
▁persistent	-12291
▁preventing	-12292
▁priorities	-12293
▁procedures	-12294
▁publishing	-12295
▁questioned	-12296
▁reasonable	-12297
▁recovering	-12298
▁regardless	-12299
▁reinforced	-12300
▁repeatedly	-12301
▁sanitation	-12302
▁supplement	-12303
▁Development	-12304
▁Netherlands	-12305
▁accountable	-12306
▁assumptions	-12307
▁brilliantly	-12308
▁cognitively	-12309
▁competitors	-12310
▁complaining	-12311
▁conclusions	-12312
▁contributor	-12313
▁correlation	-12314
▁deprivation	-12315
▁disciplines	-12316
▁distinction	-12317
▁emotionally	-12318
▁enforcement	-12319
▁fluorescent	-12320
▁implemented	-12321
▁inexpensive	-12322
▁interviewed	-12323
▁investments	-12324
▁measurement	-12325
▁neuroscient	-12326
▁orientation	-12327
▁perceptions	-12328
▁philosopher	-12329
▁preferences	-12330
▁progression	-12331
▁psychiatric	-12332
▁rainforests	-12333
▁realization	-12334
▁regulations	-12335
▁requirement	-12336
▁seriousness	-12337
▁understands	-12338
▁Philadelphia	-12339
▁Transparency	-12340
▁angiogenesis	-12341
▁biologically	-12342
▁chemotherapy	-12343
▁manipulation	-12344
▁mechanically	-12345
▁milliseconds	-12346
▁nevertheless	-12347
▁perspectives	-12348
▁reproduction	-12349
▁reproductive	-12350
▁significance	-12351
▁unimaginable	-12352
▁urbanization	-12353
▁Massachusetts	-12354
▁compassionate	-12355
▁mathematician	-12356
▁philosophical	-12357
▁industrialized	-12358
▁simultaneously	-12359
▁antidepressants	-12360
".	-12361
-2	-12362
-3	-12363
14	-12364
40	-12365
AC	-12366
Aw	-12367
Gl	-12368
IP	-12369
Me	-12370
Of	-12371
Sp	-12372
hs	-12373
ki	-12374
mo	-12375
tu	-12376
uf	-12377
ya	-12378
30.	-12379
:00	-12380
ETI	-12381
ISD	-12382
KEA	-12383
One	-12384
add	-12385
ado	-12386
adp	-12387
ani	-12388
auc	-12389
azi	-12390
bac	-12391
bag	-12392
bas	-12393
bee	-12394
bes	-12395
but	-12396
col	-12397
dem	-12398
een	-12399
eks	-12400
erk	-12401
fty	-12402
gue	-12403
hma	-12404
ibo	-12405
ieu	-12406
iki	-12407
ilk	-12408
lli	-12409
non	-12410
ogs	-12411
opp	-12412
oto	-12413
oul	-12414
raz	-12415
rit	-12416
sur	-12417
syl	-12418
uci	-12419
ulg	-12420
ulk	-12421
upt	-12422
usk	-12423
zer	-12424
▁'5	-12425
▁43	-12426
▁46	-12427
▁53	-12428
▁58	-12429
▁6.	-12430
▁78	-12431
▁8.	-12432
▁96	-12433
▁AG	-12434
▁BM	-12435
▁CS	-12436
▁Ce	-12437
▁EL	-12438
▁JE	-12439
▁JP	-12440
▁Ja	-12441
▁LP	-12442
▁MP	-12443
▁NK	-12444
▁Os	-12445
▁PS	-12446
▁RP	-12447
▁Ry	-12448
▁SK	-12449
▁gh	-12450
▁tu	-12451
▁ze	-12452
Good	-12453
Just	-12454
Love	-12455
Mart	-12456
Take	-12457
acre	-12458
agan	-12459
agne	-12460
amil	-12461
ante	-12462
aque	-12463
arer	-12464
arse	-12465
aste	-12466
atis	-12467
aved	-12468
bell	-12469
bled	-12470
char	-12471
chor	-12472
ciss	-12473
dney	-12474
draw	-12475
eman	-12476
fits	-12477
fulf	-12478
gian	-12479
gram	-12480
gust	-12481
icut	-12482
ideo	-12483
ikes	-12484
iler	-12485
ilia	-12486
inas	-12487
inda	-12488
inea	-12489
iper	-12490
kill	-12491
lier	-12492
lims	-12493
love	-12494
mics	-12495
mind	-12496
neum	-12497
nity	-12498
oger	-12499
omer	-12500
onal	-12501
onto	-12502
orch	-12503
oria	-12504
orrh	-12505
oson	-12506
osov	-12507
othy	-12508
oved	-12509
plex	-12510
pull	-12511
real	-12512
rose	-12513
ruci	-12514
shot	-12515
thal	-12516
uels	-12517
utan	-12518
warf	-12519
wart	-12520
warz	-12521
xtap	-12522
zzle	-12523
▁11,	-12524
▁2.3	-12525
▁50.	-12526
▁Acc	-12527
▁Adm	-12528
▁Ali	-12529
▁Amb	-12530
▁Att	-12531
▁Aur	-12532
▁Beh	-12533
▁Bil	-12534
▁Bor	-12535
▁Cup	-12536
▁Cut	-12537
▁Dra	-12538
▁Ess	-12539
▁Fal	-12540
▁Fil	-12541
▁Hal	-12542
▁Han	-12543
▁Hmm	-12544
▁Imp	-12545
▁Inc	-12546
▁Kam	-12547
▁Kay	-12548
▁Kle	-12549
▁Lak	-12550
▁Len	-12551
▁Luc	-12552
▁Mao	-12553
▁Mot	-12554
▁Nik	-12555
▁Oli	-12556
▁Pay	-12557
▁Ple	-12558
▁Raj	-12559
▁Ram	-12560
▁Reg	-12561
▁Ret	-12562
▁Rod	-12563
▁Rou	-12564
▁Scr	-12565
▁Sit	-12566
▁Spl	-12567
▁Too	-12568
▁Val	-12569
▁Van	-12570
▁Vel	-12571
▁Wed	-12572
▁Won	-12573
▁Zoe	-12574
▁alb	-12575
▁ape	-12576
▁avo	-12577
▁bay	-12578
▁blo	-12579
▁bol	-12580
▁bri	-12581
▁cue	-12582
▁dub	-12583
▁fus	-12584
▁gin	-12585
▁gog	-12586
▁hij	-12587
▁hoo	-12588
▁lip	-12589
▁loy	-12590
▁mat	-12591
▁mit	-12592
▁pra	-12593
▁quo	-12594
▁toe	-12595
▁une	-12596
▁vig	-12597
▁wow	-12598
World	-12599
abbar	-12600
actic	-12601
ademy	-12602
agina	-12603
ailed	-12604
apses	-12605
arcer	-12606
asive	-12607
assic	-12608
avors	-12609
azine	-12610
berry	-12611
berty	-12612
birth	-12613
blood	-12614
cards	-12615
chief	-12616
cover	-12617
creat	-12618
erend	-12619
erver	-12620
ffiti	-12621
ffold	-12622
fting	-12623
gebra	-12624
igram	-12625
iotic	-12626
iumph	-12627
ivals	-12628
lapse	-12629
lived	-12630
llows	-12631
merce	-12632
onomy	-12633
opoly	-12634
orney	-12635
osoph	-12636
otion	-12637
pical	-12638
ranny	-12639
rella	-12640
ribed	-12641
shell	-12642
sight	-12643
steps	-12644
storm	-12645
story	-12646
toire	-12647
tzels	-12648
urday	-12649
urous	-12650
uting	-12651
vania	-12652
ymmet	-12653
▁100-	-12654
▁1800	-12655
▁2008	-12656
▁Ages	-12657
▁Bach	-12658
▁Bage	-12659
▁Bear	-12660
▁Bert	-12661
▁Bosn	-12662
▁Bulg	-12663
▁Cell	-12664
▁Chef	-12665
▁Cost	-12666
▁Dark	-12667
▁Dave	-12668
▁Denn	-12669
▁Desc	-12670
▁Edin	-12671
▁Else	-12672
▁Evan	-12673
▁Fast	-12674
▁Guys	-12675
▁Happ	-12676
▁Head	-12677
▁Hind	-12678
▁Hipp	-12679
▁Holy	-12680
▁IKEA	-12681
▁Jaze	-12682
▁Joey	-12683
▁Jord	-12684
▁Kahn	-12685
▁Know	-12686
▁LEDs	-12687
▁Lady	-12688
▁MoMA	-12689
▁Near	-12690
▁Ohio	-12691
▁PIPA	-12692
▁Pick	-12693
▁Plan	-12694
▁Poor	-12695
▁RISD	-12696
▁Ross	-12697
▁Rule	-12698
▁SETI	-12699
▁Sher	-12700
▁Sixt	-12701
▁Song	-12702
▁Sput	-12703
▁Test	-12704
▁Town	-12705
▁USDA	-12706
▁Uber	-12707
▁Utop	-12708
▁Wars	-12709
▁Year	-12710
▁Yves	-12711
▁bald	-12712
▁biol	-12713
▁bion	-12714
▁buff	-12715
▁buys	-12716
▁crab	-12717
▁dual	-12718
▁dupl	-12719
▁dusk	-12720
▁eBay	-12721
▁expo	-12722
▁funn	-12723
▁gear	-12724
▁goof	-12725
▁grie	-12726
▁gymn	-12727
▁hect	-12728
▁hers	-12729
▁hive	-12730
▁itch	-12731
▁jury	-12732
▁keen	-12733
▁knit	-12734
▁mang	-12735
▁mega	-12736
▁meta	-12737
▁mism	-12738
▁moan	-12739
▁noun	-12740
▁odor	-12741
▁owns	-12742
▁pipe	-12743
▁prol	-12744
▁quiz	-12745
▁rect	-12746
▁ripe	-12747
▁ruth	-12748
▁sane	-12749
▁skim	-12750
▁slam	-12751
▁subd	-12752
▁subm	-12753
▁surr	-12754
▁tadp	-12755
▁taxi	-12756
▁thus	-12757
▁toll	-12758
▁voic	-12759
▁ward	-12760
▁wipe	-12761
▁worn	-12762
▁yard	-12763
80,000	-12764
achers	-12765
advant	-12766
ailand	-12767
airobi	-12768
anship	-12769
atible	-12770
awatts	-12771
credit	-12772
ennium	-12773
esters	-12774
ialect	-12775
igible	-12776
igital	-12777
imedes	-12778
iments	-12779
integr	-12780
invent	-12781
issors	-12782
istine	-12783
itched	-12784
ivated	-12785
lihood	-12786
nesday	-12787
odynam	-12788
ologic	-12789
opathy	-12790
orient	-12791
orious	-12792
orters	-12793
oughts	-12794
ouston	-12795
preter	-12796
racies	-12797
record	-12798
rocess	-12799
rolled	-12800
saving	-12801
second	-12802
shield	-12803
umably	-12804
urtles	-12805
usalem	-12806
verbal	-12807
violet	-12808
weeney	-12809
▁1900,	-12810
▁1960.	-12811
▁2,500	-12812
▁2006,	-12813
▁2006.	-12814
▁2010,	-12815
▁9/11,	-12816
▁Allah	-12817
▁Arabs	-12818
▁Autom	-12819
▁Birds	-12820
▁Boyle	-12821
▁Craig	-12822
▁Debor	-12823
▁Defin	-12824
▁Diver	-12825
▁Doing	-12826
▁Drugs	-12827
▁Early	-12828
▁Enter	-12829
▁FedEx	-12830
▁Gamma	-12831
▁Going	-12832
▁Honey	-12833
▁Hotel	-12834
▁Jones	-12835
▁Kosov	-12836
▁Legos	-12837
▁Looks	-12838
▁Magic	-12839
▁Matth	-12840
▁Mayor	-12841
▁Miami	-12842
▁Music	-12843
▁Organ	-12844
▁Oscar	-12845
▁Phone	-12846
▁Prime	-12847
▁Psych	-12848
▁Qaeda	-12849
▁Qatar	-12850
▁Simon	-12851
▁Tower	-12852
▁Truth	-12853
▁Uncle	-12854
▁agile	-12855
▁appet	-12856
▁arose	-12857
▁awake	-12858
▁beans	-12859
▁bench	-12860
▁bills	-12861
▁blogs	-12862
▁booms	-12863
▁bribe	-12864
▁canal	-12865
▁chess	-12866
▁choir	-12867
▁chore	-12868
▁clich	-12869
▁clues	-12870
▁codes	-12871
▁congr	-12872
▁crews	-12873
▁dwarf	-12874
▁empir	-12875
▁enhan	-12876
▁erase	-12877
▁exile	-12878
▁fails	-12879
▁fills	-12880
▁flute	-12881
▁fudge	-12882
▁geeks	-12883
▁germs	-12884
▁gifts	-12885
▁hairs	-12886
▁haunt	-12887
▁helix	-12888
▁hobby	-12889
▁hoped	-12890
▁humid	-12891
▁hurry	-12892
▁hyena	-12893
▁indis	-12894
▁indul	-12895
▁juven	-12896
▁kilos	-12897
▁loans	-12898
▁medal	-12899
▁melts	-12900
▁moder	-12901
▁nanot	-12902
▁nerds	-12903
▁onset	-12904
▁paths	-12905
▁pearl	-12906
▁pluck	-12907
▁pneum	-12908
▁polls	-12909
▁ponds	-12910
▁posit	-12911
▁premi	-12912
▁quadr	-12913
▁queue	-12914
▁repel	-12915
▁rifle	-12916
▁rival	-12917
▁saves	-12918
▁screw	-12919
▁secre	-12920
▁shelf	-12921
▁shiny	-12922
▁sober	-12923
▁spike	-12924
▁spraw	-12925
▁stamp	-12926
▁steak	-12927
▁steth	-12928
▁stink	-12929
▁swamp	-12930
▁swear	-12931
▁swine	-12932
▁teeny	-12933
▁telec	-12934
▁towns	-12935
▁trips	-12936
▁unequ	-12937
▁unfin	-12938
▁versa	-12939
▁watts	-12940
▁width	-12941
▁woods	-12942
▁wrest	-12943
ameless	-12944
amiliar	-12945
assador	-12946
atorium	-12947
billion	-12948
ceptive	-12949
eopardy	-12950
fitting	-12951
glasses	-12952
inators	-12953
iratory	-12954
lighten	-12955
mothers	-12956
ocratic	-12957
ometric	-12958
ousands	-12959
perform	-12960
quarium	-12961
ractive	-12962
sharing	-12963
ulsions	-12964
washing	-12965
▁25,000	-12966
▁60,000	-12967
▁Advent	-12968
▁Albert	-12969
▁Andrew	-12970
▁Author	-12971
▁Babies	-12972
▁Better	-12973
▁Bridge	-12974
▁Change	-12975
▁Commun	-12976
▁Desert	-12977
▁Disney	-12978
▁Empire	-12979
▁Engine	-12980
▁Evelyn	-12981
▁Jabbar	-12982
▁Johnny	-12983
▁Mathem	-12984
▁Matrix	-12985
▁Mister	-12986
▁Morgan	-12987
▁Native	-12988
▁Oliver	-12989
▁Online	-12990
▁Person	-12991
▁Poland	-12992
▁Potter	-12993
▁Rezero	-12994
▁Rights	-12995
▁Sounds	-12996
▁Survey	-12997
▁Swedes	-12998
▁Sydney	-12999
▁Voodoo	-13000
▁Wonder	-13001
▁Zambia	-13002
▁Zipcar	-13003
▁angels	-13004
▁approx	-13005
▁asthma	-13006
▁banker	-13007
▁biased	-13008
▁bitten	-13009
▁boards	-13010
▁bonobo	-13011
▁branch	-13012
▁browse	-13013
▁canvas	-13014
▁cathed	-13015
▁coined	-13016
▁cookie	-13017
▁cooler	-13018
▁corrid	-13019
▁coward	-13020
▁cracks	-13021
▁crappy	-13022
▁cultiv	-13023
▁curved	-13024
▁denied	-13025
▁dialed	-13026
▁digest	-13027
▁donors	-13028
▁doomed	-13029
▁edited	-13030
▁elders	-13031
▁elites	-13032
▁entity	-13033
▁exotic	-13034
▁fights	-13035
▁fishes	-13036
▁fluids	-13037
▁forbid	-13038
▁frostb	-13039
▁fueled	-13040
▁gallon	-13041
▁hacker	-13042
▁hippie	-13043
▁infant	-13044
▁insert	-13045
▁judged	-13046
▁jungle	-13047
▁juxtap	-13048
▁locate	-13049
▁loudly	-13050
▁luxury	-13051
▁manner	-13052
▁matrix	-13053
▁median	-13054
▁metals	-13055
▁mighty	-13056
▁namely	-13057
▁narrow	-13058
▁noises	-13059
▁nuclei	-13060
▁oftent	-13061
▁optics	-13062
▁pilots	-13063
▁poured	-13064
▁powder	-13065
▁prints	-13066
▁proton	-13067
▁reluct	-13068
▁retrof	-13069
▁roller	-13070
▁rooted	-13071
▁rupees	-13072
▁rushed	-13073
▁safari	-13074
▁scheme	-13075
▁sealed	-13076
▁sequel	-13077
▁shells	-13078
▁slowed	-13079
▁somber	-13080
▁sought	-13081
▁speeds	-13082
▁spines	-13083
▁stereo	-13084
▁stigma	-13085
▁stocks	-13086
▁stunts	-13087
▁submit	-13088
▁subtit	-13089
▁syring	-13090
▁taller	-13091
▁theirs	-13092
▁thrust	-13093
▁topics	-13094
▁tweets	-13095
▁unexpl	-13096
▁unlock	-13097
▁voting	-13098
▁warmer	-13099
▁yogurt	-13100
aterials	-13101
ensively	-13102
ervation	-13103
function	-13104
irection	-13105
ittances	-13106
ortality	-13107
ortunate	-13108
othermal	-13109
ountered	-13110
roverted	-13111
sylvania	-13112
▁Academy	-13113
▁Bionics	-13114
▁Bonobos	-13115
▁Caltech	-13116
▁Cassini	-13117
▁Country	-13118
▁Everest	-13119
▁Holland	-13120
▁Ireland	-13121
▁Jackson	-13122
▁Jazeera	-13123
▁Liberia	-13124
▁Marines	-13125
▁Meaning	-13126
▁Mermaid	-13127
▁Nairobi	-13128
▁Natasha	-13129
▁Neander	-13130
▁Prosper	-13131
▁Reading	-13132
▁Rockett	-13133
▁Schwarz	-13134
▁Shortly	-13135
▁Splashy	-13136
▁Strange	-13137
▁Sweeney	-13138
▁Toronto	-13139
▁Working	-13140
▁altered	-13141
▁anytime	-13142
▁appoint	-13143
▁apprent	-13144
▁archety	-13145
▁archive	-13146
▁arrives	-13147
▁bankers	-13148
▁beavers	-13149
▁beloved	-13150
▁blanket	-13151
▁blessed	-13152
▁bluefin	-13153
▁bonding	-13154
▁cardiov	-13155
▁chaotic	-13156
▁checked	-13157
▁chronic	-13158
▁clarity	-13159
▁cleaner	-13160
▁cleared	-13161
▁climbed	-13162
▁cocaine	-13163
▁copying	-13164
▁corners	-13165
▁couples	-13166
▁crashed	-13167
▁crosses	-13168
▁denomin	-13169
▁devoted	-13170
▁disgust	-13171
▁drifted	-13172
▁editing	-13173
▁embassy	-13174
▁episode	-13175
▁excruci	-13176
▁explode	-13177
▁fantasy	-13178
▁filters	-13179
▁fingert	-13180
▁fireman	-13181
▁fitness	-13182
▁folding	-13183
▁fractal	-13184
▁fulfill	-13185
▁gadgets	-13186
▁genital	-13187
▁genomes	-13188
▁giraffe	-13189
▁goggles	-13190
▁gorilla	-13191
▁honored	-13192
▁imitate	-13193
▁killers	-13194
▁legitim	-13195
▁lengths	-13196
▁leopard	-13197
▁lexicon	-13198
▁lightly	-13199
▁linking	-13200
▁lithium	-13201
▁located	-13202
▁longing	-13203
▁madness	-13204
▁margins	-13205
▁matches	-13206
▁migrate	-13207
▁mirrors	-13208
▁mocking	-13209
▁modeled	-13210
▁morally	-13211
▁notions	-13212
▁octopus	-13213
▁outdoor	-13214
▁palette	-13215
▁pathway	-13216
▁penalty	-13217
▁praying	-13218
▁prevail	-13219
▁profits	-13220
▁proport	-13221
▁puppets	-13222
▁quicker	-13223
▁reacted	-13224
▁recipes	-13225
▁recycle	-13226
▁relates	-13227
▁rhythms	-13228
▁scanner	-13229
▁sectors	-13230
▁settled	-13231
▁singers	-13232
▁succumb	-13233
▁summary	-13234
▁surpass	-13235
▁surveys	-13236
▁tactics	-13237
▁tourism	-13238
▁transdu	-13239
▁transit	-13240
▁trapped	-13241
▁triumph	-13242
▁unambig	-13243
▁viewing	-13244
▁visuals	-13245
▁volumes	-13246
identally	-13247
itionally	-13248
olocation	-13249
organized	-13250
▁Broadway	-13251
▁Buddhist	-13252
▁Complete	-13253
▁Greatest	-13254
▁Magazine	-13255
▁Metaphor	-13256
▁Millions	-13257
▁Progress	-13258
▁Saturday	-13259
▁Siftable	-13260
▁Socrates	-13261
▁TEDTalks	-13262
▁Thailand	-13263
▁Thatcher	-13264
▁Tomorrow	-13265
▁Williams	-13266
▁acquired	-13267
▁adequate	-13268
▁advances	-13269
▁advisers	-13270
▁alarming	-13271
▁analyzed	-13272
▁anecdote	-13273
▁annoying	-13274
▁approval	-13275
▁attorney	-13276
▁backpack	-13277
▁balanced	-13278
▁balloons	-13279
▁basement	-13280
▁believer	-13281
▁biofuels	-13282
▁bleeding	-13283
▁blocking	-13284
▁chapters	-13285
▁clusters	-13286
▁contexts	-13287
▁converge	-13288
▁daunting	-13289
▁declared	-13290
▁defeated	-13291
▁demanded	-13292
▁detected	-13293
▁digitize	-13294
▁directed	-13295
▁dreaming	-13296
▁dressing	-13297
▁dyslexic	-13298
▁elevated	-13299
▁embraced	-13300
▁enabling	-13301
▁famously	-13302
▁fearless	-13303
▁feminine	-13304
▁flashing	-13305
▁forwards	-13306
▁freaking	-13307
▁helpless	-13308
▁humbling	-13309
▁icebergs	-13310
▁idealism	-13311
▁improvis	-13312
▁incarcer	-13313
▁journeys	-13314
▁judgment	-13315
▁liberals	-13316
▁matching	-13317
▁metadata	-13318
▁minerals	-13319
▁mortgage	-13320
▁motivate	-13321
▁musician	-13322
▁notation	-13323
▁packaged	-13324
▁passport	-13325
▁patented	-13326
▁powering	-13327
▁pretzels	-13328
▁prostate	-13329
▁railroad	-13330
▁regional	-13331
▁remotely	-13332
▁respects	-13333
▁responds	-13334
▁rewarded	-13335
▁scaffold	-13336
▁sciences	-13337
▁scissors	-13338
▁smartest	-13339
▁socially	-13340
▁solvable	-13341
▁spelling	-13342
▁squatter	-13343
▁squirrel	-13344
▁sticking	-13345
▁stripped	-13346
▁suburban	-13347
▁survives	-13348
▁switched	-13349
▁temporal	-13350
▁timeline	-13351
▁tolerate	-13352
▁tortured	-13353
▁toughest	-13354
▁treasure	-13355
▁trusting	-13356
▁typeface	-13357
▁umbrella	-13358
▁uncommon	-13359
▁undergra	-13360
▁upstairs	-13361
▁vacation	-13362
▁visceral	-13363
▁visitors	-13364
▁volcanic	-13365
▁worrying	-13366
generation	-13367
ifications	-13368
▁Alexander	-13369
▁Edinburgh	-13370
▁Indonesia	-13371
▁Jerusalem	-13372
▁Palestine	-13373
▁Seriously	-13374
▁Somewhere	-13375
▁Victorian	-13376
▁Wednesday	-13377
▁advancing	-13378
▁aerodynam	-13379
▁alongside	-13380
▁assembled	-13381
▁bacterium	-13382
▁blindfold	-13383
▁boyfriend	-13384
▁breakdown	-13385
▁brutality	-13386
▁cafeteria	-13387
▁carbonate	-13388
▁cellphone	-13389
▁champagne	-13390
▁champions	-13391
▁checklist	-13392
▁circuitry	-13393
▁commodity	-13394
▁conducted	-13395
▁confusing	-13396
▁consensus	-13397
▁consuming	-13398
▁defending	-13399
▁disadvant	-13400
▁displayed	-13401
▁dissipate	-13402
▁economist	-13403
▁eliminate	-13404
▁embryonic	-13405
▁encrypted	-13406
▁exercises	-13407
▁exquisite	-13408
▁fertility	-13409
▁firefight	-13410
▁fireflies	-13411
▁fulfilled	-13412
▁gathering	-13413
▁hurricane	-13414
▁implement	-13415
▁inconsist	-13416
▁infection	-13417
▁injection	-13418
▁inspected	-13419
▁instances	-13420
▁integrate	-13421
▁intrigued	-13422
▁intrinsic	-13423
▁isolation	-13424
▁libraries	-13425
▁mutilated	-13426
▁networked	-13427
▁objection	-13428
▁observing	-13429
▁outsiders	-13430
▁overboard	-13431
▁pacemaker	-13432
▁parasites	-13433
▁parenting	-13434
▁passenger	-13435
▁platforms	-13436
▁pollinate	-13437
▁prevalent	-13438
▁projected	-13439
▁reasoning	-13440
▁replacing	-13441
▁resonance	-13442
▁respected	-13443
▁schooling	-13444
▁sequenced	-13445
▁slightest	-13446
▁specimens	-13447
▁summarize	-13448
▁superstar	-13449
▁surrender	-13450
▁surrounds	-13451
▁swallowed	-13452
▁synchrony	-13453
▁territory	-13454
▁terrorist	-13455
▁therapist	-13456
▁tolerance	-13457
▁unhealthy	-13458
▁witnessed	-13459
▁Archimedes	-13460
▁Definitely	-13461
▁Democratic	-13462
▁Depression	-13463
▁Divergence	-13464
▁Especially	-13465
▁Incredible	-13466
▁Innovation	-13467
▁Millennium	-13468
▁Operations	-13469
▁Republican	-13470
▁Understand	-13471
▁Vietnamese	-13472
▁acceptable	-13473
▁accidental	-13474
▁accomplish	-13475
▁accurately	-13476
▁appliances	-13477
▁assessment	-13478
▁attendance	-13479
▁beginnings	-13480
▁calculated	-13481
▁centimeter	-13482
▁comparable	-13483
▁compatible	-13484
▁confession	-13485
▁coordinate	-13486
▁critically	-13487
▁criticized	-13488
▁cumulative	-13489
▁depressing	-13490
▁distribute	-13491
▁domination	-13492
▁electrodes	-13493
▁exceptions	-13494
▁extraction	-13495
▁horrifying	-13496
▁idealistic	-13497
▁imperative	-13498
▁incomplete	-13499
▁increments	-13500
▁liberation	-13501
▁likelihood	-13502
▁manageable	-13503
▁mosquitoes	-13504
▁nanometers	-13505
▁oftentimes	-13506
▁overlooked	-13507
▁paralyzing	-13508
▁parameters	-13509
▁parliament	-13510
▁pheromones	-13511
▁positively	-13512
▁presenting	-13513
▁privileged	-13514
▁profitable	-13515
▁protesters	-13516
▁randomness	-13517
▁references	-13518
▁renewables	-13519
▁repertoire	-13520
▁repetition	-13521
▁replicator	-13522
▁restricted	-13523
▁sandwiches	-13524
▁separation	-13525
▁structured	-13526
▁synonymous	-13527
▁telephones	-13528
▁trajectory	-13529
▁transforms	-13530
▁translates	-13531
▁unfinished	-13532
▁widespread	-13533
▁windshield	-13534
▁Connecticut	-13535
▁Corporation	-13536
▁Essentially	-13537
▁Information	-13538
▁adventurous	-13539
▁battlefield	-13540
▁celebrities	-13541
▁centralized	-13542
▁commodities	-13543
▁comparisons	-13544
▁compromised	-13545
▁constrained	-13546
▁convenience	-13547
▁departments	-13548
▁desperation	-13549
▁destructive	-13550
▁diagnostics	-13551
▁encountered	-13552
▁exceptional	-13553
▁fertilizers	-13554
▁fingerprint	-13555
▁flexibility	-13556
▁forgiveness	-13557
▁frequencies	-13558
▁frustration	-13559
▁illustrates	-13560
▁intentional	-13561
▁interrupted	-13562
▁investigate	-13563
▁marshmallow	-13564
▁masterpiece	-13565
▁millimeters	-13566
▁negotiating	-13567
▁nutritional	-13568
▁programmers	-13569
▁researching	-13570
▁respiratory	-13571
▁specialists	-13572
▁specialized	-13573
▁stethoscope	-13574
▁stimulation	-13575
▁symmetrical	-13576
▁ultraviolet	-13577
▁unambiguous	-13578
▁universally	-13579
▁utilitarian	-13580
▁Pennsylvania	-13581
▁appreciation	-13582
▁combinations	-13583
▁corporations	-13584
▁creationists	-13585
▁differential	-13586
▁excruciating	-13587
▁experimenter	-13588
▁grandparents	-13589
▁historically	-13590
▁incidentally	-13591
▁laboratories	-13592
▁personalized	-13593
▁photographer	-13594
▁prostitution	-13595
▁standardized	-13596
▁Interestingly	-13597
▁astonishingly	-13598
▁complications	-13599
▁experimenting	-13600
▁functionality	-13601
▁photographers	-13602
▁prescriptions	-13603
▁traditionally	-13604
▁administrators	-13605
▁cardiovascular	-13606
▁constitutional	-13607
▁representative	-13608
▁scientifically	-13609
▁specialization	-13610
▁experimentation	-13611
25	-13612
2?	-13613
90	-13614
Bl	-13615
EG	-13616
ES	-13617
HA	-13618
Ha	-13619
Hi	-13620
Ke	-13621
MS	-13622
MT	-13623
Ms	-13624
OS	-13625
To	-13626
Up	-13627
ea	-13628
fa	-13629
fo	-13630
ga	-13631
rr	-13632
sa	-13633
tt	-13634
vo	-13635
zo	-13636
400	-13637
600	-13638
Art	-13639
Hmm	-13640
IPP	-13641
Lab	-13642
Ole	-13643
Pro	-13644
Sit	-13645
amy	-13646
aph	-13647
aug	-13648
bao	-13649
bec	-13650
bur	-13651
cas	-13652
ctr	-13653
dad	-13654
det	-13655
ede	-13656
eor	-13657
eye	-13658
fts	-13659
fur	-13660
gel	-13661
hab	-13662
hew	-13663
hil	-13664
idi	-13665
ige	-13666
ija	-13667
iro	-13668
iuk	-13669
kel	-13670
lux	-13671
nae	-13672
ods	-13673
ois	-13674
oup	-13675
owl	-13676
oxy	-13677
pse	-13678
six	-13679
sub	-13680
ucl	-13681
ugs	-13682
uno	-13683
upy	-13684
uri	-13685
uts	-13686
vie	-13687
voc	-13688
▁"1	-13689
▁3:	-13690
▁47	-13691
▁64	-13692
▁73	-13693
▁76	-13694
▁82	-13695
▁93	-13696
▁98	-13697
▁AD	-13698
▁AO	-13699
▁AP	-13700
▁Ax	-13701
▁Ba	-13702
▁CI	-13703
▁CT	-13704
▁DI	-13705
▁DL	-13706
▁Du	-13707
▁Ep	-13708
▁GB	-13709
▁IP	-13710
▁Kw	-13711
▁Ky	-13712
▁MA	-13713
▁MG	-13714
▁Ms	-13715
▁Ol	-13716
▁Op	-13717
▁SL	-13718
▁ST	-13719
▁TD	-13720
▁TH	-13721
▁UE	-13722
▁Wa	-13723
▁XL	-13724
▁ZK	-13725
▁ja	-13726
Greg	-13727
Star	-13728
acci	-13729
aire	-13730
aken	-13731
alog	-13732
alph	-13733
anzi	-13734
arak	-13735
aron	-13736
atom	-13737
aves	-13738
avio	-13739
axis	-13740
beat	-13741
bole	-13742
bowl	-13743
bris	-13744
cile	-13745
ctar	-13746
cted	-13747
eard	-13748
elve	-13749
emes	-13750
erus	-13751
ewey	-13752
fers	-13753
fill	-13754
gill	-13755
hasa	-13756
hops	-13757
ials	-13758
ibon	-13759
ibri	-13760
idel	-13761
igue	-13762
iner	-13763
ingo	-13764
iser	-13765
keys	-13766
kins	-13767
laci	-13768
laim	-13769
lead	-13770
lift	-13771
mann	-13772
mart	-13773
meer	-13774
mile	-13775
nedy	-13776
odka	-13777
olar	-13778
olia	-13779
olis	-13780
only	-13781
opsy	-13782
oton	-13783
otte	-13784
pest	-13785
pons	-13786
prot	-13787
rait	-13788
rals	-13789
rann	-13790
rays	-13791
rend	-13792
sels	-13793
supp	-13794
text	-13795
than	-13796
tics	-13797
udic	-13798
umbs	-13799
unky	-13800
urga	-13801
uten	-13802
vels	-13803
with	-13804
worm	-13805
ylum	-13806
ymph	-13807
your	-13808
zard	-13809
▁125	-13810
▁14,	-13811
▁14.	-13812
▁16,	-13813
▁16-	-13814
▁17,	-13815
▁17.	-13816
▁187	-13817
▁3.5	-13818
▁30-	-13819
▁30.	-13820
▁350	-13821
▁750	-13822
▁80-	-13823
▁Alh	-13824
▁Ang	-13825
▁Ash	-13826
▁Ath	-13827
▁BMW	-13828
▁Bee	-13829
▁Boe	-13830
▁Bog	-13831
▁Bot	-13832
▁CDs	-13833
▁Cru	-13834
▁Doc	-13835
▁Dop	-13836
▁Dum	-13837
▁Ell	-13838
▁Enc	-13839
▁Env	-13840
▁Equ	-13841
▁Eye	-13842
▁FBI	-13843
▁Fat	-13844
▁Fly	-13845
▁Fox	-13846
▁Gog	-13847
▁III	-13848
▁Jay	-13849
▁Kal	-13850
▁Kan	-13851
▁Lam	-13852
▁Lee	-13853
▁MBA	-13854
▁Mid	-13855
▁Mub	-13856
▁NBA	-13857
▁Non	-13858
▁Oak	-13859
▁Pow	-13860
▁Pur	-13861
▁Sex	-13862
▁Son	-13863
▁Sty	-13864
▁Sue	-13865
▁São	-13866
▁Tah	-13867
▁Taj	-13868
▁Tam	-13869
▁Tob	-13870
▁Top	-13871
▁Yep	-13872
▁Zen	-13873
▁ank	-13874
▁asc	-13875
▁axe	-13876
▁bip	-13877
▁bot	-13878
▁bru	-13879
▁bum	-13880
▁bye	-13881
▁cab	-13882
▁cem	-13883
▁cul	-13884
▁cyn	-13885
▁dim	-13886
▁dum	-13887
▁fox	-13888
▁gel	-13889
▁haw	-13890
▁hay	-13891
▁heh	-13892
▁hid	-13893
▁ion	-13894
▁kin	-13895
▁kit	-13896
▁lag	-13897
▁lam	-13898
▁lod	-13899
▁nic	-13900
▁ove	-13901
▁peg	-13902
▁ply	-13903
▁rew	-13904
▁rib	-13905
▁rip	-13906
▁rod	-13907
▁sem	-13908
▁sne	-13909
▁swo	-13910
▁tam	-13911
▁thy	-13912
▁wig	-13913
,000,	-13914
Sorry	-13915
These	-13916
Which	-13917
abama	-13918
abyte	-13919
acked	-13920
adija	-13921
adise	-13922
agged	-13923
algia	-13924
alone	-13925
alore	-13926
angel	-13927
ansas	-13928
asant	-13929
atile	-13930
avage	-13931
bacco	-13932
bound	-13933
brain	-13934
brand	-13935
bucks	-13936
built	-13937
cases	-13938
dream	-13939
eable	-13940
ellar	-13941
eming	-13942
enses	-13943
etary	-13944
fifth	-13945
giene	-13946
heric	-13947
iants	-13948
idays	-13949
ifier	-13950
ilate	-13951
illas	-13952
immer	-13953
imony	-13954
inity	-13955
inked	-13956
isure	-13957
itics	-13958
itius	-13959
ixote	-13960
lined	-13961
mable	-13962
marks	-13963
metic	-13964
named	-13965
negie	-13966
occup	-13967
ogens	-13968
ogram	-13969
olish	-13970
omics	-13971
opian	-13972
osers	-13973
ostic	-13974
paper	-13975
pered	-13976
plate	-13977
rings	-13978
rophe	-13979
rophy	-13980
sorio	-13981
touch	-13982
track	-13983
tyard	-13984
uated	-13985
ucive	-13986
ucose	-13987
udson	-13988
ulite	-13989
ution	-13990
venue	-13991
watch	-13992
waves	-13993
wired	-13994
woman	-13995
▁2004	-13996
▁2030	-13997
▁AIMS	-13998
▁Ants	-13999
▁Bess	-14000
▁Bomb	-14001
▁Bond	-14002
▁Boom	-14003
▁Cars	-14004
▁Case	-14005
▁Cath	-14006
▁Chap	-14007
▁Coch	-14008
▁Code	-14009
▁Dame	-14010
▁Dana	-14011
▁Desp	-14012
▁Doha	-14013
▁Drug	-14014
▁Eucl	-14015
▁Fold	-14016
▁Full	-14017
▁Gala	-14018
▁Game	-14019
▁Goli	-14020
▁Grey	-14021
▁Hulk	-14022
▁Juan	-14023
▁Kara	-14024
▁Karl	-14025
▁Lang	-14026
▁Made	-14027
▁Main	-14028
▁Maur	-14029
▁Meat	-14030
▁Nich	-14031
▁Pier	-14032
▁Pink	-14033
▁Rain	-14034
▁Road	-14035
▁Roll	-14036
▁Rose	-14037
▁Rush	-14038
▁Silk	-14039
▁Snow	-14040
▁Soon	-14041
▁Teen	-14042
▁Tele	-14043
▁Trek	-14044
▁Vill	-14045
▁adul	-14046
▁axes	-14047
▁barn	-14048
▁bets	-14049
▁blob	-14050
▁blur	-14051
▁boun	-14052
▁brew	-14053
▁bund	-14054
▁bure	-14055
▁calc	-14056
▁casc	-14057
▁conj	-14058
▁coup	-14059
▁crop	-14060
▁cups	-14061
▁cush	-14062
▁cuts	-14063
▁cycl	-14064
▁dece	-14065
▁defl	-14066
▁dele	-14067
▁dess	-14068
▁dice	-14069
▁ding	-14070
▁dove	-14071
▁dude	-14072
▁dull	-14073
▁dump	-14074
▁echo	-14075
▁edit	-14076
▁eman	-14077
▁empt	-14078
▁esca	-14079
▁evac	-14080
▁fain	-14081
▁fame	-14082
▁fees	-14083
▁flee	-14084
▁foam	-14085
▁gait	-14086
▁gard	-14087
▁germ	-14088
▁ghar	-14089
▁gist	-14090
▁glow	-14091
▁gosh	-14092
▁guid	-14093
▁haul	-14094
▁hind	-14095
▁holy	-14096
▁hood	-14097
▁hull	-14098
▁hydr	-14099
▁kidn	-14100
▁kite	-14101
▁lane	-14102
▁lend	-14103
▁lent	-14104
▁lied	-14105
▁lure	-14106
▁lust	-14107
▁magg	-14108
▁mash	-14109
▁migr	-14110
▁monk	-14111
▁muff	-14112
▁mund	-14113
▁nano	-14114
▁orth	-14115
▁pell	-14116
▁phon	-14117
▁pine	-14118
▁prec	-14119
▁quar	-14120
▁quot	-14121
▁rays	-14122
▁reck	-14123
▁reli	-14124
▁rept	-14125
▁resh	-14126
▁rust	-14127
▁sari	-14128
▁saus	-14129
▁scra	-14130
▁sine	-14131
▁sket	-14132
▁skip	-14133
▁snob	-14134
▁soda	-14135
▁spun	-14136
▁stir	-14137
▁sums	-14138
▁sync	-14139
▁taps	-14140
▁tire	-14141
▁todd	-14142
▁tofu	-14143
▁unac	-14144
▁unre	-14145
▁veil	-14146
▁vest	-14147
▁vine	-14148
▁whoa	-14149
▁wolf	-14150
▁yawn	-14151
▁yoga	-14152
aining	-14153
ancies	-14154
anders	-14155
apagos	-14156
asking	-14157
asters	-14158
atched	-14159
ateral	-14160
carbon	-14161
compet	-14162
cycles	-14163
ellers	-14164
engage	-14165
entity	-14166
etical	-14167
handed	-14168
headed	-14169
ibbean	-14170
idding	-14171
ifting	-14172
igades	-14173
illery	-14174
inogen	-14175
irable	-14176
itutes	-14177
izable	-14178
judice	-14179
leanor	-14180
legged	-14181
minded	-14182
ochond	-14183
ocracy	-14184
ogical	-14185
ograms	-14186
opatch	-14187
orough	-14188
owanus	-14189
places	-14190
ppling	-14191
puters	-14192
ricity	-14193
rified	-14194
roduce	-14195
rogant	-14196
screen	-14197
script	-14198
source	-14199
twined	-14200
urfing	-14201
ursday	-14202
wegian	-14203
writer	-14204
▁1945,	-14205
▁1970,	-14206
▁1970.	-14207
▁1986.	-14208
▁1990,	-14209
▁1990.	-14210
▁1991.	-14211
▁2000,	-14212
▁2011.	-14213
▁7,000	-14214
▁Agnes	-14215
▁Among	-14216
▁Brain	-14217
▁Brent	-14218
▁Bronx	-14219
▁Cheet	-14220
▁Clean	-14221
▁Costa	-14222
▁Cross	-14223
▁Daddy	-14224
▁Dewey	-14225
▁Dream	-14226
▁Durga	-14227
▁Eames	-14228
▁Fibon	-14229
▁Fifth	-14230
▁Finan	-14231
▁Georg	-14232
▁Glaci	-14233
▁Grail	-14234
▁Hindu	-14235
▁Incre	-14236
▁Indra	-14237
▁Infin	-14238
▁Intel	-14239
▁Irish	-14240
▁Judge	-14241
▁Kanzi	-14242
▁Katie	-14243
▁Makes	-14244
▁Might	-14245
▁Model	-14246
▁Moder	-14247
▁Movie	-14248
▁Netra	-14249
▁Notre	-14250
▁Pants	-14251
▁Paolo	-14252
▁Party	-14253
▁Place	-14254
▁Quick	-14255
▁Ralph	-14256
▁Riley	-14257
▁Roots	-14258
▁Rosie	-14259
▁Rouge	-14260
▁Rubik	-14261
▁Sixth	-14262
▁Skype	-14263
▁Smart	-14264
▁Solly	-14265
▁Sound	-14266
▁Stars	-14267
▁Story	-14268
▁Sudan	-14269
▁Titus	-14270
▁Twice	-14271
▁Vinci	-14272
▁Weibo	-14273
▁Whole	-14274
▁Woody	-14275
▁Yours	-14276
▁advoc	-14277
▁aimed	-14278
▁alibi	-14279
▁amate	-14280
▁arche	-14281
▁arise	-14282
▁badge	-14283
▁baker	-14284
▁bands	-14285
▁batch	-14286
▁bathe	-14287
▁beast	-14288
▁blobs	-14289
▁blues	-14290
▁blush	-14291
▁boils	-14292
▁boost	-14293
▁boson	-14294
▁buggy	-14295
▁careg	-14296
▁carve	-14297
▁catap	-14298
▁ceram	-14299
▁churn	-14300
▁conve	-14301
▁cooks	-14302
▁cores	-14303
▁daddy	-14304
▁datas	-14305
▁debut	-14306
▁decis	-14307
▁deleg	-14308
▁dilig	-14309
▁dimin	-14310
▁docum	-14311
▁drama	-14312
▁emits	-14313
▁encry	-14314
▁erupt	-14315
▁essay	-14316
▁euros	-14317
▁fetal	-14318
▁flags	-14319
▁flame	-14320
▁flaps	-14321
▁flaws	-14322
▁fleet	-14323
▁flick	-14324
▁flips	-14325
▁fluke	-14326
▁focal	-14327
▁fring	-14328
▁gases	-14329
▁grams	-14330
▁greed	-14331
▁grief	-14332
▁hello	-14333
▁hooks	-14334
▁humil	-14335
▁incon	-14336
▁inhab	-14337
▁irred	-14338
▁kooks	-14339
▁lamps	-14340
▁lapse	-14341
▁laure	-14342
▁lawns	-14343
▁lifts	-14344
▁loads	-14345
▁loser	-14346
▁ludic	-14347
▁lymph	-14348
▁masks	-14349
▁merch	-14350
▁merge	-14351
▁midst	-14352
▁milit	-14353
▁monks	-14354
▁moons	-14355
▁negle	-14356
▁nerdy	-14357
▁niece	-14358
▁noble	-14359
▁nomad	-14360
▁oiled	-14361
▁olive	-14362
▁opium	-14363
▁orang	-14364
▁overt	-14365
▁packs	-14366
▁pains	-14367
▁pater	-14368
▁peaks	-14369
▁peril	-14370
▁pipes	-14371
▁pixel	-14372
▁plumb	-14373
▁poses	-14374
▁proph	-14375
▁rabbi	-14376
▁recap	-14377
▁resid	-14378
▁resur	-14379
▁revol	-14380
▁rogue	-14381
▁rolls	-14382
▁ropes	-14383
▁rotor	-14384
▁sands	-14385
▁scans	-14386
▁scent	-14387
▁seeks	-14388
▁shalt	-14389
▁skins	-14390
▁slope	-14391
▁sniff	-14392
▁soils	-14393
▁spade	-14394
▁spite	-14395
▁squid	-14396
▁stagn	-14397
▁stats	-14398
▁steam	-14399
▁steep	-14400
▁stole	-14401
▁sunny	-14402
▁tenth	-14403
▁tents	-14404
▁theat	-14405
▁therm	-14406
▁titan	-14407
▁trail	-14408
▁trypt	-14409
▁unple	-14410
▁untie	-14411
▁valve	-14412
▁verse	-14413
▁wears	-14414
▁yards	-14415
Unclear	-14416
acities	-14417
ambique	-14418
animate	-14419
arently	-14420
athetic	-14421
atively	-14422
comfort	-14423
enhagen	-14424
esthesi	-14425
graders	-14426
icating	-14427
inistry	-14428
itioned	-14429
keeping	-14430
patient	-14431
powered	-14432
respons	-14433
rofluid	-14434
solving	-14435
species	-14436
ulously	-14437
viathan	-14438
wheeler	-14439
writing	-14440
▁70,000	-14441
▁Barack	-14442
▁Batiuk	-14443
▁Bertie	-14444
▁Bilbao	-14445
▁Bonnet	-14446
▁Bosnia	-14447
▁Celebr	-14448
▁Darfur	-14449
▁Diplom	-14450
▁Edison	-14451
▁Effect	-14452
▁Genome	-14453
▁Goldie	-14454
▁Ground	-14455
▁Immedi	-14456
▁Market	-14457
▁Miller	-14458
▁Mozart	-14459
▁Muriel	-14460
▁Natanz	-14461
▁Norman	-14462
▁Occupy	-14463
▁Osorio	-14464
▁Oxygen	-14465
▁Period	-14466
▁Peters	-14467
▁Powell	-14468
▁Prince	-14469
▁Queens	-14470
▁Reagan	-14471
▁Robots	-14472
▁Shoots	-14473
▁Studio	-14474
▁Target	-14475
▁Toyota	-14476
▁Trying	-14477
▁Unless	-14478
▁Venice	-14479
▁Vision	-14480
▁Voices	-14481
▁Warren	-14482
▁abroad	-14483
▁airbag	-14484
▁anatom	-14485
▁apathy	-14486
▁artery	-14487
▁atomic	-14488
▁baking	-14489
▁basics	-14490
▁bionic	-14491
▁bombed	-14492
▁bonded	-14493
▁bounce	-14494
▁bribes	-14495
▁bricks	-14496
▁bucket	-14497
▁canary	-14498
▁carrot	-14499
▁cataly	-14500
▁cereal	-14501
▁chains	-14502
▁chased	-14503
▁cheeks	-14504
▁cinema	-14505
▁closes	-14506
▁closet	-14507
▁cloudy	-14508
▁compan	-14509
▁cruise	-14510
▁debris	-14511
▁dental	-14512
▁doubts	-14513
▁embody	-14514
▁equals	-14515
▁euphem	-14516
▁expend	-14517
▁explor	-14518
▁export	-14519
▁extrem	-14520
▁favela	-14521
▁format	-14522
▁frames	-14523
▁fridge	-14524
▁gently	-14525
▁gloves	-14526
▁halves	-14527
▁helmet	-14528
▁humane	-14529
▁humble	-14530
▁humili	-14531
▁imposs	-14532
▁innate	-14533
▁insign	-14534
▁interd	-14535
▁interv	-14536
▁ironic	-14537
▁judges	-14538
▁juggle	-14539
▁knives	-14540
▁ladder	-14541
▁lastly	-14542
▁learns	-14543
▁listed	-14544
▁liters	-14545
▁loaded	-14546
▁mapped	-14547
▁melody	-14548
▁melted	-14549
▁mildly	-14550
▁miscon	-14551
▁mythic	-14552
▁napkin	-14553
▁nectar	-14554
▁neurom	-14555
▁novels	-14556
▁nozzle	-14557
▁occupy	-14558
▁outbre	-14559
▁packet	-14560
▁pasted	-14561
▁payoff	-14562
▁pepper	-14563
▁petals	-14564
▁petrol	-14565
▁polish	-14566
▁poorly	-14567
▁precip	-14568
▁precon	-14569
▁privat	-14570
▁probes	-14571
▁protoc	-14572
▁proves	-14573
▁provin	-14574
▁queens	-14575
▁redund	-14576
▁refers	-14577
▁rented	-14578
▁resort	-14579
▁retrie	-14580
▁rolled	-14581
▁routes	-14582
▁scaled	-14583
▁seated	-14584
▁skiing	-14585
▁smiley	-14586
▁solemn	-14587
▁solves	-14588
▁sooner	-14589
▁spikes	-14590
▁splits	-14591
▁sprawl	-14592
▁statue	-14593
▁sticky	-14594
▁strang	-14595
▁superf	-14596
▁tamper	-14597
▁taxpay	-14598
▁testes	-14599
▁thirty	-14600
▁throws	-14601
▁thumbs	-14602
▁toxins	-14603
▁trance	-14604
▁twists	-14605
▁uncond	-14606
▁undert	-14607
▁uterus	-14608
▁valued	-14609
▁vanity	-14610
▁voters	-14611
▁webcam	-14612
▁wolves	-14613
▁zoning	-14614
Jeopardy	-14615
assembly	-14616
breaking	-14617
cellence	-14618
ceptable	-14619
clinical	-14620
esthetic	-14621
ictional	-14622
illation	-14623
rability	-14624
ructures	-14625
violence	-14626
▁250,000	-14627
▁500,000	-14628
▁Alabama	-14629
▁Already	-14630
▁Austria	-14631
▁Command	-14632
▁Digital	-14633
▁Eleanor	-14634
▁Embrace	-14635
▁Environ	-14636
▁Firstly	-14637
▁Foreign	-14638
▁Gallery	-14639
▁Goliath	-14640
▁Gowanus	-14641
▁Harriet	-14642
▁Houston	-14643
▁Israeli	-14644
▁Karajan	-14645
▁Kennedy	-14646
▁Khadija	-14647
▁Kingdom	-14648
▁Kleiber	-14649
▁Langley	-14650
▁Leaders	-14651
▁Mastery	-14652
▁Montana	-14653
▁Mubarak	-14654
▁Muslims	-14655
▁Namibia	-14656
▁Natural	-14657
▁Octavio	-14658
▁Picture	-14659
▁Quixote	-14660
▁Sputnik	-14661
▁Stewart	-14662
▁Vermeer	-14663
▁Village	-14664
▁Virtual	-14665
▁Walking	-14666
▁Yorkers	-14667
▁abalone	-14668
▁algebra	-14669
▁aligned	-14670
▁annoyed	-14671
▁apocaly	-14672
▁applaud	-14673
▁asymmet	-14674
▁auction	-14675
▁balcony	-14676
▁basking	-14677
▁bedrock	-14678
▁blocked	-14679
▁booking	-14680
▁branded	-14681
▁bureauc	-14682
▁candles	-14683
▁cockpit	-14684
▁coolest	-14685
▁costume	-14686
▁crushed	-14687
▁declass	-14688
▁deepest	-14689
▁dessert	-14690
▁digging	-14691
▁diploma	-14692
▁dispute	-14693
▁divorce	-14694
▁dropout	-14695
▁embroid	-14696
▁endless	-14697
▁envelop	-14698
▁equator	-14699
▁excites	-14700
▁excuses	-14701
▁exhilar	-14702
▁facilit	-14703
▁fatigue	-14704
▁favelas	-14705
▁fetuses	-14706
▁filming	-14707
▁flavors	-14708
▁framing	-14709
▁fucking	-14710
▁gaining	-14711
▁gharial	-14712
▁glucose	-14713
▁goddess	-14714
▁goodbye	-14715
▁grasses	-14716
▁guessed	-14717
▁heating	-14718
▁heavily	-14719
▁humming	-14720
▁hygiene	-14721
▁imprint	-14722
▁inmates	-14723
▁kittens	-14724
▁lacking	-14725
▁leaning	-14726
▁learner	-14727
▁leisure	-14728
▁lineage	-14729
▁manages	-14730
▁massage	-14731
▁masters	-14732
▁metrics	-14733
▁microns	-14734
▁monster	-14735
▁motions	-14736
▁multipl	-14737
▁mundane	-14738
▁narciss	-14739
▁newborn	-14740
▁novelty	-14741
▁nursing	-14742
▁nurture	-14743
▁oranges	-14744
▁oysters	-14745
▁packing	-14746
▁pajamas	-14747
▁partons	-14748
▁peeling	-14749
▁pillars	-14750
▁pleased	-14751
▁plotted	-14752
▁prayers	-14753
▁predisp	-14754
▁proceed	-14755
▁psyched	-14756
▁psychic	-14757
▁puberty	-14758
▁puzzled	-14759
▁rainbow	-14760
▁rampant	-14761
▁reconst	-14762
▁refined	-14763
▁relaxed	-14764
▁restore	-14765
▁retired	-14766
▁rightly	-14767
▁ripping	-14768
▁rooster	-14769
▁secrecy	-14770
▁segment	-14771
▁servant	-14772
▁signing	-14773
▁sincere	-14774
▁smelled	-14775
▁spotted	-14776
▁stimuli	-14777
▁swollen	-14778
▁symptom	-14779
▁syringe	-14780
▁tactile	-14781
▁tadpole	-14782
▁talents	-14783
▁teenage	-14784
▁tension	-14785
▁thinker	-14786
[...]
